{"<s>":0,"<pad>":1,"</s>":2,"<unk>":3,"<mask>":4,"!":5,"\"":6,"#":7,"$":8,"%":9,"&":10,"'":11,"(":12,")":13,"*":14,"+":15,",":16,"-":17,".":18,"/":19,"0":20,"1":21,"2":22,"3":23,"4":24,"5":25,"6":26,"7":27,"8":28,"9":29,":":30,";":31,"<":32,"=":33,">":34,"?":35,"@":36,"A":37,"B":38,"C":39,"D":40,"E":41,"F":42,"G":43,"H":44,"I":45,"J":46,"K":47,"L":48,"M":49,"N":50,"O":51,"P":52,"Q":53,"R":54,"S":55,"T":56,"U":57,"V":58,"W":59,"X":60,"Y":61,"Z":62,"[":63,"\\":64,"]":65,"^":66,"_":67,"`":68,"a":69,"b":70,"c":71,"d":72,"e":73,"f":74,"g":75,"h":76,"i":77,"j":78,"k":79,"l":80,"m":81,"n":82,"o":83,"p":84,"q":85,"r":86,"s":87,"t":88,"u":89,"v":90,"w":91,"x":92,"y":93,"z":94,"{":95,"|":96,"}":97,"~":98,"¡":99,"¢":100,"£":101,"¤":102,"¥":103,"¦":104,"§":105,"¨":106,"©":107,"ª":108,"«":109,"¬":110,"®":111,"¯":112,"°":113,"±":114,"²":115,"³":116,"´":117,"µ":118,"¶":119,"·":120,"¸":121,"¹":122,"º":123,"»":124,"¼":125,"½":126,"¾":127,"¿":128,"À":129,"Á":130,"Â":131,"Ã":132,"Ä":133,"Å":134,"Æ":135,"Ç":136,"È":137,"É":138,"Ê":139,"Ë":140,"Ì":141,"Í":142,"Î":143,"Ï":144,"Ð":145,"Ñ":146,"Ò":147,"Ó":148,"Ô":149,"Õ":150,"Ö":151,"×":152,"Ø":153,"Ù":154,"Ú":155,"Û":156,"Ü":157,"Ý":158,"Þ":159,"ß":160,"à":161,"á":162,"â":163,"ã":164,"ä":165,"å":166,"æ":167,"ç":168,"è":169,"é":170,"ê":171,"ë":172,"ì":173,"í":174,"î":175,"ï":176,"ð":177,"ñ":178,"ò":179,"ó":180,"ô":181,"õ":182,"ö":183,"÷":184,"ø":185,"ù":186,"ú":187,"û":188,"ü":189,"ý":190,"þ":191,"ÿ":192,"Ā":193,"ā":194,"Ă":195,"ă":196,"Ą":197,"ą":198,"Ć":199,"ć":200,"Ĉ":201,"ĉ":202,"Ċ":203,"ċ":204,"Č":205,"č":206,"Ď":207,"ď":208,"Đ":209,"đ":210,"Ē":211,"ē":212,"Ĕ":213,"ĕ":214,"Ė":215,"ė":216,"Ę":217,"ę":218,"Ě":219,"ě":220,"Ĝ":221,"ĝ":222,"Ğ":223,"ğ":224,"Ġ":225,"ġ":226,"Ģ":227,"ģ":228,"Ĥ":229,"ĥ":230,"Ħ":231,"ħ":232,"Ĩ":233,"ĩ":234,"Ī":235,"ī":236,"Ĭ":237,"ĭ":238,"Į":239,"į":240,"İ":241,"ı":242,"Ĳ":243,"ĳ":244,"Ĵ":245,"ĵ":246,"Ķ":247,"ķ":248,"ĸ":249,"Ĺ":250,"ĺ":251,"Ļ":252,"ļ":253,"Ľ":254,"ľ":255,"Ŀ":256,"ŀ":257,"Ł":258,"ł":259,"Ń":260,"Ġt":261,"he":262,"Ġa":263,"on":264,"in":265,"Ġo":266,"Ġthe":267,"re":268,"it":269,"Ġof":270,"is":271,"en":272,"at":273,"Ġw":274,"er":275,"Ġc":276,"ion":277,"Ġs":278,"Ġp":279,"al":280,"ic":281,"Ġin":282,"nd":283,"Ġb":284,"es":285,"Ġth":286,"or":287,"Ġto":288,"Ġm":289,"ce":290,"ct":291,"Ġf":292,"ing":293,"an":294,"ed":295,"Ġn":296,"Ġe":297,"se":298,"ou":299,"Ġis":300,"ly":301,"ĠĠ":302,"Ġre":303,"le":304,"Ġand":305,"Ġit":306,"Ġcon":307,"Ġd":308,"Ġbe":309,"st":310,"om":311,"ent":312,"Ġwh":313,"ot":314,"ar":315,"as":316,"ut":317,"ich":318,"ect":319,"Ġh":320,"Ġpr":321,"Ġas":322,"ll":323,"Ġwhich":324,"Ġthat":325,"the":326,"Ġu":327,"iv":328,"im":329,"ition":330,"ation":331,"os":332,"ity":333,"Ġan":334,"Ġex":335,"Ġon":336,"Ġl":337,"ical":338,"Ġnot":339,"ĠĠĠĠ":340,"pt":341,"Ġthis":342,"ject":343,"ow":344,"ess":345,"Ġwe":346,"ith":347,"Ġfor":348,"id":349,"bject":350,"Ġsu":351,"ib":352,"ence":353,"cept":354,"ter":355,"ure":356,"ld":357,"ir":358,"Ġwith":359,"Ġg":360,"th":361,"ur":362,"ci":363,"ĠI":364,"ver":365,"qu":366,"og":367,"res":368,"ive":369,"ception":370,"ist":371,"ason":372,"Ġor":373,"ay":374,"ere":375,"Ġcan":376,"gh":377,"ain":378,"Ġby":379,"ec":380,"if":381,"and":382,"sel":383,"per":384,"âĢ":385,"sib":386,"Ġall":387,"rom":388,"ul":389,"Ġpro":390,"em":391,"pp":392,"Ġreason":393,"Ġobject":394,"ĠT":395,"Ġare":396,"ve":397,"ate":398,"con":399,"Ġfrom":400,"ch":401,"Ġde":402,"end":403,"ust":404,"ore":405,"Ġint":406,"ple":407,"Ġbut":408,"il":409,"ther":410,"act":411,"Ġal":412,"hen":413,"us":414,"Ġits":415,"ossib":416,"Ġha":417,"Ġconception":418,"ill":419,"Ġonly":420,"aw":421,"am":422,"pl":423,"Ġun":424,"ould":425,"dition":426,"ab":427,"nder":428,"âĢĶ":429,"ough":430,"self":431,"um":432,"inci":433,"ĠĠĠĠĠĠĠĠ":434,"Ġat":435,"ol":436,"de":437,"Ġca":438,"Ġ(":439,"ig":440,"ans":441,"tain":442,"Ġour":443,"Ġthere":444,"min":445,"Ġlaw":446,"ies":447,"termin":448,"Ġmust":449,"Ġsp":450,"Ġcom":451,"tr":452,"not":453,"of":454,"cc":455,"ality":456,"Ġpossib":457,"Ġprinci":458,"ecess":459,"resent":460,"est":461,"Ġr":462,"Ġem":463,"ous":464,"Ġwor":465,"Ġso":466,"ide":467,"Ġpure":468,"Ġexist":469,"Ġother":470,"Ġme":471,"her":472,"Ġunder":473,"Ġhave":474,"ience":475,"perience":476,"Ġdetermin":477,"stand":478,"Ġdo":479,"Ġtr":480,"Ġsen":481,"ction":482,"Ġmere":483,"Ġwill":484,"fore":485,"ogn":486,"ĠThe":487,"ime":488,"Ġv":489,"od":490,"ĠB":491,"use":492,"Ġcondition":493,"ary":494,"Ġany":495,"very":496,"Ġnecess":497,"ak":498,"omen":499,"Ġitself":500,"ge":501,"Ġmay":502,"ound":503,"Ġhe":504,"Ġim":505,"henomen":506,"Ġper":507,"Ġthem":508,"ori":509,"Ġform":510,"Ġnat":511,"Ġno":512,"pr":513,"Ġthey":514,"all":515,"standing":516,"ard":517,"Ġab":518,"ad":519,"Ġthing":520,"ame":521,"pir":522,"uition":523,"Ġsy":524,"pos":525,"Ġtime":526,"ever":527,"Ġreg":528,"su":529,"Ġk":530,"Ġexperience":531,"able":532,"iori":533,"pirical":534,"ind":535,"ose":536,"ility":537,"Ġus":538,"Ġif":539,"Ġsh":540,"ant":541,"ĠF":542,"Ġbeing":543,"ff":544,"Ġcannot":545,"endent":546,"actical":547,"ace":548,"ations":549,"out":550,"ph":551,"Ġcogn":552,"art":553,"Ġse":554,"ome":555,"ex":556,"Ġhas":557,"Ġone":558,"ud":559,"Ġthese":560,"Ġphenomen":561,"Ġqu":562,"Ġide":563,"Ġrel":564,"ves":565,"Ġst":566,"Ġev":567,"ĠBut":568,"Ġpossible":569,"ord":570,"present":571,"Ġmor":572,"wh":573,"ght":574,"Ġpriori":575,"ire":576,"ance":577,"Ġcons":578,"now":579,"Ġgiv":580,"Ġintuition":581,"ĠA":582,"Ġj":583,"ative":584,"our":585,"Ġnature":586,"Ġacc":587,"ac":588,"Ġempirical":589,"Ġman":590,"thing":591,"one":592,"ult":593,"ansc":594,"Ġwould":595,"ples":596,"Ãł":597,"Ġtherefore":598,"Ġsuch":599,"Ġunderstanding":600,"Ġapp":601,"Ġtheir":602,"ement":603,"Ġexistence":604,"Ġconceptions":605,"anscendent":606,"ite":607,"sequ":608,"ca":609,"Ġpractical":610,"Ġcognition":611,"Ġad":612,"Ġprinciple":613,"Ġsubject":614,"for":615,"ĠFor":616,"nthe":617,"pon":618,"ally":619,"Ġregard":620,"ute":621,"ĠP":622,"Ġdis":623,"to":624,"ĠÃł":625,"ers":626,"un":627,"selves":628,"Ġgiven":629,"position":630,"),":631,"ently":632,"Ġobjects":633,"so":634,"Ġy":635,"Ġworld":636,"Ġmerely":637,"Ġknow":638,"anscendental":639,"et":640,"which":641,"ight":642,"ong":643,"Ġpre":644,"fere":645,"here":646,"ment":647,"ict":648,"ĠTh":649,"Ġwithout":650,"ions":651,"feren":652,"Ġpart":653,"str":654,"te":655,"Ġch":656,"Ġle":657,"ener":658,"cl":659,"tical":660,"Ġphenomena":661,"Ġrepresent":662,"Ġsame":663,"Ġsome":664,"ertain":665,"Ġmoral":666,"Ġthings":667,"Ġevery":668,"Ġmeans":669,"Ġprinciples":670,"ĠĠĠĠĠĠĠĠĠĠĠĠĠĠĠĠ":671,"sp":672,"tern":673,"ought":674,"ces":675,"ake":676,"Ġsynthe":677,"gement":678,"Ġar":679,"sis":680,"ise":681,"sequently":682,"Ġwhat":683,"Ġhow":684,"ĠS":685,"atter":686,"ie":687,"Ġunity":688,"hing":689,"Ġph":690,"ated":691,"Ġnecessary":692,"ording":693,"sol":694,"Ġeven":695,"Ġmy":696,"led":697,"Ġwho":698,"ays":699,"ress":700,"el":701,"Ġhis":702,"Ġcase":703,"ppos":704,"ĠN":705,"ens":706,"that":707,"fin":708,"oy":709,"cause":710,"ness":711,"udgement":712,"ternal":713,"Ġsub":714,"phy":715,"Ġma":716,"though":717,"op":718,"pre":719,"Ġthan":720,"ĠO":721,"Ġlaws":722,"int":723,"eneral":724,"possib":725,"Ġser":726,"Ġmore":727,"Ġidea":728,"Ġfre":729,"imit":730,"Ġrelation":731,"mat":732,"solute":733,"Ġne":734,"Ġaction":735,"ced":736,"Ġcontain":737,"condition":738,"ag":739,"Ġbecause":740,"ecul":741,"Ġalso":742,"nect":743,"Ġfar":744,"du":745,"Ġdif":746,"Ġdoes":747,"ĠIn":748,"ber":749,"ways":750,"ilos":751,"ledge":752,"Ġpresent":753,"Ġupon":754,"be":755,"Ġcertain":756,"iz":757,"Ġtranscendental":758,"Ġcaus":759,"Ġcomple":760,"Ġpl":761,"Ġconditions":762,"Ġbel":763,"Ġnothing":764,"ĠIt":765,"Ġcont":766,"ort":767,"Ġpossibility":768,"oll":769,"ĠG":770,"ĠW":771,"hether":772,"Ġinto":773,"Ġend":774,"ogical":775,"Ġjudgement":776,"ational":777,"ulty":778,"ond":779,"reat":780,"ollow":781,"cious":782,"ue":783,"Ġthen":784,"Ġwhen":785,"Ġaccording":786,"Ġuse":787,"Ġnever":788,"Ġcause":789,"Ġproposition":790,"Ġsense":791,"ost":792,"ffect":793,"ploy":794,"Ġgr":795,"Ġgeneral":796,"gor":797,"Ġcontr":798,"irst":799,"Ġgo":800,"Ġconsequently":801,"ategor":802,"The":803,"uch":804,"Ġalone":805,"rit":806,"ign":807,"Ġabsolute":808,"stem":809,"Ġthought":810,"Ġproper":811,"ĠC":812,"Ġhim":813,"Ġspace":814,"ast":815,"me":816,"ivers":817,"Ġlimit":818,"Ġalways":819,"Ġow":820,"ates":821,"Ġrequ":822,"ial":823,"Ġass":824,"Ġconnect":825,"Ġob":826,"conception":827,"Ġdes":828,"ither":829,"Ġfound":830,"form":831,"are":832,"Ġthemselves":833,"Ġpos":834,"Ġdist":835,"Ġcomm":836,"ism":837,"Ġown":838,"old":839,"Ġcould":840,"Ġknowledge":841,"Ġfac":842,"Ġshould":843,"possible":844,"Ġphilos":845,"fect":846,"Ġfollow":847,"ari":848,"Ġsay":849,"Ġalthough":850,"Ġemploy":851,"Ġseries":852,"Ġwas":853,"com":854,"Ġobjective":855,"Ġcall":856,"Ġfirst":857,"pro":858,"spect":859,"Ġquest":860,"edom":861,"Ġrational":862,"Ġdifferen":863,"ish":864,"Ġrespect":865,"Ġbeen":866,"ro":867,"Ġpur":868,"ici":869,"with":870,"Ġrem":871,"Ġdisc":872,"other":873,"Ġconsid":874,"ĠNow":875,"Ġcomplete":876,"Ġinde":877,"ach":878,"ink":879,"Ġsystem":880,"ine":881,"Ġexam":882,"ied":883,"ĠH":884,"ered":885,"der":886,"Ġwhether":887,"Ġthus":888,"Ġhapp":889,"âĢľ":890,"âĢĿ":891,"ĠThis":892,"Ġfe":893,"Ġext":894,"Ġbelong":895,"Ġact":896,"we":897,"ination":898,"Ġfaculty":899,"uth":900,"Ġreality":901,"Ġformer":902,"Ġcategor":903,"iness":904,"xim":905,"ree":906,"eculative":907,"Ġsynthesis":908,"sess":909,"Ġvery":910,"Ġorder":911,"dic":912,"Ġval":913,"Ġsomething":914,"Ġag":915,"Ġmake":916,"Ġlatter":917,"Ġhowever":918,"over":919,"Ġwere":920,"suous":921,"Ġground":922,"mit":923,"uman":924,"under":925,"ciousness":926,"less":927,"Ġsci":928,"Ġunivers":929,"Ġplace":930,"par":931,"ĠâĢľ":932,"Ġnecessity":933,"Ġyou":934,"Ġfreedom":935,"Ġgood":936,"med":937,"ode":938,"pose":939,"Ġfind":940,"Ġen":941,"Ġcausality":942,"Ġthose":943,"stit":944,"by":945,"Ġeffect":946,"Ġwhole":947,"ĠR":948,"adict":949,"ell":950,"Ġpres":951,"ics":952,"ha":953,"object":954,"Ġthink":955,"preme":956,"ĠE":957,"Ġout":958,"Ġdut":959,"aly":960,"Ġexp":961,"wo":962,"Ġmaxim":963,"Ġquestion":964,"ile":965,"ophy":966,"Ġhuman":967,"Ġsensib":968,"Ġpossess":969,"Ġter":970,"reason":971,"ke":972,"Ġreal":973,"exist":974,"ove":975,"ty":976,"ual":977,"rough":978,"Ġprodu":979,"igin":980,"Ġjust":981,"sy":982,"Ġpow":983,"Ġappl":984,"ear":985,"Ġmind":986,"Ġam":987,"Ġperfect":988,"ser":989,"uten":990,"ĠIf":991,"Ġyet":992,"berg":993,"arily":994,"Ġname":995,"utenberg":996,"Ġcrit":997,"this":998,"oint":999,"Ġspeculative":1000,"av":1001,"Ġsim":1002,"Ġatt":1003,"Ġdetermined":1004,"Ġmat":1005,"Ġsubst":1006,"Ġdifferent":1007,"sen":1008,"man":1009,"oun":1010,"ogit":1011,"ince":1012,"erest":1013,"Ġsphere":1014,"Ġrepresentation":1015,"Ġsynthetical":1016,"phys":1017,"ication":1018,"edu":1019,"lect":1020,"ural":1021,"iew":1022,"ceed":1023,"Ġgreat":1024,"ks":1025,"lf":1026,"ĠD":1027,"Ġtwo":1028,"Ġbas":1029,"ological":1030,").":1031,"ived":1032,"ible":1033,"Ġmanif":1034,"ike":1035,"ishe":1036,"Ġfact":1037,"Ġduty":1038,"Ġsec":1039,"Ġvalid":1040,"ble":1041,"hemat":1042,"ident":1043,"ffici":1044,"Ġideas":1045,"roject":1046,"ule":1047,"ory":1048,"Ġsensuous":1049,"Ġincl":1050,"Ġinternal":1051,"ang":1052,"Ġthrough":1053,"Ġimp":1054,"cons":1055,"determin":1056,"Ġdetermination":1057,"Ġshall":1058,"Ġcalled":1059,"Ġword":1060,"Ġself":1061,"Ġscience":1062,"ass":1063,"Ġperception":1064,"Ġent":1065,"princi":1066,"conditioned":1067,"cogn":1068,"aract":1069,"Ġorigin":1070,"Ġview":1071,"oo":1072,"Ġsubjective":1073,"Ġfeel":1074,"understanding":1075,"ution":1076,"ĠWe":1077,"rib":1078,"yond":1079,"Ġconstit":1080,"aracter":1081,"Ġcor":1082,"ular":1083,"Ġphilosophy":1084,"yp":1085,"finite":1086,"Th":1087,"Ġinv":1088,"ful":1089,"ice":1090,"Ġhig":1091,"there":1092,"Ġpoint":1093,"Ġpurpose":1094,"Ġrule":1095,"Ġabsolutely":1096,"ved":1097,"usion":1098,"Ġexample":1099,"ogy":1100,"Ġhere":1101,"Ġnatural":1102,"Ġconsciousness":1103,"eci":1104,"necess":1105,"Ġmode":1106,"oth":1107,"Ġshow":1108,"ange":1109,"Ġwhile":1110,"Ġuniversal":1111,"Ġ_":1112,"Ġinf":1113,"Ġeach":1114,"ents":1115,"Ġimpossible":1116,"Ġstill":1117,"Ġhimself":1118,"Ġbet":1119,"Ġcogit":1120,"Ġnecessarily":1121,"Ġphenomenon":1122,"ĠProject":1123,"ted":1124,"Ġexternal":1125,"can":1126,"iate":1127,"Ġexpl":1128,"Ġdetermine":1129,"irect":1130,"Ġadmit":1131,"Ġpower":1132,"ern":1133,"Ġinterest":1134,"action":1135,"Ġconnection":1136,"ires":1137,"ner":1138,"Ġanother":1139,"Ġsens":1140,"Ġleast":1141,"sion":1142,"wise":1143,"Ġgive":1144,"Ġway":1145,"Ġbeyond":1146,"Ġintell":1147,"Ġquite":1148,"Ġactions":1149,"Ġrequire":1150,"Ġintellig":1151,"aphys":1152,"Ġest":1153,"ating":1154,"Ġquant":1155,"ĠGutenberg":1156,"Ġlike":1157,"Ġwell":1158,"experience":1159,"Ġhappiness":1160,"ĠRe":1161,"Ġnamely":1162,"Ġdetermining":1163,"Ġkind":1164,"Ġmanifold":1165,"atis":1166,"Ġnor":1167,"Ġeither":1168,"Ġourselves":1169,"ĠM":1170,"ances":1171,"Ġhand":1172,"Ġcontains":1173,"ught":1174,"ys":1175,"Ġcategories":1176,"Ġap":1177,"Ġindeed":1178,"age":1179,"its":1180,"Ġwhere":1181,"abl":1182,"Ġcharacter":1183,"Ġlimits":1184,"Ġconsider":1185,"Ġconc":1186,"Ġdem":1187,"Ġstr":1188,"Ġproceed":1189,"ccess":1190,"Ġappear":1191,".,":1192,"phenomen":1193,"Ġrest":1194,"Ġanaly":1195,"Ġstate":1196,"Ġmorality":1197,"atisf":1198,"gin":1199,"othe":1200,"ra":1201,"tic":1202,"ingu":1203,"Ġref":1204,"empt":1205,"Ġterm":1206,"fficient":1207,"ook":1208,"gum":1209,"Ġdiv":1210,"Ġsum":1211,"pposition":1212,"Ġcontrary":1213,"Ġcommon":1214,"Ġind":1215,"Ġnotion":1216,"Ġproof":1217,"ize":1218,"much":1219,"Ġmatter":1220,"Ġdedu":1221,"ology":1222,"Ġcomp":1223,"Ġsee":1224,"Ġadv":1225,"ĠThus":1226,"Ġcontradict":1227,"ished":1228,"ypothe":1229,"akes":1230,"Ġfree":1231,"Ġassum":1232,"Ġfollows":1233,"Ġfeeling":1234,"But":1235,"ring":1236,"ark":1237,"Ġsupreme":1238,"ference":1239,"app":1240,"Ġconcl":1241,"Ġrepresentations":1242,"conceptions":1243,"existence":1244,"Ġconce":1245,"Ġsecond":1246,"ev":1247,"ĠL":1248,"reg":1249,"ences":1250,"Ġboth":1251,"Ġtrue":1252,"Ġtruth":1253,"Ġremain":1254,"pendent":1255,"Ġought":1256,"Ġhad":1257,"ably":1258,"from":1259,"Ġsince":1260,"Ġmost":1261,"Ġdec":1262,"sible":1263,"mediate":1264,"ER":1265,"lu":1266,"Ġtake":1267,"contr":1268,"Ġdistin":1269,"ĠReason":1270,"fter":1271,"icism":1272,"Ġmet":1273,"Ġparts":1274,"Ġpresu":1275,"Ġsensibility":1276,"ious":1277,"ten":1278,"Ġ1":1279,"Ġres":1280,"Ġsubstance":1281,"icular":1282,"stru":1283,"fic":1284,"Ġmight":1285,"Ġmuch":1286,"Ġbegin":1287,"Ġbeings":1288,"Ġmanner":1289,"Ġregards":1290,"ween":1291,"und":1292,"asmuch":1293,"ives":1294,"Ġlogical":1295,"Ġsupp":1296,"Ġattain":1297,"Ġpredic":1298,"Ġexpress":1299,"ert":1300,"lear":1301,"Ġwork":1302,"Ġconsist":1303,"Ġphys":1304,"Ġcontent":1305,"ĠU":1306,"Ġnow":1307,"Ġregarded":1308,"Ġmade":1309,"intuition":1310,"ited":1311,"Ġtot":1312,"Ġdirect":1313,"Ġbefore":1314,"irm":1315,"Ġfoundation":1316,"aid":1317,"but":1318,"Ġill":1319,"hest":1320,"Ġaim":1321,"Ġconf":1322,"Ġmathemat":1323,"pposed":1324,"Ġdiscover":1325,"pend":1326,"onstr":1327,"represent":1328,"Ġmot":1329,"ving":1330,"Ġaff":1331,"osm":1332,"Ġunconditioned":1333,"Ġargum":1334,"ma":1335,"Ġconcept":1336,"In":1337,"tm":1338,"Ġhypothe":1339,"estig":1340,"Ġexists":1341,"pond":1342,"Ġconsidered":1343,"oid":1344,"ision":1345,"atic":1346,"Ġconditioned":1347,"Ġjudgements":1348,"Ġbetween":1349,"Ġquantity":1350,"acc":1351,"Ġ[":1352,"Ġcl":1353,"respond":1354,"Ġothers":1355,"Ġabove":1356,"ĠAnd":1357,"son":1358,"Ġele":1359,"Ġproble":1360,"empirical":1361,"Ġable":1362,"ĠOn":1363,"ĠCon":1364,"oub":1365,"ogic":1366,"cise":1367,"ward":1368,"Ġsatisf":1369,"Ġthough":1370,"asure":1371,"Ġdeg":1372,"Ġpropositions":1373,"principle":1374,"know":1375,"pable":1376,"ath":1377,"Ġconform":1378,"ĠOf":1379,"OO":1380,"rel":1381,"Ġsuccess":1382,"Ġdefin":1383,"nat":1384,"wor":1385,"only":1386,"ene":1387,"ules":1388,"Ġworth":1389,"Ġset":1390,"Ġclear":1391,"Ġstand":1392,"Ġsimple":1393,"Ġbased":1394,"raph":1395,"iqu":1396,"Ġsour":1397,"Ġple":1398,"utes":1399,"oretical":1400,"practical":1401,"agraph":1402,"ized":1403,"ialect":1404,"Ġdesire":1405,"Ġagain":1406,"omy":1407,"Ġup":1408,"aken":1409,"ĠPure":1410,"unction":1411,"being":1412,"Ġhighest":1413,"read":1414,"ife":1415,"Ġright":1416,"Ġimper":1417,"Ġregress":1418,"Ġarr":1419,"Ġemployed":1420,"Ġestabl":1421,"Ġocc":1422,"them":1423,"thod":1424,"crib":1425,"dis":1426,"ning":1427,"Ġmany":1428,"Ġcognitions":1429,"matical":1430,"Ġcauses":1431,"Ġextend":1432,",âĢĿ":1433,"EN":1434,"law":1435,"red":1436,"Ġder":1437,"perception":1438,"ĠGod":1439,"Ġobser":1440,"Ġconcern":1441,"sw":1442,"tle":1443,"Ġinasmuch":1444,"theless":1445,"Ġansw":1446,"Ġanything":1447,"Ġimag":1448,"sub":1449,"Ġleg":1450,"opher":1451,"Ġcompletely":1452,"cognition":1453,"Ġafter":1454,"ental":1455,"Ġrules":1456,"Ġchange":1457,"Ġpresented":1458,"Ġdistingu":1459,"ique":1460,"che":1461,"certain":1462,"ep":1463,"Ġsign":1464,"Ġinfinite":1465,"Ġel":1466,"Ġconsequ":1467,"Ġsole":1468,"odu":1469,"Ġperson":1470,"ments":1471,"Ġbelongs":1472,"Ġmaxims":1473,"avour":1474,"ount":1475,"Ġmetaphys":1476,"It":1477,"TI":1478,"must":1479,"mum":1480,"trib":1481,"Ġseem":1482,"Ġparticular":1483,"Ġneed":1484,"Ġrequires":1485,"phenomena":1486,"mon":1487,"ather":1488,"Ġmod":1489,"Ġfur":1490,"Ġnum":1491,"Ġlife":1492,"Ġimmediate":1493,"Ġmyself":1494,"Ġconnected":1495,"Ġemployment":1496,"therefore":1497,"necessary":1498,"Ġresult":1499,"ON":1500,"ude":1501,"Ġac":1502,"onum":1503,"Ġwant":1504,"ention":1505,"ection":1506,"irt":1507,"Ġgu":1508,"ordance":1509,"Ġconting":1510,"Ġgrounds":1511,"Ġentire":1512,"Ġindic":1513,"hence":1514,"Ġeverything":1515,"ĠĠĠĠĠĠĠĠĠĠĠĠĠĠĠĠĠĠĠĠĠĠĠĠ":1516,"Ġvalidity":1517,"luence":1518,"OOK":1519,"Ġends":1520,"Ġsystematic":1521,"Ġapplication":1522,"Ġreally":1523,"Ġattempt":1524,"err":1525,"Ġfin":1526,"BOOK":1527,"mere":1528,"Ġcop":1529,"Ġintuitions":1530,"ourse":1531,"Ġneg":1532,"cy":1533,"oul":1534,"possibility":1535,"This":1536,"Ġinvestig":1537,"Ġtotality":1538,"HA":1539,"Ġ\"":1540,"Ġmain":1541,"ides":1542,"cont":1543,"subject":1544,"Ġnew":1545,"'s":1546,"come":1547,"how":1548,"mis":1549,"Ġcorrespond":1550,"Ġintelligible":1551,"oubt":1552,"aim":1553,"itself":1554,"ercise":1555,"Ġside":1556,"Ġbod":1557,"Ġbonum":1558,"Ġlogic":1559,"Ġmethod":1560,"Ġcontained":1561,"conditions":1562,"duct":1563,"Ġassert":1564,"Ġcommand":1565,"contradict":1566,"Ġdegree":1567,");":1568,"ase":1569,"lig":1570,"pect":1571,"Ġeas":1572,"Ġread":1573,"Ġrather":1574,"Ġmean":1575,"Ġvirt":1576,"Ġphysical":1577,"raw":1578,"isl":1579,"ific":1580,"Ġthereby":1581,"Ġphilosopher":1582,"without":1583,"manent":1584,"Ġsenses":1585,"If":1586,"do":1587,"ov":1588,"part":1589,"ctr":1590,"ension":1591,"Ġbelie":1592,"Ġimport":1593,"Ġwords":1594,"ready":1595,"We":1596,"ps":1597,"Ġhence":1598,"Ġmen":1599,"Ġdog":1600,"ĠTH":1601,"transcendental":1602,"Ġotherwise":1603,"aking":1604,"unity":1605,"TER":1606,"bec":1607,"go":1608,"Ġerr":1609,"erial":1610,"Ġnon":1611,"Ġant":1612,"Ġlong":1613,"ogress":1614,"Ġspeci":1615,"paragraph":1616,"Ġdemonstr":1617,"ily":1618,"Ġover":1619,"ane":1620,"arr":1621,"Ġhold":1622,"Ġattrib":1623,"Ġabstr":1624,"Ġrelations":1625,"synthe":1626,"Ġremains":1627,"Ġanswer":1628,"Ġ^":1629,"Ġ{":1630,"ises":1631,"Ġsol":1632,"Ġsoul":1633,"anation":1634,"Ġequ":1635,"ided":1636,"atever":1637,"Ġideal":1638,"Ġindependent":1639,"Ġbasis":1640,"Ġsummum":1641,"nature":1642,"AL":1643,"mor":1644,"Ġtheoretical":1645,"ities":1646,"Ġco":1647,"Ġpost":1648,"Ġexcept":1649,"Ġless":1650,"ĠThere":1651,"Ġformal":1652,"Ġaccordance":1653,"ĠThat":1654,"Ġperfectly":1655,"Ġproblem":1656,"Ġentirely":1657,"CHA":1658,"PTER":1659,"bit":1660,"Ġmem":1661,"ĠPr":1662,"ĠSu":1663,"Ġneither":1664,"dom":1665,"eing":1666,"ually":1667,"although":1668,"Ġbound":1669,"Ġtoo":1670,"Ġconduct":1671,"Ġgives":1672,"Ġcontin":1673,"Ġproperly":1674,"ĠHence":1675,"Ġthinking":1676,"Ġsensible":1677,"Ġinfluence":1678,"Ġnumber":1679,"ause":1680,"ency":1681,"Ġinqu":1682,"ceive":1683,"Ġbecome":1684,"Ġalready":1685,"uthor":1686,"Ġexplain":1687,"iar":1688,"Ġcosm":1689,"Ġsaid":1690,"ases":1691,"Ġsufficient":1692,"priori":1693,"Ġprev":1694,"Ġdiffic":1695,"comple":1696,"CHAPTER":1697,"men":1698,"mall":1699,"ranscendental":1700,"rect":1701,"ceived":1702,"Ġever":1703,"Ġexercise":1704,"Ġaccount":1705,"ĠOF":1706,"Ġvirtue":1707,"will":1708,"Â§":1709,"Ġher":1710,"inations":1711,"any":1712,"Ġdoubt":1713,"Ġdetermines":1714,"Ġforms":1715,"Ġdistinction":1716,"Ġpleasure":1717,"ail":1718,"ob":1719,"pure":1720,"Ġident":1721,"Ġtaken":1722,"Ġinst":1723,"Ġdialect":1724,"Ġhar":1725,"Ġhop":1726,"ĠII":1727,"Ġprov":1728,"hension":1729,"cedure":1730,"Ġexpect":1731,"Ġproduce":1732,"Ġcogitated":1733,"Ġpass":1734,"Ġprove":1735,"Ġpreced":1736,"eculiar":1737,"lectual":1738,"Ġdeduction":1739,"Ġargument":1740,"Ġelse":1741,"Ġess":1742,"Ġconstru":1743,"Ġden":1744,"oundation":1745,"Ġabout":1746,"ĠAs":1747,"Ġappre":1748,"Ġapply":1749,"Ġmaterial":1750,"sensible":1751,"Ġerror":1752,"Now":1753,"time":1754,"Ġ2":1755,"Ġaffect":1756,"itive":1757,"Ġcourse":1758,"Ġmis":1759,"Ġmakes":1760,"Ġrender":1761,"Ġprogress":1762,"Ġgener":1763,"ulties":1764,"ĠĠĠĠĠĠĠĠĠĠĠĠĠĠĠĠĠĠĠĠĠĠĠĠĠĠĠĠĠĠĠĠĠĠĠĠĠĠĠĠ":1765,"Ġoblig":1766,"Ġremark":1767,"Ġbeginning":1768,"ĠĠĠ":1769,"Ġprom":1770,"Ġlies":1771,"irc":1772,"Ġallow":1773,"Ġdepend":1774,"Ġvari":1775,"Ġlimited":1776,"objects":1777,"consciousness":1778,"Ġpredicate":1779,"because":1780,"ties":1781,"up":1782,"Ġop":1783,"Ġfall":1784,"uted":1785,"Ġsuper":1786,"consequently":1787,"ĠBeing":1788,"antage":1789,"Ġconscious":1790,"Ġapplied":1791,"cannot":1792,"Ġassume":1793,"regard":1794,"Ġconsists":1795,"Ġimperative":1796,"Ġcopy":1797,"dist":1798,"gr":1799,"these":1800,"ppose":1801,"ability":1802,"Ġexisting":1803,"Ġcognize":1804,"Ġchang":1805,"pposite":1806,"Ġnevertheless":1807,"Ġquestions":1808,"have":1809,"Ġaid":1810,"Ġpeculiar":1811,"they":1812,"Ġlook":1813,"Ġcapable":1814,"sych":1815,"Ġshown":1816,"Ġexplanation":1817,"Ġlegisl":1818,"Ġmaintain":1819,"ĠTHE":1820,".âĢĿ":1821,"Ġi":1822,"Ġut":1823,"Ġaw":1824,"onic":1825,"Ġpath":1826,"Ġfal":1827,"Ġdraw":1828,"Ġwhose":1829,"dequ":1830,"ext":1831,"Ġinclinations":1832,"principles":1833,"Ġhigher":1834,"Ġdivision":1835,"Ġaffirm":1836,"Ġimagination":1837,"Ġsolely":1838,"merely":1839,"ctrine":1840,"**":1841,"For":1842,"Ġreference":1843,"Ġwhatever":1844,"imate":1845,"ification":1846,"Ġpurely":1847,"Ġunderstand":1848,"ĠAn":1849,"Ġaddition":1850,"ield":1851,"Ġfollowing":1852,"Ġdifference":1853,"Ġcontradiction":1854,"chema":1855,"overed":1856,"dif":1857,"oc":1858,"would":1859,"ined":1860,"Ġprocedure":1861,"connect":1862,"absolute":1863,"ĠSupreme":1864,"ave":1865,"sim":1866,"Ġes":1867,"their":1868,"Ġwithin":1869,"ulative":1870,"Ġadd":1871,"Ġagre":1872,"objective":1873,"Ġtermed":1874,"teness":1875,"wards":1876,"Ġharmon":1877,"_,":1878,"bl":1879,"inte":1880,"Ġwish":1881,"Ġcirc":1882,"Ġspe":1883,"Ġworks":1884,"poses":1885,"Ġevident":1886,"Ġyour":1887,"Ġhappens":1888,"Ġillusion":1889,"Ġhypothesis":1890,"Ġsource":1891,"eavour":1892,"some":1893,"ull":1894,"ont":1895,"ĠeB":1896,"oumen":1897,"Ġdone":1898,"ically":1899,"ogism":1900,"Ġintel":1901,"strict":1902,"Ġcertainly":1903,"Ġeffects":1904,"Ġinclination":1905,"Ġanalytical":1906,"Ġdefinition":1907,"Ġcontingent":1908,"Ġfalse":1909,"dequate":1910,"every":1911,"giv":1912,"hib":1913,"ne":1914,"whether":1915,"onomy":1916,"Ġsmall":1917,"Ġbr":1918,"orough":1919,"what":1920,"lectr":1921,"Ġcogitate":1922,"Ġagainst":1923,"Ġhope":1924,"ĠY":1925,"Ġconj":1926,"Ġdid":1927,"Ġund":1928,"Ġpermanent":1929,"posed":1930,"Ġrelate":1931,"Ġrepresented":1932,"Ġcategory":1933,"haps":1934,"according":1935,"Ġfurther":1936,"cing":1937,"ia":1938,"ni":1939,"right":1940,"ting":1941,"Ġav":1942,"Ġschema":1943,"ential":1944,"amental":1945,"Ġempirically":1946,"Ġcertainty":1947,"Ġextension":1948,"happ":1949,"determination":1950,"Ġdemand":1951,"undamental":1952,"Ġimmediately":1953,"Ġnegative":1954,"moral":1955,"RE":1956,"io":1957,"Ġopposite":1958,"Ġsing":1959,"imes":1960,"ĠTo":1961,"usions":1962,"ĠThey":1963,"Ġvol":1964,"proposition":1965,"Ġsubstances":1966,"Ġsensation":1967,"Ġmathematics":1968,"relation":1969,"Ġintellectual":1970,"cor":1971,"categor":1972,"ply":1973,"Ġtreat":1974,"Ġbring":1975,"Ġfut":1976,"own":1977,"urn":1978,"ĠTranscendental":1979,"philos":1980,"Ġjud":1981,"ritique":1982,"Ġperfection":1983,"Ġconclusion":1984,"Ġdistinct":1985,"Ġconsequence":1986,"Ġinquir":1987,"ix":1988,"les":1989,"lar":1990,"oph":1991,"sist":1992,"Ġoper":1993,"erse":1994,"idence":1995,"Ġintr":1996,"Ġspring":1997,"etaphys":1998,"pposes":1999,"Ġendeavour":2000,"ignor":2001,"Ġproperties":2002,"Ġperceptions":2003,"Ġadvantage":2004,"Ġclaim":2005,"knowledge":2006,"Ġconformity":2007,"disc":2008,"complete":2009,"judgement":2010,"ses":2011,"yn":2012,"Ġte":2013,"ittle":2014,"ised":2015,"Ġthree":2016,"Ġthorough":2017,"Ġconv":2018,"oment":2019,"ivid":2020,"such":2021,"ĠAll":2022,"Ġserve":2023,"Ġaccordingly":2024,"Ġbelonging":2025,"consid":2026,"Ġcorrect":2027,"even":2028,"representations":2029,"Ġseems":2030,"00":2031,"call":2032,"ether":2033,"ead":2034,"tog":2035,"Ġfunction":2036,"imal":2037,"Ġanal":2038,"Ġlie":2039,"ption":2040,"ified":2041,"Ġdeterminations":2042,"Ġabs":2043,"Ġrelates":2044,"ache":2045,"things":2046,"Ġdisposition":2047,"Ġpret":2048,"Ġcho":2049,"Ġproperty":2050,"ared":2051,"Ġdistrib":2052,"Ġvalue":2053,"Ġpossesses":2054,"Ġamong":2055,"ishes":2056,"Ġrests":2057,"themselves":2058,"Ġeasily":2059,"lectronic":2060,"together":2061,"ck":2062,"hat":2063,"limit":2064,"nt":2065,"inde":2066,"ird":2067,"ogene":2068,"Ġobtain":2069,"Ġdiscovered":2070,"ĠHe":2071,"Ġextent":2072,"Ġcriter":2073,"sensuous":2074,"Ġconceive":2075,"Ġbody":2076,"Ġapprehension":2077,"ĠĠĠĠĠĠĠĠĠĠĠĠĠĠĠĠĠĠĠĠĠĠĠĠĠĠĠĠĠĠĠĠĠĠĠĠĠĠĠĠĠ":2078,"Ġagreement":2079,"All":2080,"fer":2081,"ior":2082,"Ġce":2083,"Ġcases":2084,"Ġpar":2085,"always":2086,"lection":2087,"asion":2088,"llig":2089,"Ġthereof":2090,"ĠFoundation":2091,"uded":2092,"Ġevent":2093,"Ġknown":2094,"odeict":2095,"Ġpowers":2096,"Ġcriticism":2097,"Ġinvol":2098,"Ġinfer":2099,"Ġapperception":2100,"ĠConsequently":2101,"Ġchanges":2102,"Ġfuture":2103,"RA":2104,"br":2105,"gan":2106,"ĠÂ§":2107,"Ġignor":2108,"Ġauthor":2109,"Ġproved":2110,"Ġintu":2111,"Ġdeterminate":2112,"ack":2113,"Ġactual":2114,"Ġcritical":2115,"Ġterms":2116,".[":2117,"EC":2118,"ood":2119,"peci":2120,"where":2121,"Ġnoumen":2122,"Ġlittle":2123,"Ġdoctrine":2124,"exam":2125,"Ġlead":2126,"Ġstrict":2127,"Ġexpression":2128,"Ġmathematical":2129,"world":2130,"Ġderived":2131,"Ġinvestigation":2132,"bitr":2133,"Ġcontinu":2134,"given":2135,"ynam":2136,"hil":2137,"may":2138,"no":2139,"sh":2140,"esides":2141,"Ġmed":2142,"Ġmoment":2143,"Ġnay":2144,"Ġdynam":2145,"iverse":2146,"Ġante":2147,"ower":2148,"Ġsupposed":2149,"ech":2150,"ilar":2151,"Ġhaving":2152,"Ġcompar":2153,"Ġregulative":2154,"Ġconstitutes":2155,"Ġconceived":2156,"ĠUn":2157,"Ġelements":2158,"does":2159,"Ġmember":2160,"ividual":2161,"ap":2162,"pres":2163,"pens":2164,"rational":2165,"reedom":2166,"atement":2167,"Ġinfin":2168,"Ġask":2169,"ended":2170,"ĠThese":2171,"sufficient":2172,"aces":2173,"ferent":2174,"Ġanalysis":2175,"Ġsupport":2176,"Ġsuccession":2177,"Ġestablished":2178,"subst":2179,"Ġdifficulty":2180,"AR":2181,"des":2182,"hend":2183,"requ":2184,"Ġsch":2185,"Ġfield":2186,"Ġexhib":2187,"Ġtrans":2188,"Ġarises":2189,"ensive":2190,"Ġcompleteness":2191,"proc":2192,"ĠEx":2193,"Ġrequired":2194,"Ġseek":2195,"Ġaims":2196,"Ġmotive":2197,"Ġarguments":2198,"Ġestablish":2199,"Ġdistinguish":2200,"Ġmetaphysics":2201,"however":2202,"Ġcorresponding":2203,"Ġsolution":2204,"intellig":2205,"IS":2206,"just":2207,"nit":2208,"Ġpain":2209,"Ġful":2210,"Ġrecogn":2211,"llogism":2212,"Ġexcl":2213,"ify":2214,"Ġprof":2215,"Ġspont":2216,"Ġcomb":2217,"Ġvain":2218,"ordin":2219,"ety":2220,"Ġrequis":2221,"Ġdiscus":2222,"Ġapart":2223,"Ġdirectly":2224,"Ġsources":2225,"Ġdogmatical":2226,"Ġprevious":2227,"Ġsingle":2228,"Ġspontane":2229,"bel":2230,"never":2231,"ole":2232,"pur":2233,"inomy":2234,"Ġins":2235,"Ġfr":2236,"Ġonce":2237,"Ġsupposition":2238,"Ġhel":2239,"Ġperhaps":2240,"Ġcognized":2241,"caus":2242,"Ġregarding":2243,"ĠĠĠĠĠĠĠĠĠĠĠĠĠĠĠĠĠĠĠĠ":2244,"ĠCritique":2245,"Ġdesign":2246,"Ġuniversality":2247,"Ġenough":2248,"Ġgreatest":2249,"Thus":2250,"Ġintelligence":2251,"Ġobserv":2252,"Ġanteced":2253,"fe":2254,"most":2255,"Ġtakes":2256,"inion":2257,"Ġtoge":2258,"ingdom":2259,"Ġbecom":2260,"arn":2261,"iving":2262,"ĠIde":2263,"quest":2264,"Ġtranscendent":2265,"Ġevil":2266,"ĠSuch":2267,"eculation":2268,"Ġpresents":2269,"Ġfaculties":2270,"Ġcategorical":2271,"Ġlikewise":2272,"representation":2273,"Ġsatisfaction":2274,"Ġsuccessive":2275,"Ġabstract":2276,"synthetical":2277,"Ġcosmological":2278,"Ġsupersensible":2279,"ophical":2280,"Ġdynamical":2281,"Ġtogether":2282,"Section":2283,"general":2284,"name":2285,"row":2286,"Ġ3":2287,"rem":2288,"ising":2289,"Ġthird":2290,"Ġet":2291,"leg":2292,"Ġdon":2293,"ask":2294,"Ġsur":2295,"istic":2296,"Ġaltogether":2297,"Ġcome":2298,"Ġcompre":2299,"nothing":2300,"ĠAr":2301,"Ġpursu":2302,"elled":2303,"Ġproduced":2304,"Ġconstitution":2305,"Ġbetter":2306,"Ġsuppose":2307,"Ġoccup":2308,"TION":2309,"Ġmeaning":2310,"Ġdialectical":2311,"Ġpreceding":2312,"dem":2313,"ft":2314,"follow":2315,"igh":2316,"incl":2317,"Ġoften":2318,"ense":2319,"Ġpsych":2320,"Ġbl":2321,"Ġey":2322,"Ġelectronic":2323,"Ġrestrict":2324,"ivity":2325,"respect":2326,"Ġdel":2327,"abour":2328,"Ġke":2329,"atively":2330,"capable":2331,"Ġdestr":2332,"proper":2333,"Ġhumanity":2334,"Ġcritique":2335,"sense":2336,"Ġapodeict":2337,"appl":2338,"Ġpredicates":2339,"Ġconstruct":2340,"Ġharmony":2341,"Ġintrodu":2342,"called":2343,"II":2344,"port":2345,"ines":2346,"Ġopposition":2347,"itum":2348,"att":2349,"icable":2350,"Ġfore":2351,"Ġfull":2352,"uting":2353,"Ġexact":2354,"Ġunless":2355,"Ġkingdom":2356,"uding":2357,"Ġstates":2358,"Ġappro":2359,"Ġprecept":2360,"Ġarise":2361,"ensions":2362,"comm":2363,"system":2364,"Ġmanifest":2365,"Ġappearance":2366,"Ġrefer":2367,"Ġadvance":2368,"appear":2369,"Ġelement":2370,"Ġimportance":2371,"Ġaffected":2372,"nihil":2373,"ogeneous":2374,"Ġrequisite":2375,"has":2376,"Ġ*":2377,"Ġche":2378,"Ġsort":2379,"separ":2380,"Ġlast":2381,"thought":2382,"vel":2383,"Ġra":2384,"Ġvoid":2385,"oriz":2386,"space":2387,"ĠSp":2388,"Ġobjectively":2389,"Ġsimply":2390,"Ġdecl":2391,"contradiction":2392,"Ġreader":2393,"Ġattribute":2394,"Ġbounds":2395,"Ġessential":2396,"Ġcircum":2397,"something":2398,"Ġcriterion":2399,"pecially":2400,"Ġhelp":2401,"bers":2402,"ium":2403,"sum":2404,"ubl":2405,"Ġ5":2406,"ĠV":2407,"Ġadequate":2408,"ison":2409,"alone":2410,"ctive":2411,"utonomy":2412,"idance":2413,"Ġorgan":2414,"ccording":2415,"Ġsoon":2416,"produ":2417,"ometr":2418,"Ġlet":2419,"Ġleave":2420,"Ġarbitr":2421,"Ġmoreover":2422,"means":2423,"formation":2424,"Ġactually":2425,"Ġagree":2426,"consist":2427,"determined":2428,"Ġconstitute":2429,"Ġadmitted":2430,"Ġappears":2431,"Ġindividual":2432,"Ġconcepts":2433,"laws":2434,"Ġsignific":2435,"Ġbelief":2436,"Ġabstraction":2437,"Ġpostul":2438,"ĠPrinci":2439,"Ġaway":2440,"namely":2441,"IN":2442,"latter":2443,"love":2444,"ĠJ":2445,"reality":2446,"reto":2447,"atum":2448,"Ġinev":2449,"Ġfundamental":2450,"Ġear":2451,"then":2452,"Ġline":2453,"ceptions":2454,"employ":2455,"place":2456,"Ġuniverse":2457,"ĠBy":2458,"univers":2459,"iction":2460,"ĠSection":2461,"Ġpositive":2462,"Ġplaced":2463,"Ġgreater":2464,"Ġoriginal":2465,"ooks":2466,"necessity":2467,"Ġpresuppose":2468,"known":2469,"cribe":2470,"Ġfurn":2471,"Ġfinite":2472,"Ġconjunction":2473,"Ġavoid":2474,"Ġvolition":2475,"consider":2476,"Ġinevit":2477,"ES":2478,"pe":2479,"ĠK":2480,"Ġtest":2481,"inv":2482,"iter":2483,"Ġcreat":2484,"ote":2485,"utive":2486,"pty":2487,"urd":2488,"ciproc":2489,"quant":2490,"perfect":2491,"contain":2492,"olly":2493,"Ġcare":2494,"Ġro":2495,"Ġsepar":2496,"speculative":2497,"ages":2498,"icip":2499,"alytic":2500,"phenomenon":2501,"Ġphilosophers":2502,"Ġidentical":2503,"Ġvarious":2504,"distingu":2505,"echan":2506,"RO":2507,"There":2508,"freedom":2509,"metaphys":2510,"ool":2511,"itle":2512,"Ġoff":2513,"Ġwit":2514,"pter":2515,"terly":2516,"cience":2517,"sibility":2518,"ula":2519,"constit":2520,"ffort":2521,"Ġevents":2522,"Ġdisp":2523,"mathemat":2524,"Ġuseful":2525,"Ġfounded":2526,"comp":2527,"Ġexamination":2528,"mitted":2529,"ĠRE":2530,"Ġdeduced":2531,"Ġmotives":2532,"worth":2533,"Ġclearly":2534,"ENT":2535,"Ġdistinguished":2536,"Ġindicates":2537,"Ġimportant":2538,"synthesis":2539,"Ġbrought":2540,"happiness":2541,"categories":2542,"RAN":2543,"Ġetc":2544,"upon":2545,"Ġtask":2546,"hetic":2547,"ren":2548,"Ġwis":2549,"Ġcarr":2550,"Ġscept":2551,"Ġfa":2552,"ures":2553,"Ġunable":2554,"Ġspeculation":2555,"Ġperceive":2556,"phist":2557,"Ġstatement":2558,"ourselves":2559,"Ġlearn":2560,"Ġleft":2561,"Ġacting":2562,"Ġsciences":2563,"Ġpossession":2564,"Ġattention":2565,"Ġconsideration":2566,"Ġhypothetical":2567,"Ġresults":2568,"Ġaccept":2569,"Ġacqu":2570,"Ġcopyright":2571,"ground":2572,"Ġspeak":2573,"ĠeBook":2574,"Ġclaims":2575,"Ġeyes":2576,"Every":2577,"TH":2578,"cogit":2579,"div":2580,"etermin":2581,"fac":2582,"him":2583,"ip":2584,"opt":2585,"Ġ4":2586,"Ġtheology":2587,"Ġcre":2588,"Ġput":2589,"Ġwhom":2590,"Ġwholly":2591,"Ġsuffici":2592,"iber":2593,"Ġge":2594,"Ġgen":2595,"urs":2596,"ends":2597,"Ġdeterminable":2598,"possess":2599,"Ġadopt":2600,"Ġmorals":2601,"Ġposition":2602,"Ġinterests":2603,"Ġpresupposes":2604,"Ġdirected":2605,"Ġstands":2606,"Ġconsequences":2607,"Ġantinomy":2608,"connection":2609,"Ġbecomes":2610,"ublic":2611,"his":2612,"lict":2613,"my":2614,"ven":2615,"ins":2616,"Ġopp":2617,"ishing":2618,"ata":2619,"Ġmental":2620,"Ġfavour":2621,"arch":2622,"arks":2623,"Ġforce":2624,"Ġgain":2625,"conf":2626,"change":2627,"ending":2628,"Ġempty":2629,"Ġstep":2630,"unconditioned":2631,"ĠSt":2632,"Ġlimitation":2633,"Ġdesires":2634,"Ġexamples":2635,"Ġenable":2636,"Ġsimilar":2637,"Ġconcreto":2638,"Ġmotion":2639,"osmological":2640,"Ġproblematical":2641,"Ġguidance":2642,"Ġindicate":2643,"Ġattempts":2644,"mission":2645,"Ġbodies":2646,"Ġlegislation":2647,"Ġdrawn":2648,"absolutely":2649,"Ġespecially":2650,"Ġapodeictic":2651,"Ġcircumst":2652,"Ġsignificance":2653,"?âĢĿ":2654,"CE":2655,"cre":2656,"gg":2657,"lt":2658,"more":2659,"pic":2660,"press":2661,"tot":2662,"val":2663,"Ġens":2664,"Ġopposed":2665,"atives":2666,"Ġsc":2667,"Ġfig":2668,"stood":2669,"Ġlight":2670,"Ġsure":2671,"think":2672,"Ġdefinite":2673,"nderstanding":2674,"ume":2675,"ously":2676,"posite":2677,"Ġaccom":2678,"speci":2679,"Ġdeser":2680,"Ġpurposes":2681,"Ġjustified":2682,"series":2683,"pendence":2684,"Ġoccasion":2685,"cribed":2686,"Ġconcerns":2687,"Ġcommands":2688,"Ġdogmat":2689,"Ġinstead":2690,"Ġobliged":2691,"Ġdepends":2692,"ĠYou":2693,"philosophy":2694,"Ġjudge":2695,"presu":2696,"Ġschool":2697,"Ġinsight":2698,"question":2699,"Ġarbitrary":2700,"When":2701,"satisf":2702,"tun":2703,"xi":2704,"Ġed":2705,"inction":2706,"into":2707,"Ġreach":2708,"Ġwhy":2709,"Ġhigh":2710,"Ġforth":2711,"ured":2712,"aint":2713,"used":2714,"Ġsyllogism":2715,"Ġphenomenal":2716,"interest":2717,"ĠWhen":2718,"arent":2719,"Ġcommunity":2720,"Ġphilosophical":2721,"Ġhappen":2722,"avoid":2723,"manence":2724,"Ġsubjectively":2725,"Ġmodes":2726,"Ġassertions":2727,"contradictory":2728,"Ġeasy":2729,"Ġbelieve":2730,"ached":2731,"Ġchoice":2732,"Ġdestroy":2733,"iterary":2734,"Ġwisdom":2735,"Ġgeometr":2736,"Gutenberg":2737,"To":2738,"either":2739,"free":2740,"kind":2741,"oly":2742,"same":2743,"ying":2744,"Ġta":2745,"Ġtimes":2746,"ispens":2747,"Ġsought":2748,"icense":2749,"Ġinter":2750,"angement":2751,"Ġeffort":2752,"Ġconver":2753,"Ġprior":2754,"iment":2755,"impossible":2756,"cipl":2757,"ifies":2758,"ately":2759,"chive":2760,"udes":2761,"pposing":2762,"Ġsubtle":2763,"izing":2764,"Ġrespecting":2765,"Ġuniversally":2766,"Ġfinds":2767,"Ġwhereby":2768,"Ġreflection":2769,"Ġextended":2770,"END":2771,"Ġderive":2772,"good":2773,"Ġidentity":2774,"Ġconstruction":2775,"Ġgenerally":2776,"Ġopinion":2777,"different":2778,"should":2779,"belong":2780,"causality":2781,"Ġkeep":2782,"Ġinevitably":2783,"faculty":2784,"ltimate":2785,"cipline":2786,"could":2787,"ged":2788,"ms":2789,"sens":2790,"ĠÃ":2791,"Ġautonomy":2792,"Ġold":2793,"Ġwise":2794,"Ġcol":2795,"Ġcoun":2796,"also":2797,"Ġincapable":2798,"Ġbesides":2799,"origin":2800,"Ġmaking":2801,"Ġmechan":2802,"cede":2803,"analy":2804,"Ġdom":2805,"asing":2806,"Ġprimal":2807,"Ġannihil":2808,"Ġlay":2809,"ĠĠĠĠĠĠĠ":2810,"than":2811,"those":2812,"emark":2813,"conform":2814,"Ġexisted":2815,"Ġregion":2816,"whole":2817,"case":2818,"Ġpractically":2819,"Ġeveryone":2820,"Ġsubordin":2821,"Ġmag":2822,"predic":2823,"Ġproduces":2824,"eduction":2825,"Ġcompelled":2826,"Ġassumed":2827,"Ġconclusions":2828,"Ġmetaphysic":2829,"Ġcontingency":2830,"Ġfinally":2831,"Ġindependently":2832,"Ġutterly":2833,"ĠAnalytic":2834,"Ġinquiry":2835,"Ġcomparison":2836,"intelligible":2837,"purpose":2838,"etermined":2839,"IC":2840,"IT":2841,"Project":2842,"like":2843,"mort":2844,"path":2845,"rop":2846,"sc":2847,"Ġtable":2848,"internal":2849,"Ġtheory":2850,"real":2851,"itable":2852,"Ġpe":2853,"Ġredu":2854,"Ġdown":2855,"arge":2856,"Ġhon":2857,"Ġexper":2858,"Ġlabour":2859,"Ġnotions":2860,"iding":2861,"ively":2862,"character":2863,"usory":2864,"Ġuncondition":2865,"idea":2866,"Ġtransc":2867,"Ġheter":2868,"Ġimpl":2869,"success":2870,"anted":2871,"ĠAN":2872,"ferences":2873,"stratum":2874,"Ġduties":2875,"sensibility":2876,"fully":2877,"Ġpoints":2878,"Ġcontradictory":2879,"contrary":2880,"struction":2881,"Ġattained":2882,"Ġconflict":2883,"Ġarrive":2884,"content":2885,"Ġmembers":2886,"Ġcosmical":2887,"Ġfunctions":2888,"Ġinfinity":2889,"substance":2890,"Ġfully":2891,"Ġdonations":2892,"demonstr":2893,"ENTAL":2894,"SC":2895,"UT":2896,"aight":2897,"cess":2898,"far":2899,"gu":2900,"greg":2901,"iang":2902,"jud":2903,"matter":2904,"science":2905,"ww":2906,"erit":2907,"eriori":2908,"Ġsake":2909,"Ġtowards":2910,"Ġfill":2911,"ings":2912,"lying":2913,"Ġdire":2914,"omogeneous":2915,"ars":2916,"imin":2917,"ibility":2918,"ists":2919,"Ġcanon":2920,"Ġdef":2921,"Ġdependent":2922,"actions":2923,"hensible":2924,"Ġtherein":2925,"Ġmeet":2926,"piricism":2927,"Ġmorally":2928,"Ġgiving":2929,"Ġaccess":2930,"acy":2931,"Ġadm":2932,"been":2933,"ĠWith":2934,"ĠWhat":2935,"itherto":2936,"former":2937,"ĠHow":2938,"ounce":2939,"Ġsecure":2940,"anger":2941,"necessarily":2942,"Ġkinds":2943,"ĠLiterary":2944,"Ġpresupposed":2945,"enetr":2946,"Ġarrangement":2947,"Ġspecial":2948,"ĠPractical":2949,"Ġdialectic":2950,"ĠIII":2951,"Ġoperations":2952,"ckon":2953,"Ġsufficiently":2954,"Ġdirection":2955,"How":2956,"crit":2957,"first":2958,"great":2959,"hig":2960,"light":2961,"non":2962,"ru":2963,"times":2964,"when":2965,"Ġtal":2966,"ret":2967,"isible":2968,"Ġbor":2969,"Ġfan":2970,"Ġnone":2971,"Ġreciproc":2972,"ash":2973,"Ġpriv":2974,"Ġprud":2975,"immediate":2976,"Ġexposition":2977,"Ġlos":2978,"urally":2979,"Ġprob":2980,"conce":2981,"oretic":2982,"usiness":2983,"abstr":2984,"Ġcomposite":2985,"Ġrise":2986,"Ġperceived":2987,"Ġsequ":2988,"expl":2989,"external":2990,"Ġevidence":2991,"Ġaccident":2992,"soci":2993,"Ġart":2994,"ief":2995,"elf":2996,"Ġmaj":2997,"Ġplain":2998,"prov":2999,"Ġpurity":3000,"Ġfear":3001,"Ġproduct":3002,"determining":3003,"Ġwhereas":3004,"Ġstraight":3005,"Ġtotal":3006,"Ġclass":3007,"Ġequal":3008,"ĠTherefore":3009,"Ġdeny":3010,"Ġobligation":3011,"ĠeBooks":3012,"correspond":3013,"discover":3014,"Ġanalogy":3015,"Ġpretensions":3016,"limited":3017,"Ġignorance":3018,"Ġspontaneity":3019,"Ġcomprehend":3020,"ĠArchive":3021,"Ġpsychology":3022,"ĠPrinciples":3023,"universal":3024,"Ġcarry":3025,"OR":3026,"Re":3027,"What":3028,"eem":3029,"effect":3030,"ian":3031,"oin":3032,"point":3033,"side":3034,"since":3035,"Ġ9":3036,"Ġsever":3037,"org":3038,"Ġfail":3039,"Ġreceived":3040,"Ġdivers":3041,"Ġassoci":3042,"Ġultimate":3043,"Ġlove":3044,"ifice":3045,"Ġreasoning":3046,"Ġdefect":3047,"Ġunited":3048,"Ġsophist":3049,"adv":3050,"ante":3051,"ĠAccording":3052,"sphere":3053,"Ġsubstratum":3054,"Ġcontaining":3055,"compre":3056,"existent":3057,"That":3058,"Ġfeelings":3059,"ĠConceptions":3060,"Ġimperatives":3061,"Ġobserve":3062,"subsist":3063,"Ġsignification":3064,"Ġattributes":3065,"Ġprevent":3066,"Ġprovided":3067,"Ġopen":3068,"ixed":3069,"Ġanalog":3070,"Ġnoumenon":3071,"investig":3072,"xiom":3073,"mortality":3074,"iangle":3075,"AS":3076,"cceed":3077,"den":3078,"eib":3079,"hand":3080,"power":3081,"vious":3082,"Ġtitle":3083,"ites":3084,"itude":3085,"ator":3086,"Ġsk":3087,"Ġshe":3088,"Ġpublic":3089,"Ġback":3090,"Ġfour":3091,"sthetic":3092,"asant":3093,"uty":3094,"ĠIm":3095,"Ġdet":3096,"amed":3097,"ĠFrom":3098,"ĠPro":3099,"Ġplan":3100,"Ġcontem":3101,"ĠGeneral":3102,"Ġassign":3103,"withstanding":3104,"Ġpresence":3105,"ĠUnderstanding":3106,"Ġstandard":3107,"certainty":3108,"missible":3109,"Ġassertion":3110,"Ġlonger":3111,"Ġspecies":3112,"Ġdemonstrate":3113,"obser":3114,"Ġlegislative":3115,"Ġundetermined":3116,"propositions":3117,"Ġthoroughly":3118,"Ġabsurd":3119,"Ġcease":3120,"Ġparagraph":3121,"Ġnoumena":3122,"nitz":3123,"Ġpreviously":3124,"ĠSpace":3125,"reng":3126,"Ġoppon":3127,"Ġcircumstances":3128,"Ġschools":3129,"avoidable":3130,"ispensable":3131,"Ġseveral":3132,"eibnitz":3133,")âĢĶ":3134,"ND":3135,"OU":3136,"Su":3137,"apt":3138,"ild":3139,"ially":3140,"lat":3141,"occ":3142,"uous":3143,"Ġir":3144,"iting":3145,"attain":3146,"Ġwrit":3147,"Ġsight":3148,"Ġpast":3149,"Ġindu":3150,"Ġinformation":3151,"Ġmention":3152,"Ġrec":3153,"Ġrece":3154,"Ġconfin":3155,"Ġhum":3156,"Ġhitherto":3157,"Ġpract":3158,"Ġasc":3159,"irmed":3160,"through":3161,"Ġprocess":3162,"Ġunknown":3163,"olution":3164,"Ġvent":3165,"ounded":3166,"Ġformula":3167,"Ġnaturally":3168,"ademark":3169,"Ġused":3170,"Ġquality":3171,"Ġrelatively":3172,"ired":3173,"ĠAt":3174,"Ġpartly":3175,"Ġchain":3176,"claim":3177,"opular":3178,"ĠOR":3179,"ization":3180,"ignity":3181,"uthoriz":3182,"Ġenlar":3183,"hapter":3184,"Ġjustice":3185,"Ġminds":3186,"angu":3187,"Ġproceeds":3188,"Ġdecide":3189,"struct":3190,"Ġdefined":3191,"Ġworthy":3192,"Ġmetaphysical":3193,"particular":3194,"Ġprovide":3195,"Ġdemands":3196,"Ġintuited":3197,"ĠUnited":3198,"Ġdiscuss":3199,"Ġobservation":3200,"velop":3201,"Ġfurnish":3202,"iberty":3203,"valid":3204,"Wh":3205,"air":3206,"adequate":3207,"joy":3208,"mot":3209,"turn":3210,"uit":3211,"Ġ=":3212,"Ġturn":3213,"issim":3214,"eness":3215,"ater":3216,"Ġsa":3217,"Ġsent":3218,"Ġinsepar":3219,"Ġbene":3220,"Ġbusiness":3221,"Ġfirm":3222,"Ġdata":3223,"theoretical":3224,"Ġweight":3225,"Ġsucceed":3226,"conc":3227,"Ġcomposition":3228,"truth":3229,"Ġheld":3230,"Ġpermanence":3231,"Ġstud":3232,"ĠSo":3233,"ĠSy":3234,"ĠOur":3235,"izes":3236,"Ġcontrib":3237,"Ġobst":3238,"Ġobsc":3239,"proceed":3240,"Ġdiscern":3241,"âĢĿ;":3242,"well":3243,"manif":3244,"Ġadmitting":3245,"Ġquantities":3246,"Ġafford":3247,"Ġelev":3248,"Ġsatisfied":3249,"relate":3250,"natural":3251,"cribes":3252,"Ġconcerned":3253,"Ġwants":3254,"Ġdemonstration":3255,"Ġholds":3256,"Ġproblems":3257,"Ġdenied":3258,"Ġvariety":3259,"***":3260,"everything":3261,"Ġsprings":3262,"aches":3263,"Ġignorant":3264,"Ġauthority":3265,"example":3266,"Ġdiscussion":3267,"Ġantecedent":3268,"Ġforeign":3269,"Ġexactly":3270,"quantity":3271,"Ġscepticism":3272,"Ġdomain":3273,"Ġborrow":3274,"Ġmajor":3275,"By":3276,"Pr":3277,"look":3278,"nex":3279,"ople":3280,"post":3281,"say":3282,"ug":3283,"Ġaxiom":3284,"inf":3285,"rees":3286,"rest":3287,"itled":3288,"Ġpun":3289,"als":3290,"Ġmist":3291,"least":3292,"Ġdest":3293,"Ġdanger":3294,"entific":3295,"Ġlost":3296,"Ġlower":3297,"ceptivity":3298,"throp":3299,"uring":3300,"seless":3301,"ustr":3302,"play":3303,"ĠĠĠĠĠĠĠĠĠ":3304,"oliness":3305,"Ġpossibly":3306,"Ġunderstood":3307,"Ġimmortality":3308,"Ġperform":3309,"Ġapparent":3310,"ĠPh":3311,"aged":3312,"before":3313,"Ġscientific":3314,"Ġpreser":3315,"Ġproduction":3316,"Ġapplies":3317,"ĠDe":3318,"Ġimpul":3319,"Ġconstitutive":3320,"Ġadmits":3321,"Ġindif":3322,"Ġpresupposition":3323,"Ġillusory":3324,"maxim":3325,"ialectic":3326,"Ġafterwards":3327,"TIC":3328,"contin":3329,"Ġantit":3330,"Ġinstance":3331,"Ġexpected":3332,"Ġ200":3333,"connected":3334,"Ġadded":3335,"Ġspeaking":3336,"Ġinquiries":3337,"Ġabsence":3338,"Ġearth":3339,"distinguish":3340,"RANSC":3341,"Ġefforts":3342,"ENDENTAL":3343,"issimum":3344,"RANSCENDENTAL":3345,"ED":3346,"On":3347,"after":3348,"draw":3349,"psych":3350,"tion":3351,"vere":3352,"Ġpay":3353,"ico":3354,"Ġinference":3355,"Ġmark":3356,"edience":3357,"Ġeth":3358,"Ġreckon":3359,"Ġdignity":3360,"stant":3361,"utation":3362,"Ġang":3363,"Ġgl":3364,"urity":3365,"cies":3366,"Ġproves":3367,"Ġproport":3368,"Ġintention":3369,"actory":3370,"Ġcap":3371,"igion":3372,"mind":3373,"Ġtry":3374,"Ġtriangle":3375,"Ġnecessit":3376,"Ġimage":3377,"Ġseen":3378,"Ġqual":3379,"Ġstreng":3380,"oney":3381,"ĠNay":3382,"Ġsubsum":3383,"ĠCosmological":3384,"arer":3385,"Ġremo":3386,"Ġexamine":3387,"Ġeng":3388,"Ġapplicable":3389,"physical":3390,"Ġoriginate":3391,"Ġdivided":3392,"Ġindirect":3393,"Ġdeduce":3394,"Ġconclude":3395,"Ġsecondly":3396,"oubted":3397,"beings":3398,"conting":3399,"Ġdemonstrated":3400,"Ġequally":3401,"Ġrenders":3402,"Ġsmallest":3403,"Ġendeavours":3404,"completely":3405,"Ġconviction":3406,"Ġexhibit":3407,"attempt":3408,"Ġraised":3409,"mathematics":3410,"worthy":3411,"Ġlearned":3412,"Ġdiversity":3413,",\"":3414,".)":3415,"As":3416,"JEC":3417,"Transcendental":3418,"_.":3419,"aff":3420,"ges":3421,"gress":3422,"gutenberg":3423,"lies":3424,"overy":3425,"take":3426,"Ġauthoriz":3427,"inasmuch":3428,"Ġcr":3429,"Ġbest":3430,"Ġmerit":3431,"Ġmoney":3432,"Ġfit":3433,"another":3434,"Ġreceive":3435,"Ġanci":3436,"Ġforces":3437,"irit":3438,"thus":3439,"consequ":3440,"Ġdevelop":3441,"Ġspirit":3442,"Ġempiricism":3443,"orious":3444,"indic":3445,"expect":3446,"express":3447,"ĠPU":3448,"ĠPRO":3449,"Ġrepresents":3450,"ĠĠĠĠĠĠĠĠĠĠĠĠĠĠĠĠĠĠ":3451,"ĠNo":3452,"Ġsubl":3453,"imitive":3454,"again":3455,"Ġdifferences":3456,"ĠHere":3457,"Ġaggreg":3458,"Ġestim":3459,"Ġproceeding":3460,"Ġanalytic":3461,"Ġreflect":3462,"Ġbegins":3463,"Ġexpressions":3464,"Ġhypotheses":3465,"cisely":3466,"Ġdegrees":3467,"Ġinvestigations":3468,"subjective":3469,"going":3470,"Ġposteriori":3471,"Ġerrors":3472,"Ġesca":3473,"neg":3474,"independent":3475,"Ġinvolves":3476,"Ġinferred":3477,"nitude":3478,"Ġprofess":3479,"Ġpostulate":3480,"himself":3481,"ĠStates":3482,"ggest":3483,"Ġfigure":3484,"Ġprivate":3485,"Ġloss":3486,"subsistent":3487,"anguage":3488,"manifold":3489,"Ġproportion":3490,"BER":3491,"Hence":3492,"ae":3493,"ares":3494,"jun":3495,"oined":3496,"two":3497,"vice":3498,"you":3499,"Ġom":3500,"Ġtheoretic":3501,"Ġwishes":3502,"Ġpopular":3503,"Ġincre":3504,"ouble":3505,"Ġreturn":3506,"step":3507,"entially":3508,"ased":3509,"Ġholiness":3510,"Ġascribe":3511,"Ġusu":3512,"Ġanimal":3513,"Ġexc":3514,"Ġones":3515,"Ġnotwithstanding":3516,"ains":3517,"ulate":3518,"Ġobjections":3519,"ĠTime":3520,"Ġhabit":3521,"Ġcomes":3522,"notion":3523,"ideas":3524,"Ġanyone":3525,"Ġforming":3526,"Ġformed":3527,"pri":3528,"super":3529,"Ġshort":3530,"while":3531,"Ġsubjects":3532,"Ġdisappear":3533,"ternally":3534,"Ġserves":3535,"Ġplaces":3536,"Ġfollowed":3537,"proof":3538,"icians":3539,"Ġremarks":3540,"ĠHume":3541,"Ġfew":3542,"Ġextensive":3543,"Ġactivity":3544,"Ġthinks":3545,"Ġrealissimum":3546,"Ġincluded":3547,"determine":3548,"Ġenter":3549,"Ġshows":3550,"Ġrequirement":3551,"Ġappearances":3552,"Ġindispensable":3553,"Ġproofs":3554,"appre":3555,"regress":3556,"ficial":3557,"Ġexpresses":3558,"Ġconsistent":3559,"Ġsatisfy":3560,"Ġobserved":3561,"Ġguard":3562,"Ġnegation":3563,"Ġcoexistence":3564,"Ġcontinue":3565,"Ġinquire":3566,"Ġprecedes":3567,"Ġpromise":3568,"Ġallowed":3569,"ĠYOU":3570,"Ġinvolved":3571,"Ġleads":3572,"feel":3573,"ĠIdeas":3574,"legisl":3575,"Ġcheck":3576,"employment":3577,"cogitate":3578,"Ġaccomp":3579,"ĠÃ¦":3580,"Ġpeople":3581,"Reason":3582,"BERG":3583,".\"":3584,"From":3585,"ST":3586,"bid":3587,"ele":3588,"gl":3589,"human":3590,"hypothe":3591,"ik":3592,"oper":3593,"por":3594,"til":3595,"tological":3596,"itimate":3597,"Ġways":3598,"erc":3599,"Ġcal":3600,"Ġsays":3601,"Ġbad":3602,"Ġbold":3603,"Ġmo":3604,"Ġmult":3605,"sely":3606,"Ġren":3607,"lease":3608,"Ġbeh":3609,"argum":3610,"asser":3611,"Ġhomogeneous":3612,"Ġpros":3613,"imp":3614,"Ġexception":3615,"Ġexec":3616,"Ġextr":3617,"Ġliberty":3618,"istance":3619,"ained":3620,"andon":3621,"âĢĻ":3622,"ember":3623,"cond":3624,"Ġdev":3625,"plic":3626,"umer":3627,"Ġviz":3628,"Ġimmanent":3629,"Ġpersu":3630,"Ġpermission":3631,"evertheless":3632,"Ġsearch":3633,"Ġdiscipline":3634,"Ġdisplay":3635,"Ġprecede":3636,"finitum":3637,"Ġcausal":3638,"ĠGUT":3639,"Ġendless":3640,"ĠCh":3641,"Ġobedience":3642,"ishment":3643,"Ġrespects":3644,"Ġdiscovery":3645,"Ġfee":3646,"Ġenjoy":3647,"ĠEm":3648,"Ġattend":3649,"ĠDo":3650,"ĠDiv":3651,"conscious":3652,"determines":3653,"Ġentitled":3654,"Ġconsiderations":3655,"Ġstrong":3656,"Ġrefund":3657,"Ġcommonly":3658,"Ġassumption":3659,"ĠLeibnitz":3660,"Ġoccur":3661,"ENBERG":3662,"Ġpersons":3663,"Ġguide":3664,"Ġcopies":3665,"morality":3666,"Ġcoexistent":3667,"Ġpromot":3668,"regards":3669,"Ġavail":3670,"Ġchoose":3671,"Ġcontinuous":3672,"Ġinfinitum":3673,"Ġfulf":3674,"inclination":3675,"Ġblind":3676,"Ġconstructed":3677,"Ġintroduce":3678,"Ġprecepts":3679,"consistent":3680,"Ġcreature":3681,"Ġseparate":3682,"Ġstatements":3683,"Ġgenu":3684,"Ġschemat":3685,"Ġgeometry":3686,"Ġunconditional":3687,"conceit":3688,"Ġassociated":3689,"Ġsophistical":3690,"Ġopponent":3691,"JECT":3692,"ĠGUTENBERG":3693,"Con":3694,"SE":3695,"aves":3696,"found":3697,"foundation":3698,"line":3699,"sign":3700,"vol":3701,"were":3702,"Ġ6":3703,"Ġ7":3704,"Ġtw":3705,"hesis":3706,"inct":3707,"inary":3708,"infinite":3709,"ref":3710,"itect":3711,"atio":3712,"Ġwond":3713,"erted":3714,"Ġcult":3715,"Ġcost":3716,"Ġpaid":3717,"Ġinferences":3718,"Ġbu":3719,"ank":3720,"Ġreceptivity":3721,"leological":3722,"Ġconstant":3723,"Ġhist":3724,"Ġholy":3725,"Ġprim":3726,"ival":3727,"imag":3728,"owed":3729,"Ġsuggest":3730,"Ġreasons":3731,"ustom":3732,"pleasure":3733,"Ġunavoidable":3734,"defin":3735,"depend":3736,"Ġheav":3737,"Ġimpossibility":3738,"Ġreligion":3739,"order":3740,"Ġaccur":3741,"Ġaccord":3742,"fortun":3743,"nthetical":3744,"unte":3745,"Ġknows":3746,"Ġparty":3747,"straint":3748,"ĠSolution":3749,"solution":3750,"Ġplay":3751,"Ġgoes":3752,"ician":3753,"aching":3754,"ĠEpic":3755,"exists":3756,"anged":3757,"Ġconstituted":3758,"ĠMor":3759,"Ġcommonest":3760,"Ġassuming":3761,"ĠLicense":3762,"Ġattainment":3763,"accordance":3764,"Ġdefine":3765,"Ġderiv":3766,"Ġimagine":3767,"cognitions":3768,"Ġcorresponds":3769,"Ġspecif":3770,"Ġidealism":3771,"oblig":3772,"Ġremarkable":3773,"Ġfalls":3774,"regarded":3775,"Ġutility":3776,"diffic":3777,"judgements":3778,"Ġmediate":3779,"Ġmedium":3780,"ART":3781,"nevertheless":3782,"follows":3783,"application":3784,"Ġadvanced":3785,"metaphysics":3786,"ursive":3787,"totality":3788,"Ġtax":3789,"Ġmechanism":3790,"Ġmagnitude":3791,"ITY":3792,"Ġhonest":3793,"Ġexperiment":3794,"Ġimplies":3795,"corresponding":3796,"investigation":3797,"Ġsafe":3798,"concern":3799,"Ġstudy":3800,"influence":3801,"Ġantithesis":3802,"Ġangles":3803,"contingent":3804,"plicity":3805,"IR":3806,"OG":3807,"PL":3808,"PR":3809,"dog":3810,"find":3811,"ient":3812,"iol":3813,"logical":3814,"llectual":3815,"nor":3816,"pass":3817,"scept":3818,"tt":3819,"vation":3820,"view":3821,"inqu":3822,"inions":3823,"alt":3824,"alogism":3825,"ndered":3826,"ors":3827,"Ġmin":3828,"second":3829,"oured":3830,"lebr":3831,"Ġaside":3832,"imer":3833,"Ġontological":3834,"Ġlist":3835,"Ġlanguage":3836,"Ġweak":3837,"Ġforward":3838,"Ġproposed":3839,"Ġreasonable":3840,"ĠTO":3841,"concept":3842,"conci":3843,"Ġuntil":3844,"ĠĠĠĠĠĠĠĠĠĠĠĠ":3845,"deg":3846,"Ġdoctr":3847,"Ġtrademark":3848,"Ġhead":3849,"Ġpermit":3850,"addition":3851,"Ġusing":3852,"presented":3853,"Ġappe":3854,"Ġadapt":3855,"etent":3856,"Ġcharge":3857,"Ġleaves":3858,"Ġsometimes":3859,"Ġarising":3860,"ĠNO":3861,"ĠNat":3862,"ĠNot":3863,"Ġsubsist":3864,"pret":3865,"Ġfrequ":3866,"beyond":3867,"Ġgrad":3868,"These":3869,"Ġlimitations":3870,"Ġsaying":3871,"proble":3872,"Ġhappy":3873,"Ġacts":3874,"Ġenabl":3875,"ĠEvery":3876,"ĠEven":3877,"Ġattached":3878,"ĠDeduction":3879,"Ġsecret":3880,"Ġesteem":3881,"Ġstru":3882,"Ġconcluded":3883,"Ġphysics":3884,"Ġillustr":3885,"Ġconfess":3886,"Ġaffirmed":3887,"Ġdesired":3888,"Ġfinal":3889,"Ġdifficult":3890,"Ġessentially":3891,"Ġmaterials":3892,"Ġpromote":3893,"Ġaware":3894,"intellectual":3895,"Ġcircle":3896,"Ġconvin":3897,"considered":3898,"Ġdistribution":3899,"substances":3900,"Ġtransgress":3901,"Ġcombination":3902,"Ġoccupied":3903,"systematic":3904,"division":3905,"satisfaction":3906,"Ġsyllogisms":3907,"Ġsubordinate":3908,"highest":3909,"immediately":3910,"Ġrecourse":3911,"Ġventure":3912,"Ġinseparably":3913,"Ġaxioms":3914,"Ġengaged":3915,"junctive":3916,"ĠÃ¦sthetic":3917,"lebrated":3918,"EM":3919,"Of":3920,"dedu":3921,"duty":3922,"equ":3923,"fact":3924,"fundamental":3925,"give":3926,"ling":3927,"pot":3928,"rong":3929,"rule":3930,"show":3931,"tal":3932,"yet":3933,"inst":3934,"inity":3935,"inter":3936,"Ġobe":3937,"ream":3938,"itas":3939,"ened":3940,"Ġwide":3941,"Ġsac":3942,"Ġinsufficient":3943,"ceasing":3944,"ingly":3945,"Ġrep":3946,"Ġhind":3947,"Ġprot":3948,"Ġprimitive":3949,"Ġascribed":3950,"Ġlines":3951,"Ġfortun":3952,"Ġsuitable":3953,"urious":3954,"ĠIV":3955,"conv":3956,"ili":3957,"ilst":3958,"Ġunlimited":3959,"olog":3960,"Ġcompl":3961,"establ":3962,"Ġmeasure":3963,"Ġvan":3964,"Ġheart":3965,"Ġimit":3966,"Ġimposes":3967,"Ġperi":3968,"positive":3969,"supp":3970,"acity":3971,"Ġaddu":3972,"Ġprep":3973,"mention":3974,"ĠSEC":3975,"oyal":3976,"preced":3977,"ĠInt":3978,"Ġcomplex":3979,"ĠIts":3980,"ĠWh":3981,"ĠWhether":3982,"Ġgoal":3983,"Ġgover":3984,"Ġemploying":3985,"common":3986,"ĠHis":3987,"Ġprescribes":3988,"Ġjustify":3989,"Ġsubstant":3990,"ĠDI":3991,"ĠDis":3992,"Ġincluding":3993,"determinations":3994,"Ġcharacteristic":3995,"Ġdeclar":3996,"Ġ15":3997,"Ġconfirm":3998,"Ġdiscovering":3999,"OOF":4000,"Ġsigns":4001,"Ġmoder":4002,"Ġwanting":4003,"Ġinvestigate":4004,"parts":4005,"Ġanticip":4006,"Ġexplained":4007,"Ġ20":4008,"Ġgenera":4009,"Ġfalla":4010,"distinction":4011,"Ġpathological":4012,"Ġaffirmative":4013,"Ġadditional":4014,"Ġdefinitions":4015,"philosopher":4016,"indeed":4017,"Ġobtained":4018,"examination":4019,"require":4020,"requires":4021,"Ġschol":4022,"Ġprofound":4023,"Ġantecedes":4024,"Ġpsychological":4025,"properly":4026,"applied":4027,"Ġreferred":4028,"orizon":4029,"Ġdeclared":4030,"Ġorganized":4031,"ĠKant":4032,"Ġcarefully":4033,"Ġroot":4034,"Ġcreation":4035,"total":4036,"Ġreciprocal":4037,"Ġprudence":4038,"Ġdefective":4039,"comprehensible":4040,"ASON":4041,"Ġskill":4042,"Ġcontempl":4043,"lato":4044,"Ġpractice":4045,"ĠPROJECT":4046,"apprehension":4047,"Ġgenuine":4048,"ivalent":4049,"unteers":4050,"PROOF":4051,"//":4052,"://":4053,"And":4054,"According":4055,"ACE":4056,"IL":4057,"IM":4058,"PRE":4059,"direct":4060,"doubt":4061,"fall":4062,"ging":4063,"iences":4064,"labour":4065,"main":4066,"mode":4067,"opposition":4068,"sing":4069,"uel":4070,"Ġtre":4071,"Ġtill":4072,"really":4073,"reme":4074,"restrict":4075,"itious":4076,"attrib":4077,"Ġwar":4078,"ery":4079,"Ġsound":4080,"Ġpat":4081,"Ġinj":4082,"Ġinstruction":4083,"orical":4084,"Ġefficient":4085,"set":4086,"Ġreject":4087,"Ġdur":4088,"entire":4089,"Ġwhilst":4090,"aries":4091,"Ġhyp":4092,"theology":4093,"imper":4094,"iments":4095,"import":4096,"Ġforbid":4097,"Ġsuff":4098,"Ġget":4099,"vers":4100,"vey":4101,"chitect":4102,"among":4103,"Ġattr":4104,"Ġspaces":4105,"transcendent":4106,"trodu":4107,"Ġtrouble":4108,"ĠBesides":4109,"Ġpermitted":4110,"Ġabandon":4111,"Ġsym":4112,"suffici":4113,"ants":4114,"antages":4115,"except":4116,"Ġrelated":4117,"Ġstart":4118,"Ġevid":4119,"who":4120,"acing":4121,"ĠPhenomen":4122,"soever":4123,"Ġprejud":4124,"Ġcha":4125,"ĠĠĠĠĠĠĠĠĠĠĠĠĠĠĠĠĠĠĠ":4126,"begin":4127,"Ġthence":4128,"Ġwhence":4129,"Ġgranted":4130,"ĠCON":4131,"Ġconnects":4132,"Ġobvious":4133,"Ġdesc":4134,"Ġcommence":4135,"Ġcommun":4136,"Ġremove":4137,"otherwise":4138,"Ġindependence":4139,"ĠEgo":4140,"existing":4141,"ĠDialectic":4142,"Ġinclude":4143,"Ġimpress":4144,"cognize":4145,"Ġsensations":4146,"Ġrequirements":4147,"Ġdivine":4148,"Ġcontradictions":4149,"Ġexpressed":4150,"intuitions":4151,"Ġconfidence":4152,"Ġconfused":4153,"made":4154,"Ġclose":4155,"ĠOnly":4156,"work":4157,"Ġacute":4158,"Ġattributed":4159,"Ġdifficulties":4160,"Ġherself":4161,"Ġdoubts":4162,"Ġaffirmation":4163,"objectively":4164,"Ġsmaller":4165,"ixt":4166,"Ġoperation":4167,"Ġteleological":4168,"Ġcelebrated":4169,"ARK":4170,"Ġcombined":4171,"Ġfruit":4172,"ĠIdea":4173,"Ġoccupies":4174,"following":4175,"Ġraise":4176,"ĠJudgement":4177,"perfectly":4178,"ĠREM":4179,"ĠREASON":4180,"Everything":4181,"Ġgenus":4182,"changeable":4183,"Ġaccompl":4184,"species":4185,"Ġdeserves":4186,"Ġconversely":4187,"analytical":4188,"conformity":4189,"Ġsubordinated":4190,"Ġreduce":4191,"Ġheteronomy":4192,"Ġadmir":4193,"ĠWithout":4194,"rupt":4195,"abstraction":4196,"Ġsequence":4197,"advantage":4198,"ĠSynthetical":4199,"Ġdestination":4200,"Ġimpulses":4201,"Ġaggregate":4202,"Ġescape":4203,"Ġomni":4204,"Ġoneself":4205,"Ġschemata":4206,"Ġminor":4207,"Ġperiod":4208,"AM":4209,"An":4210,"ATION":4211,"CT":4212,"With":4213,"aen":4214,"aps":4215,"big":4216,"bod":4217,"both":4218,"cul":4219,"dec":4220,"ee":4221,"each":4222,"face":4223,"iable":4224,"iance":4225,"make":4226,"ox":4227,"Ġ0":4228,"Ġlying":4229,"Ġtast":4230,"Ġtyp":4231,"itio":4232,"isable":4233,"isibility":4234,"atus":4235,"Ġwrong":4236,"Ġcle":4237,"Ġcur":4238,"Ġsection":4239,"Ġsides":4240,"Ġslight":4241,"ick":4242,"Ġfive":4243,"ouse":4244,"Ġisol":4245,"Ġrendered":4246,"lead":4247,"Ġdict":4248,"state":4249,"statement":4250,"utions":4251,"ected":4252,"Ġhy":4253,"theological":4254,"itions":4255,"Ġexposed":4256,"Ġled":4257,"Ġlose":4258,"Ġloc":4259,"Ġsusp":4260,"urality":4261,"ĠIN":4262,"quite":4263,"Ġord":4264,"econd":4265,"ift":4266,"person":4267,"Ġpropose":4268,"Ġobjection":4269,"Ġdeep":4270,"pleasant":4271,"Ġalter":4272,"Ġalong":4273,"Ġunceasing":4274,"above":4275,"umber":4276,"umption":4277,"Ġspect":4278,"trans":4279,"true":4280,"Ġrid":4281,"Ġrank":4282,"Ġmeant":4283,"Ġtrib":4284,"Ġimposed":4285,"posing":4286,"supposition":4287,"Ġseat":4288,"exercise":4289,"Ġrelating":4290,"Ġstated":4291,"Ġmortal":4292,"acher":4293,"Ġadmissible":4294,"ĠPlato":4295,"Ġdisjunctive":4296,"unal":4297,"Ġpremis":4298,"Ġprecisely":4299,"Ġparties":4300,"Ġchimer":4301,"ĠSince":4302,"ĠNe":4303,"ĠNevertheless":4304,"ĠObject":4305,"Ġservice":4306,"Ġpresenting":4307,"ortion":4308,"ĠCom":4309,"astic":4310,"Ġasserted":4311,"Ġgoodness":4312,"Ġoutside":4313,"Ġpossessed":4314,"ounces":4315,"Ġimpart":4316,"ĠMat":4317,"ĠMetaphys":4318,"Ġcompare":4319,"Ġadvantages":4320,"Ġ10":4321,"Ġillusions":4322,"Ġsatisfactory":4323,"relations":4324,"ialectical":4325,"Ġrightly":4326,"Ġextending":4327,"Ġconcerning":4328,"Ġlegitimate":4329,"certainly":4330,"Ġsignifies":4331,"Ġmodality":4332,"Ġequivalent":4333,"completeness":4334,"Ġutmost":4335,"simple":4336,"similar":4337,"Ġharmonize":4338,"Ġconjoined":4339,"Ġundoubted":4340,"Ġtreats":4341,"Ġdistribute":4342,"Ġdistributing":4343,"Ġcriteria":4344,"Ġstrictly":4345,"Ġexhibits":4346,"Ġexcluded":4347,"Ġpursue":4348,"Ġblame":4349,"Ġdelusion":4350,"Ġforegoing":4351,"Ġapproxim":4352,"ĠSpeculative":4353,"summum":4354,"ĠPrinciple":4355,"consideration":4356,"contains":4357,"contained":4358,"grounds":4359,"Ġadopted":4360,"thinking":4361,"Ġedifice":4362,"belonging":4363,"sensation":4364,"Ġcounter":4365,"Ġannihilated":4366,"predicates":4367,"succession":4368,"abstract":4369,"Ġsequel":4370,"explanation":4371,"anteced":4372,"ĠAccordingly":4373,"Ġconfine":4374,"Ġobstac":4375,"Ġborrowed":4376,"ugment":4377,"Ġpreserve":4378,"Ġstrength":4379,"hypothesis":4380,"Ġbehind":4381,"Ġcultiv":4382,"ttp":4383,"degree":4384,"Ġgovern":4385,"maintain":4386,"Ġduration":4387,"ixture":4388,"aenomen":4389,"80":4390,"Chapter":4391,"Ex":4392,"God":4393,"Here":4394,"Let":4395,"RI":4396,"VE":4397,"af":4398,"author":4399,"cks":4400,"clear":4401,"deduction":4402,"dialectical":4403,"fit":4404,"ger":4405,"gain":4406,"ier":4407,"might":4408,"nce":4409,"nay":4410,"oot":4411,"sour":4412,"Ġtend":4413,"Ġtell":4414,"Ġtaking":4415,"Ġair":4416,"Ġthesis":4417,"reference":4418,"itate":4419,"Ġpenetr":4420,"alog":4421,"icion":4422,"Ġinward":4423,"Ġbre":4424,"orm":4425,"Ġfict":4426,"anthrop":4427,"Ġresol":4428,"Ġrecomm":4429,"Ġreplace":4430,"Ġconstraint":4431,"Ġdr":4432,"Ġdim":4433,"Ġdream":4434,"Ġbear":4435,"ott":4436,"utable":4437,"Ġhid":4438,"Ġhard":4439,"Ġexert":4440,"Ġlink":4441,"Ġlaid":4442,"ibly":4443,"iform":4444,"Ġprop":4445,"ĠTRANSCENDENTAL":4446,"concl":4447,"conceived":4448,"construction":4449,"Ġdepr":4450,"Ġintended":4451,"usive":4452,"illusion":4453,"Ġunion":4454,"Ġunworthy":4455,"Ġthereto":4456,"ofold":4457,"Ġundert":4458,"Ġwills":4459,"Ġanywhere":4460,"Ġformat":4461,"pright":4462,"progress":4463,"Ġability":4464,"Ġstop":4465,"ĠAuthor":4466,"Ġsubjected":4467,"ĠPer":4468,"Ġdisclaim":4469,"uncondition":4470,"unless":4471,"sole":4472,"Ġprefer":4473,"ternity":4474,"Ġarchitect":4475,"Ġwhatsoever":4476,"ĠSto":4477,"ope":4478,"Ġnearer":4479,"Ġcompletion":4480,"Ġgrant":4481,"Ġthoughts":4482,"ĠCategor":4483,"ĠChapter":4484,"Ġconsiders":4485,"ĠEBOOK":4486,"Ġambig":4487,"serve":4488,"avoured":4489,"manner":4490,"manuel":4491,"Ġoriginated":4492,"Ġcogitating":4493,"ĠMy":4494,"Ġcomply":4495,"Ġcompared":4496,"appro":4497,"evident":4498,"ĠLogic":4499,"Ġattaining":4500,"Ġbeforehand":4501,"empirically":4502,"ĠConception":4503,"Ġsets":4504,"Ġpleasant":4505,"Ġdistinguishing":4506,"Ġpersonal":4507,"Ġnumer":4508,"Ġattempted":4509,"aneous":4510,"aneously":4511,"anything":4512,"ailed":4513,"Ġexpectation":4514,"Ġapprehend":4515,"Ġpromises":4516,"Ġallowable":4517,"Ġdependence":4518,"Ġopinions":4519,"regarding":4520,"Ġmaintained":4521,"extension":4522,"difference":4523,"correct":4524,"Ġbringing":4525,"Ġteach":4526,"Ġteaches":4527,"Ġcorrectness":4528,"limits":4529,"ogeneity":4530,"Ġasked":4531,"ARRAN":4532,"Ġseeking":4533,"Ġrecognize":4534,"Ġrecognized":4535,"Ġspontaneous":4536,"ĠĠĠĠĠĠĠĠĠĠĠĠĠĠĠĠĠĠĠĠĠĠĠ":4537,"ĠIdeal":4538,"including":4539,"command":4540,"ĠJust":4541,"Ġroom":4542,"distinguished":4543,"mathematical":4544,"insic":4545,"presupposes":4546,"Ġannihilate":4547,"predicate":4548,"Ġhonour":4549,"Ġtranscend":4550,"Ġheterogeneous":4551,"ashion":4552,"Ġprobably":4553,"Ġanalogies":4554,"ĠImmanuel":4555,"occup":4556,"Ġmentioned":4557,"Ġreceiving":4558,"validity":4559,"drawn":4560,"Ġethics":4561,"Ġremoved":4562,"Ġindirectly":4563,"affirm":4564,"expected":4565,"ĠPURE":4566,"against":4567,"assert":4568,"Ġfulfil":4569,"depends":4570,"inquir":4571,"Ġdoctrines":4572,"Ġadapted":4573,"Ġenables":4574,"Ġchapter":4575,"ĠJudgements":4576,"Ġtaste":4577,"Ġhyper":4578,"Ġsuspicion":4579,"FACE":4580,"QU":4581,"RIN":4582,"co":4583,"col":4584,"cosmological":4585,"electronic":4586,"fers":4587,"gener":4588,"ius":4589,"iating":4590,"iology":4591,"long":4592,"lied":4593,"mod":4594,"member":4595,"number":4596,"opposite":4597,"prom":4598,"ri":4599,"rist":4600,"uity":4601,"was":4602,"Ġver":4603,"hed":4604,"Ġaugment":4605,"inc":4606,"Ġtheological":4607,"render":4608,"reciproc":4609,"isions":4610,"enlar":4611,"atur":4612,"aticism":4613,"erable":4614,"Ġcent":4615,"alth":4616,"Ġinadequate":4617,"orph":4618,"Ġmon":4619,"Ġfashion":4620,"anations":4621,"Ġeternity":4622,"sec":4623,"see":4624,"Ġreve":4625,"Ġrepro":4626,"Ġreached":4627,"Ġdam":4628,"Ġdays":4629,"Ġdimin":4630,"arbitr":4631,"Ġhorizon":4632,"Ġpra":4633,"ivable":4634,"imity":4635,"Ġann":4636,"Ġexerc":4637,"Ġlarge":4638,"Ġwelf":4639,"Ġforced":4640,"iring":4641,"urther":4642,"urus":4643,"result":4644,"istics":4645,"Ġproving":4646,"Ġpropri":4647,"ĠTr":4648,"Ġdeath":4649,"Ġdepart":4650,"oreover":4651,"ilis":4652,"Ġalmost":4653,"Ġalleg":4654,"illed":4655,"Ġuncertain":4656,"abs":4657,"answ":4658,"Ġspite":4659,"esty":4660,"Ġembr":4661,"Ġdoll":4662,"ĠBoth":4663,"orily":4664,"prop":4665,"admissible":4666,"Ġshap":4667,"ĠFirst":4668,"ĠFreedom":4669,"Ġideality":4670,"Ġrelative":4671,"Ġjoin":4672,"Ġchance":4673,"clos":4674,"Ġsomewhat":4675,"els":4676,"else":4677,"ĠOr":4678,"method":4679,"Ġassured":4680,"Ġemploys":4681,"comb":4682,"compar":4683,"Ġdiscursive":4684,"Ġindetermin":4685,"Ġindefinite":4686,"ĠHim":4687,"Ġextreme":4688,"Ġactive":4689,"understood":4690,"Ġenounce":4691,"Ġoutward":4692,"Ġproducing":4693,"Ġsynthetically":4694,"Ġincludes":4695,"Ġviewed":4696,"Ġcorrelate":4697,"Ġpowerful":4698,"Ġestimate":4699,"Ġseeks":4700,"ĠLet":4701,"Ġdecided":4702,"undred":4703,"ĠUse":4704,"Ġsett":4705,"Ġclearness":4706,"Ġrights":4707,"cribing":4708,"Ġextends":4709,"Ġanswered":4710,"ched":4711,"Ġcommanded":4712,"Ġready":4713,"Ġreadily":4714,"Ġvirtuous":4715,"ĠTHIS":4716,"Ġerrone":4717,"Ġoverstep":4718,"Ġholding":4719,"Ġdoubtful":4720,"obtain":4721,"purely":4722,"Ġpasses":4723,"Ġpreceded":4724,"Ġprogression":4725,"distrib":4726,"Ġpeculiarity":4727,"Ġdrawing":4728,"ock":4729,"Ġanalytically":4730,"need":4731,"neither":4732,"categorical":4733,"discovered":4734,"Ġteacher":4735,"independence":4736,"Ġparalogism":4737,"Ġmomenta":4738,"ĠExperience":4739,"Ġestablishment":4740,"causes":4741,"ĠĠĠĠĠĠĠĠĠĠĠĠĠĠĠĠĠĠĠĠĠ":4742,"ĠĠĠĠĠĠĠĠĠĠĠĠĠĠĠĠĠĠĠĠĠĠ":4743,"Ġcomprehensible":4744,"Ġdestru":4745,"Ġchecks":4746,"Ġdeclares":4747,"ĠVII":4748,"Ġorganon":4749,"metaphysic":4750,"constitute":4751,"constitutive":4752,"Ġdispute":4753,"Ġdisputes":4754,"Ġsceptical":4755,"Ġfaith":4756,"Ġcreated":4757,"myself":4758,"Ġgained":4759,"special":4760,"Ġdeserve":4761,"Ġdogmatic":4762,"Ġhighly":4763,"senses":4764,"Ġcolour":4765,"Ġmagn":4766,"Ġreduced":4767,"Ġunconditionally":4768,"ĠANY":4769,"ĠHowever":4770,"critical":4771,"higher":4772,"Ġtalent":4773,"Ġaccidental":4774,"observation":4775,"Supreme":4776,"Ġfirmly":4777,"Ġobscurity":4778,"nexion":4779,"Ġindifference":4780,"Ġindifferent":4781,"psychology":4782,"negative":4783,"Ġdisappears":4784,"legislation":4785,"Ġaccompan":4786,"Ġenjoyment":4787,"Ġavailable":4788,"Ġwonder":4789,"Ġbuild":4790,"Ġhistory":4791,"definition":4792,"ĠNature":4793,"Ġfortune":4794,"mentioned":4795,"Accordingly":4796,"PREFACE":4797,"Ġtreated":4798,"Ġwarning":4799,"imperative":4800,"important":4801,"ĠPhenomena":4802,"ĠREMARK":4803,"Ġslightest":4804,"Ġtribunal":4805,"aenomenon":4806,"Ġwelfare":4807,"\";":4808,"78":4809,"?\"":4810,"AB":4811,"AN":4812,"CI":4813,"OM":4814,"PH":4815,"Qu":4816,"SI":4817,"TRANSCENDENTAL":4818,"UC":4819,"au":4820,"affect":4821,"cop":4822,"coun":4823,"cases":4824,"flu":4825,"homogeneous":4826,"iality":4827,"mo":4828,"ned":4829,"noumen":4830,"oad":4831,"oice":4832,"pore":4833,"small":4834,"viz":4835,"vari":4836,"way":4837,"word":4838,"Ġ-":4839,"inally":4840,"eng":4841,"Ġwa":4842,"Ġwid":4843,"Ġwater":4844,"Ġcred":4845,"alf":4846,"Ġinc":4847,"Ġinhere":4848,"Ġinstit":4849,"Ġinner":4850,"Ġinstruct":4851,"Ġbase":4852,"Ġthy":4853,"Ġthreat":4854,"Ġmut":4855,"Ġmund":4856,"cell":4857,"Ġfl":4858,"Ġfile":4859,"Ġfoot":4860,"Ġnull":4861,"Ġerect":4862,"search":4863,"Ġrepe":4864,"Ġconject":4865,"Ġday":4866,"still":4867,"entia":4868,"arante":4869,"asis":4870,"Ġhundred":4871,"Ġpride":4872,"Ġuseless":4873,"Ġupright":4874,"imental":4875,"Ġanthrop":4876,"Ġexpose":4877,"Ġsuscept":4878,"term":4879,"Ġgift":4880,"ciation":4881,"ainted":4882,"Ġpropens":4883,"ĠTot":4884,"conduct":4885,"construct":4886,"Ġintensive":4887,"ilities":4888,"Ġunb":4889,"Ġunnecessary":4890,"Ġuniform":4891,"abled":4892,"Ġprincip":4893,"esteem":4894,"Ġration":4895,"Ġrange":4896,"Ġexistences":4897,"Ġviol":4898,"Ġhear":4899,"Ġimprov":4900,"supreme":4901,"individual":4902,"anticip":4903,"ĠFOR":4904,"Ġquar":4905,"nowledge":4906,"ĠAl":4907,"ĠApp":4908,"acks":4909,"Ġyear":4910,"etween":4911,"Ġsynthetic":4912,"Ġarche":4913,"ĠSelf":4914,"Ġsubmit":4915,"ĠON":4916,"material":4917,"agree":4918,"Ġplurality":4919,"ortunity":4920,"Ġendowed":4921,"ostat":4922,"proved":4923,"procedure":4924,"Ġremote":4925,"Ġsystems":4926,"Ġexamined":4927,"understand":4928,"Ġyouth":4929,"Ġenabled":4930,"Ġattack":4931,"lective":4932,"Ġentered":4933,"cognized":4934,"Ġoriginally":4935,"Ġshowing":4936,"Ġquantum":4937,"ĠMe":4938,"Ġconsidering":4939,"Ġdivisible":4940,"Ġmatters":4941,"Ġadvisable":4942,"Ġconceal":4943,"Ġremaining":4944,"Ġdecom":4945,"Ġdecision":4946,"luences":4947,"Ġpresupposing":4948,"Ġsupply":4949,"ertitude":4950,"Ġconfusion":4951,"Ġaffinity":4952,"Ġconforms":4953,"Ġsetting":4954,"Ġplease":4955,"Ġimperfect":4956,"Ġregressive":4957,"Ġarranged":4958,"Ġchangeable":4959,"Ġelaps":4960,"Ġpersonality":4961,"Ġseemed":4962,"irtue":4963,"Ġindicating":4964,"doctrine":4965,"Ġconducted":4966,"Ġessence":4967,"Ġfallacy":4968,"Ġsuperior":4969,"grad":4970,"Ġchanged":4971,"ĠAnt":4972,"happens":4973,"Ġsingular":4974,"Ġvolunteers":4975,"Ġtreatise":4976,"Ġbrings":4977,"Ġdistributed":4978,"limitation":4979,"Ġintuitive":4980,"pecial":4981,"Ġcontinued":4982,"ĠUnity":4983,"apperception":4984,"Ġexhibited":4985,"ĠExposition":4986,"intelligence":4987,"ordinated":4988,"Ġdesignate":4989,"Ġobservations":4990,"Ġbecoming":4991,"questions":4992,"synthetically":4993,"Ġsurface":4994,"demand":4995,"Ġsorts":4996,"Ġ50":4997,"Ġpostulates":4998,"ĠKnowledge":4999,"Ġroad":5000,"Ġoffice":5001,"Ġacquainted":5002,"cogitated":5003,"Ġgeometrical":5004,"ĠÃĨ":5005,"Ġcollection":5006,"Ġmechanical":5007,"pathological":5008,"Ġpeace":5009,"successive":5010,"demonstration":5011,"www":5012,"Ġdirections":5013,"Ġprudent":5014,"Ġaccidents":5015,"Ġproducts":5016,"Ġanalogous":5017,"ĠProof":5018,"ĠProble":5019,"Ġcontempor":5020,"Ġassigned":5021,"Ġhumili":5022,"Ġobstin":5023,"Ġpunishment":5024,"ĠPhilos":5025,"ĠPhys":5026,"vereign":5027,"Ġcapacity":5028,"Ġancient":5029,"Ġancients":5030,"consequences":5031,"Ġdevelopment":5032,"Ġsublime":5033,"Ġusual":5034,"supersensible":5035,"feeling":5036,"Ġmultitude":5037,"arguments":5038,"Ġprospect":5039,"ĠDivision":5040,"Ġtwofold":5041,"imagination":5042,"Ġheaven":5043,"ĠEpicurus":5044,"obligation":5045,"IRST":5046,"ĠĠĠĠĠĠĠĠĠĠĠĠĠ":5047,"Ġappeal":5048,"Ġgradually":5049,"problematical":5050,"Ġsacr":5051,"Ġcompliance":5052,"Ġvanity":5053,"ĠIntuition":5054,"ĠDiscipline":5055,"entirely":5056,"Ġhypostat":5057,"sufficiency":5058,"Ġadmiration":5059,"body":5060,"Ġisolated":5061,"econdly":5062,"Ġdollars":5063,"Ġsettled":5064,"poreal":5065,"Ġarchety":5066,"Ġelapsed":5067,",[":5068,"68":5069,";_":5070,"AG":5071,"Be":5072,"Book":5073,"Being":5074,"CL":5075,"Our":5076,"TY":5077,"UL":5078,"ael":5079,"barr":5080,"based":5081,"basis":5082,"cid":5083,"cour":5084,"eavoured":5085,"fig":5086,"gives":5087,"junction":5088,"limin":5089,"ores":5090,"opp":5091,"oast":5092,"po":5093,"pet":5094,"virtue":5095,"wish":5096,"Ġtech":5097,"Ġaf":5098,"Ġage":5099,"inal":5100,"ativ":5101,"Ġsite":5102,"alid":5103,"icated":5104,"Ġinconsistent":5105,"Ġbott":5106,"espect":5107,"ories":5108,"Ġmid":5109,"Ġmov":5110,"Ġfix":5111,"Ġflatter":5112,"Ġfiction":5113,"sem":5114,"Ġreconci":5115,"Ġdue":5116,"Ġdatur":5117,"Ġbea":5118,"omp":5119,"omogeneity":5120,"omorph":5121,"otle":5122,"armon":5123,"ichael":5124,"Ġhouse":5125,"Ġprint":5126,"Ġur":5127,"osen":5128,"Ġonline":5129,"owers":5130,"Ġsupposing":5131,"ters":5132,"ury":5133,"verse":5134,"istence":5135,"istinction":5136,"perhaps":5137,"ulg":5138,"Ġdeal":5139,"plex":5140,"Ġunchangeable":5141,"abor":5142,"âĢĶâĢľ":5143,"ĠĠĠĠĠĠĠĠĠĠĠ":5144,"ĠĠĠĠĠĠĠĠĠĠĠĠĠĠĠ":5145,"Ġ(Â§":5146,"Ġtherewith":5147,"try":5148,"Ġrad":5149,"Ġrash":5150,"Ġroyal":5151,"Ġsovereign":5152,"Ġwilling":5153,"Ġvis":5154,"ĠBe":5155,"Ġnoble":5156,"prof":5157,"add":5158,"admit":5159,"adistinction":5160,"Ġshar":5161,"Ġshare":5162,"ements":5163,"Ġadmission":5164,"ĠPossib":5165,"sophist":5166,"Ġworlds":5167,"etch":5168,"fered":5169,"Ġchar":5170,"Ġchosen":5171,"ĠĠĠĠĠĠĠĠĠĠĠĠĠĠĠĠĠĠĠĠĠĠĠĠĠĠĠĠĠĠĠĠ":5172,"speculation":5173,"solu":5174,"Ġmach":5175,"Ġfarther":5176,"Ġcompleted":5177,"Ġbelow":5178,"Ġcontact":5179,"ĠGree":5180,"ĠWARRAN":5181,"Ġgrow":5182,"Ġgrand":5183,"Ġcontrast":5184,"Ġdesp":5185,"formal":5186,"arest":5187,"Ġposited":5188,"ĠHart":5189,"Ġfees":5190,"Ġagent":5191,"Ġgrounded":5192,"Ġenumer":5193,"ĠEX":5194,"Ġmaximum":5195,"Ġpossessing":5196,"Ġproductive":5197,"syllogism":5198,"Ġamount":5199,"aving":5200,"Ġsimplicity":5201,"Ġattended":5202,"lected":5203,"anges":5204,"Ġimply":5205,"determinate":5206,"Ġselfish":5207,"Ġfeels":5208,"thereby":5209,"Ġmodel":5210,"Ġinfall":5211,"Ġcogitable":5212,"Ġexplanations":5213,"ĠMan":5214,"Ġwherein":5215,"Ġproceeded":5216,"Ġcomput":5217,"Ġcompens":5218,"Ġseeing":5219,"Ġfreely":5220,"evol":5221,"regulative":5222,"Ġ12":5223,"Ġsupplied":5224,"Ġphysico":5225,"Ġdirects":5226,"account":5227,"Ġclos":5228,"works":5229,"Ġsettle":5230,"Ġarrange":5231,"Ġarriving":5232,"Ġoccurs":5233,"perceptions":5234,"Ġanswers":5235,"Ġimaginary":5236,"ches":5237,"Ġparticularly":5238,"OND":5239,"Ġguarante":5240,"Ġindicated":5241,"Ġmethods":5242,"contradictions":5243,"Ġbelieves":5244,"Ġoverlook":5245,"Ġequip":5246,"Ġtheoretically":5247,"Ġposted":5248,"Ġboundaries":5249,"Ġexplaining":5250,"Ġapplying":5251,"Ġmisunderstanding":5252,"Ġlooking":5253,"Ġlooked":5254,"Ġmaintains":5255,"Ġadditions":5256,"Ġfalsely":5257,"new":5258,"philosophical":5259,"000":5260,"Ġdispositions":5261,"Ġobtaining":5262,"brought":5263,"apodeict":5264,"desire":5265,"Ġtransition":5266,"Ġrecognizes":5267,"Ġexclude":5268,"Ġ30":5269,"remains":5270,"Ġpursuit":5271,"Ġpursues":5272,"Ġrestricted":5273,"applicable":5274,"Ġadvancement":5275,"produce":5276,"produced":5277,"Ġpostulated":5278,"ING":5279,"universality":5280,"Ġpositively":5281,"perfection":5282,"Ġwitness":5283,"Ġfault":5284,"Ġaccepted":5285,"possesses":5286,"confidence":5287,"Ġcircumstance":5288,"Ġdogmatism":5289,"Ġhappened":5290,"Ġkeeping":5291,"ITED":5292,"pathy":5293,"Ġlabours":5294,"Ġconflicting":5295,"enetrability":5296,"Ġtalents":5297,"Ġfanaticism":5298,"Ġreciprocally":5299,"effects":5300,"points":5301,"Ġirre":5302,"Ġascending":5303,"While":5304,"motive":5305,"ĠSystem":5306,"Ġobscure":5307,"Ġaffords":5308,"Ġelevated":5309,"Ġdangerous":5310,"Ġmarked":5311,"Ġethical":5312,"Ġsublimity":5313,"independently":5314,"Ġincrease":5315,"Ġusually":5316,"Ġexecution":5317,"Ġpersuasion":5318,"ĠChrist":5319,"ĠEmpirical":5320,"Consequently":5321,"ustomed":5322,"Ġaccurately":5323,"difficulties":5324,"OGY":5325,"Ġfrequent":5326,"Ġstrugg":5327,"Ġconvinced":5328,"Ġfallacious":5329,"Ġscholastic":5330,"ILITY":5331,"IMITED":5332,"Ġevidently":5333,"Ġcommencement":5334,"Ġimpressions":5335,"Ġomnipot":5336,"AMAG":5337,"Ġspectator":5338,"Ġpremisses":5339,"ĠNew":5340,"Ġundoubtedly":5341,"antecedent":5342,"Ġbreak":5343,"Ġhidden":5344,"Ġreproach":5345,"Ġshape":5346,"closed":5347,"Ġindeterminate":5348,"Ġerroneous":5349,"fluous":5350,"ĠTotality":5351,"Ġquarter":5352,"Ġcontemporaneously":5353,"barrass":5354,"Ġtechn":5355,"Ġbottom":5356,"AC":5357,"LI":5358,"No":5359,"OD":5360,"OL":5361,"ORE":5362,"SIS":5363,"Understanding":5364,"Whether":5365,"],":5366,"aper":5367,"ault":5368,"apon":5369,"bound":5370,"circ":5371,"critique":5372,"don":5373,"furn":5374,"hood":5375,"hope":5376,"ihil":5377,"ken":5378,"mist":5379,"mong":5380,"mechan":5381,"pperception":5382,"public":5383,"pgl":5384,"powers":5385,"rog":5386,"rust":5387,"rance":5388,"rather":5389,"sus":5390,"uct":5391,"uly":5392,"want":5393,"yright":5394,"Ġ8":5395,"Ġz":5396,"onically":5397,"inom":5398,"insepar":5399,"rept":5400,"rent":5401,"itation":5402,"itative":5403,"itles":5404,"Ġofficial":5405,"isen":5406,"atory":5407,"Ġwww":5408,"erci":5409,"Ġcour":5410,"Ġpo":5411,"Ġpress":5412,"Ġpaper":5413,"icial":5414,"icability":5415,"Ġincomplete":5416,"Ġincomp":5417,"Ġbook":5418,"Ġboast":5419,"Ġtouch":5420,"Ġmarks":5421,"Ġmixed":5422,"anim":5423,"ancing":5424,"Ġnext":5425,"Ġnamed":5426,"Ġeternal":5427,"Ġego":5428,"seen":5429,"Ġretain":5430,"lex":5431,"Ġconnexion":5432,"Ġdate":5433,"ston":5434,"stead":5435,"oted":5436,"Ġascertain":5437,"impress":5438,"Ġannex":5439,"Ġexempt":5440,"Ġexceptions":5441,"Ġexcell":5442,"Ġlic":5443,"Ġlur":5444,"Ġliving":5445,"Ġlater":5446,"Ġnotice":5447,"ĠĠĠĠĠĠ":5448,"Ġsun":5449,"Ġsuit":5450,"irth":5451,"thics":5452,"throw":5453,"ogicians":5454,"resist":5455,"aining":5456,"ulation":5457,"ulates":5458,"empl":5459,"emonstr":5460,"embr":5461,"Ġdetr":5462,"acting":5463,"Ġaltern":5464,"usively":5465,"ament":5466,"Ġunf":5467,"about":5468,"olf":5469,"Ġours":5470,"Ġspo":5471,"notions":5472,"Ġrun":5473,"Ġsoph":5474,"ideal":5475,"Ġtried":5476,"Ġvac":5477,"Ġvice":5478,"get":5479,"Ġformation":5480,"pract":5481,"aded":5482,"suppose":5483,"Ġcognizing":5484,"Ġsees":5485,"exper":5486,"Ġqua":5487,"Ġmankind":5488,"cap":5489,"Ġsubjecting":5490,"ĠPRIN":5491,"unt":5492,"unavoidable":5493,"Ġeverywhere":5494,"ĠĠĠĠĠĠĠĠĠĠĠĠĠĠĠĠĠ":5495,"ĠST":5496,"ĠSome":5497,"ieve":5498,"Ġphaenomenon":5499,"ĠNor":5500,"enses":5501,"Ġsubstit":5502,"intu":5503,"aggreg":5504,"ĠInformation":5505,"Ġpresently":5506,"Ġcontempt":5507,"Ġlimiting":5508,"Ġrequiring":5509,"Ġassent":5510,"Ġassure":5511,"forms":5512,"formed":5513,"formula":5514,"Ġowner":5515,"Ġphilosoph":5516,"within":5517,"others":5518,"Ġindefinitum":5519,"âĢĿâĢĶ":5520,"Ġextinction":5521,"Ġformerly":5522,"Ġgroundless":5523,"Ġenounces":5524,"Ġeffected":5525,"Ġpresumption":5526,"ĠEither":5527,"Ġrealization":5528,"Ġjustly":5529,"avid":5530,"many":5531,"physico":5532,"educ":5533,"assum":5534,"Ġentertain":5535,"Ġentitle":5536,"Ġoriginating":5537,"ĠWeb":5538,"Ġinvalid":5539,"fulness":5540,"Ġinfluences":5541,"Ġcogitates":5542,"ĠMoreover":5543,"yss":5544,"ableness":5545,"phenomenal":5546,"rase":5547,"Ġdivide":5548,"Ġdivisibility":5549,"Ġindis":5550,"Ġcompetent":5551,"apply":5552,"Ġ19":5553,"Ġpredicated":5554,"accident":5555,"Ġconformed":5556,"Ġconformably":5557,"Ġregressus":5558,"Ġarrived":5559,"disposition":5560,"Ġinfinitely":5561,"Ġelabor":5562,"TITH":5563,"Ġneeds":5564,"Ġmodern":5565,"Ġresulting":5566,"Ġindication":5567,"HAT":5568,"Ġreaders":5569,"become":5570,"Ġantinom":5571,"Ġspecific":5572,"arrow":5573,"Ġholder":5574,"Ġsolic":5575,"Ġsolid":5576,"Ġsolve":5577,"ALEC":5578,"Ġcoinc":5579,"Ġinstinct":5580,"Ġharm":5581,"Ġprovince":5582,"Ġpassing":5583,"Ġelsewhere":5584,"Ġdenom":5585,"Ġgenerated":5586,"upil":5587,"Ġmaintaining":5588,"ĠTHESIS":5589,"Ġpaths":5590,"extent":5591,"Ġadds":5592,"Ġconjoin":5593,"category":5594,"Ġtreating":5595,"Ġtreatment":5596,"Ġjudged":5597,"Ġjudging":5598,"Ġoperating":5599,"Ġintrinsic":5600,"Ġconven":5601,"Ġcorrectly":5602,"Ġpretended":5603,"Ġamongst":5604,"Ġintuite":5605,"Ġcontinuity":5606,"Ġmomentum":5607,"Ġcomparative":5608,"Ġsupported":5609,"required":5610,"justice":5611,"Ġexcludes":5612,"Ġexclusively":5613,"Ġcombat":5614,"Ġspontaneously":5615,"olem":5616,"inclinations":5617,"Ġkey":5618,"Ġapodeictically":5619,"appears":5620,"appearance":5621,"Ġelementary":5622,"consistency":5623,"Ġearly":5624,"employed":5625,"Ġavoided":5626,"Ġinevitable":5627,"ESIS":5628,"Ġseparated":5629,"Ġacquired":5630,"Ġopportunity":5631,"ĠStill":5632,"Ġdogmatist":5633,"presupposed":5634,"satisfactory":5635,"Ġtaught":5636,"analysis":5637,"Ġexperiences":5638,"Ġimplied":5639,"ĠANAL":5640,"Ġdefend":5641,"criticism":5642,"greater":5643,"Ġ90":5644,"Ġassociation":5645,"Ġfourth":5646,"attainable":5647,"Ġwriting":5648,"Ġreceives":5649,"Ġconfined":5650,"Ġformulae":5651,"Ġenlargement":5652,"Ġdiscussions":5653,"motion":5654,"posteriori":5655,"rests":5656,"Ġimpulse":5657,"maxims":5658,"TICAL":5659,"continu":5660,"psychological":5661,"Ġreckoned":5662,"Ġsubsumption":5663,"Ġauthorize":5664,"Ġauthorized":5665,"Ġspiritual":5666,"indicate":5667,"Ġaccompany":5668,"elements":5669,"ikes":5670,"Ġcalcul":5671,"Ġmoon":5672,"Ġmoving":5673,"Ġmulti":5674,"argument":5675,"ĠDivine":5676,"signification":5677,"Ġcosts":5678,"Ġconstantly":5679,"Ġprimary":5680,"Ġaccurate":5681,"ĠMorality":5682,"Ġderivative":5683,"Ġmediately":5684,"concerned":5685,"dogmat":5686,"ĠNothing":5687,"deduced":5688,"ologia":5689,"Ġprepare":5690,"ĠSECTION":5691,"preceding":5692,"Ġsubstantial":5693,"ĠDIALEC":5694,"Ġconfirmation":5695,"Ġmoderate":5696,"philosophers":5697,"Ġinjurious":5698,"veyed":5699,"beginning":5700,"Ġtype":5701,"Ġlocated":5702,"ĠMathemat":5703,"source":5704,"Ġreplacement":5705,"Ġlinks":5706,"solely":5707,"ĠCategories":5708,"assertions":5709,"Ġwonderful":5710,"ength":5711,"Ġflow":5712,"Ġrationis":5713,"Ġdecomposition":5714,"ĠÃĨsthetic":5715,"ĠPhilosophy":5716,"Ġheavenly":5717,"Ġsacrifice":5718,"liminary":5719,"soluble":5720,"ĠGreek":5721,"Ġequipment":5722,"ĠChristian":5723,"apons":5724,"pglaf":5725,"Ġsophism":5726,"TITHESIS":5727,"!\"":5728,"41":5729,"DUC":5730,"EAS":5731,"Leibnitz":5732,"Metaphys":5733,"Per":5734,"Pure":5735,"Please":5736,"PART":5737,"Sp":5738,"St":5739,"Such":5740,"SEC":5741,"Secondly":5742,"TRO":5743,"UND":5744,"ade":5745,"aseless":5746,"came":5747,"cult":5748,"further":5749,"harmon":5750,"ii":5751,"iability":5752,"logic":5753,"life":5754,"makes":5755,"pute":5756,"ry":5757,"rules":5758,"sed":5759,"soul":5760,"schema":5761,"treat":5762,"uality":5763,"ym":5764,"Ã¦":5765,"Ġve":5766,"Ġ***":5767,"Ġten":5768,"Ġtitles":5769,"hes":5770,"heres":5771,"ony":5772,"infin":5773,"Ġomit":5774,"Ġoppose":5775,"rection":5776,"reement":5777,"receive":5778,"itates":5779,"Ġoffer":5780,"enevol":5781,"Ġsil":5782,"Ġsalt":5783,"Ġportion":5784,"Ġpupil":5785,"Ġinex":5786,"Ġinability":5787,"Ġinternally":5788,"Ġinadmissible":5789,"Ġinsoluble":5790,"Ġband":5791,"Ġbind":5792,"Ġbirth":5793,"especially":5794,"Ġtopic":5795,"Ġfat":5796,"Ġfixed":5797,"aning":5798,"ancy":5799,"annihil":5800,"Ġnarrow":5801,"Ġelectr":5802,"Ġreaction":5803,"let":5804,"Ġbetr":5805,"Ġbears":5806,"Ġbecame":5807,"stone":5808,"utic":5809,"utility":5810,"utterly":5811,"Ġhttp":5812,"Ġhalf":5813,"Ġhomogeneity":5814,"Ġprime":5815,"theoretic":5816,"impossibility":5817,"oses":5818,"Ġexternally":5819,"Ġexposing":5820,"Ġlot":5821,"Ġlab":5822,"Ġlicense":5823,"Ġlength":5824,"essential":5825,"Ġweal":5826,"termed":5827,"urean":5828,"Ġgave":5829,"three":5830,"ura":5831,"cil":5832,"ĠIs":5833,"qual":5834,"istotle":5835,"ifferent":5836,"permanent":5837,"Ġproposes":5838,"emper":5839,"ĠTake":5840,"Ġdece":5841,"ender":5842,"uses":5843,"Ġunfortun":5844,"dev":5845,"defect":5846,"definite":5847,"igination":5848,"tains":5849,"taining":5850,"Ġtherefrom":5851,"Ġspurious":5852,"troy":5853,"trademark":5854,"ecessity":5855,"hering":5856,"Ġtrust":5857,"Ġtrack":5858,"Ġtrying":5859,"Ġvoice":5860,"Ġhes":5861,"Ġheight":5862,"Ġimpose":5863,"Ġperplex":5864,"Ġabide":5865,"adly":5866,"admitted":5867,"adox":5868,"sual":5869,"ĠFIRST":5870,"exposition":5871,"excl":5872,"Ġstead":5873,"Ġstatus":5874,"whose":5875,"ĠAb":5876,"Ġaccustomed":5877,"ultaneous":5878,"ĠPart":5879,"Ġdispens":5880,"Ġdissimilar":5881,"universe":5882,"Ġknowing":5883,"Ġpreliminary":5884,"Ġparticip":5885,"Ġchild":5886,"class":5887,"Ġrepresenting":5888,"Ġarisen":5889,"Ġmyst":5890,"finally":5891,"previous":5892,"Ġserved":5893,"Ġdiffer":5894,"Ġgoing":5895,"mell":5896,"meaning":5897,"Ġlimitative":5898,"Ġassist":5899,"Ġassistance":5900,"Ġconnecting":5901,"Ġdistance":5902,"composition":5903,"prove":5904,"Ġrationalis":5905,"inev":5906,"ĠHuman":5907,"Ġfell":5908,"lessness":5909,"Ġenclosed":5910,"Ġprescribed":5911,"haust":5912,"Ġthinker":5913,"Ġthinkers":5914,"alytical":5915,"Ġrealized":5916,"ounced":5917,"Ġgreatly":5918,"ĠDIS":5919,"ĠDAMAG":5920,"ĠDavid":5921,"Ġimped":5922,"Ġviews":5923,"Ġconstituting":5924,"Ġinvisible":5925,"thereof":5926,"Ġshowed":5927,"Ġintelligent":5928,"Ġintelligences":5929,"ĠMOR":5930,"ĠMichael":5931,"Ġcharacteristics":5932,"Ġconsiderable":5933,"Ġstrange":5934,"Ġdeducing":5935,"Ġcompass":5936,"Ġadvancing":5937,"evil":5938,"Ġreside":5939,"Ġattains":5940,"Ġphysiology":5941,"Ġcontentment":5942,"Ġdirecting":5943,"accomp":5944,"ĠConcl":5945,"Ġconformable":5946,"Ġestablishes":5947,"Ġlegal":5948,"Ġdistinguishes":5949,"Ġmodific":5950,"Ġnumbers":5951,"Ġreadable":5952,"Ġdemonstrations":5953,"Ġsolved":5954,"Ġproviding":5955,"Ġpassed":5956,"Ġ25":5957,"Ġrendering":5958,"Ġchanging":5959,"Ġlegislating":5960,"Ġawaken":5961,"ocr":5962,"simply":5963,"Ġagrees":5964,"bles":5965,"Ġinferring":5966,"Ġintuiting":5967,"examples":5968,"Ġstrictest":5969,"Ġmediating":5970,"Ġcomparing":5971,"deser":5972,"destroy":5973,"ĠExistence":5974,"ifying":5975,"belief":5976,"pursu":5977,"Ġframe":5978,"Ġframed":5979,"Ġobservance":5980,"Ġantecedently":5981,"Ġabstracted":5982,"remark":5983,"ĠAristotle":5984,"Ġpursued":5985,"Ġeye":5986,"Ġrestriction":5987,"Ġrestrictions":5988,"Ġdeliber":5989,"property":5990,"Ġintroduction":5991,"Ġintroducing":5992,"commun":5993,"Ġdeclare":5994,"ĠVI":5995,"production":5996,"Ġfurnished":5997,"considerations":5998,"invol":5999,"metaphysical":6000,"Ġoffers":6001,"Ġfair":6002,"Ġsufficiency":6003,"Ġfavourable":6004,"Ġsteps":6005,"Ġfigures":6006,"Ġdeserving":6007,"presupposition":6008,"interests":6009,"freely":6010,"belongs":6011,"Ġcountry":6012,"original":6013,"ICT":6014,"likewise":6015,"Ġtranscends":6016,"Ġadmixture":6017,"However":6018,"Ġfancy":6019,"Ġprobability":6020,"explain":6021,"Ġclasses":6022,"corresponds":6023,"Ġcomprehends":6024,"comprehend":6025,"powerful":6026,"Ġsketch":6027,"observed":6028,"Ġparagraphs":6029,"Ġopponents":6030,"Ġirresist":6031,"Ġwritten":6032,"Ġindubit":6033,"Ġascend":6034,"Ġenlarge":6035,"Whatever":6036,"Ġinseparable":6037,"Ġbenefit":6038,"Ġcontribute":6039,"Ġcontributes":6040,"ĠDeity":6041,"Ġ2002":6042,"distinguishable":6043,"Ġpaying":6044,"Ġnecessitated":6045,"Ġqualities":6046,"Ġqualitative":6047,"Ġsubsumed":6048,"Ġdeveloped":6049,"expression":6050,"iking":6051,"Ġrenounce":6052,"Ġexecuted":6053,"Ġdisplaying":6054,"ĠDoctrine":6055,"PLES":6056,"dogmatical":6057,"pretensions":6058,"Ġfrequently":6059,"Ġtransgression":6060,"shown":6061,"instead":6062,"Ġobey":6063,"convin":6064,"established":6065,"Ġadduced":6066,"ĠSECOND":6067,"Ġpatient":6068,"Ġforbids":6069,"Ġsuffer":6070,"Ġattraction":6071,"Ġsympathy":6072,"Ġclosely":6073,"ATIONS":6074,"leads":6075,"Ġridic":6076,"Ġapproximate":6077,"Ġobstacle":6078,"Ġcultivation":6079,"Ġdreams":6080,"Ġarchitectonic":6081,"ĠStoics":6082,"ription":6083,"secure":6084,"Ġpropriety":6085,"Ġalleged":6086,"Ġembrace":6087,"Ġdestruction":6088,"Ġbuilding":6089,"CIPLES":6090,"Ġconjecture":6091,"Ġgifts":6092,"Ġpropensity":6093,"Ġimprovement":6094,"Ġyears":6095,"Ġhumiliation":6096,"figure":6097,"oresaid":6098,"ativum":6099,"Ġmovements":6100,"Ġradical":6101,"Ġcloser":6102,"apodeictic":6103,"Ġtechnical":6104,"DUCTION":6105,"TRODUCTION":6106,"Ġelectronically":6107,"Ġbetray":6108,"ĠDAMAGES":6109,"ĠMORAL":6110,"Ġmodifications":6111,"..":6112,"15":6113,"16":6114,"Ar":6115,"CTICAL":6116,"De":6117,"ETH":6118,"Gr":6119,"GRE":6120,"He":6121,"METH":6122,"Not":6123,"So":6124,"Since":6125,"Tr":6126,"UD":6127,"You":6128,"ax":6129,"access":6130,"autonomy":6131,"bal":6132,"bol":6133,"bits":6134,"bonum":6135,"cosm":6136,"cision":6137,"course":6138,"did":6139,"day":6140,"done":6141,"dated":6142,"dialectic":6143,"eed":6144,"effort":6145,"gulative":6146,"hon":6147,"hab":6148,"http":6149,"ipp":6150,"ians":6151,"liberty":6152,"moment":6153,"merit":6154,"mixed":6155,"na":6156,"peculiar":6157,"spon":6158,"sight":6159,"said":6160,"ton":6161,"text":6162,"uary":6163,"uge":6164,"volution":6165,"yllogism":6166,"ĉĉ":6167,"Ġid":6168,"ĠQu":6169,"Ġtext":6170,"heter":6171,"Ġaston":6172,"onations":6173,"incre":6174,"infinitum":6175,"introdu":6176,"Ġtheories":6177,"refer":6178,"reckon":6179,"itful":6180,"ening":6181,"encies":6182,"ati":6183,"Ġwished":6184,"ero":6185,"erity":6186,"Ġcat":6187,"Ġsize":6188,"Ġpolem":6189,"ale":6190,"aled":6191,"alle":6192,"already":6193,"ices":6194,"icate":6195,"Ġinn":6196,"Ġincor":6197,"Ġinsist":6198,"Ġincomprehensible":6199,"Ġinconsistency":6200,"ndeed":6201,"Ġbon":6202,"Ġburd":6203,"Ġthou":6204,"organ":6205,"Ġmine":6206,"ctory":6207,"Ġfate":6208,"Ġfil":6209,"anci":6210,"Ġnihil":6211,"Ġease":6212,"Ġelective":6213,"sect":6214,"seem":6215,"section":6216,"Ġrestr":6217,"Ġreview":6218,"Ġdark":6219,"Ġbegan":6220,"oments":6221,"arise":6222,"Ġprag":6223,"ivil":6224,"oss":6225,"Ġanim":6226,"Ġexag":6227,"Ġlate":6228,"Ġlest":6229,"jected":6230,"Ġweb":6231,"Ġsust":6232,"Ġsupposes":6233,"thorough":6234,"uries":6235,"cient":6236,"ciated":6237,"ĠIll":6238,"ogant":6239,"istrib":6240,"ifference":6241,"perceive":6242,"uler":6243,"empiricism":6244,"ĠThen":6245,"Ġarena":6246,"conceive":6247,"conjunction":6248,"chain":6249,"Ġdeceived":6250,"endeavour":6251,"active":6252,"actual":6253,"ush":6254,"using":6255,"illion":6256,"away":6257,"ames":6258,"Ġunit":6259,"Ġunexpected":6260,"umb":6261,"deutic":6262,"Ġcast":6263,"Ġcompr":6264,"Ġcomposed":6265,"transc":6266,"oft":6267,"Ġru":6268,"Ġround":6269,"Ġrace":6270,"Ġratio":6271,"Ġruler":6272,"Ġemail":6273,"Ġembarrass":6274,"Ġsoever":6275,"Ġdeterminative":6276,"Ġdoing":6277,"Ġtrace":6278,"Ġvit":6279,"Ġvict":6280,"Ġvag":6281,"Ġconditional":6282,"Ġconditionally":6283,"arying":6284,"geometr":6285,"Ġhealth":6286,"Ġperce":6287,"Ġabyss":6288,"adm":6289,"Ġsynon":6290,"posit":6291,"indispensable":6292,"Ġuser":6293,"antly":6294,"ĠFundamental":6295,"Ġseven":6296,"Ġsevere":6297,"exc":6298,"exception":6299,"exhib":6300,"Ġste":6301,"presentation":6302,"whatever":6303,"ĠAfter":6304,"ĠASC":6305,"ĠApperception":6306,"ĠAGRE":6307,"forth":6308,"poned":6309,"ponent":6310,"ĠPRA":6311,"Ġdisgu":6312,"unable":6313,"unknown":6314,"unciation":6315,"Ġyield":6316,"ets":6317,"etary":6318,"herence":6319,"Ġchief":6320,"Ġleaving":6321,"spe":6322,"Ġaround":6323,"Ġarose":6324,"iece":6325,"Ġphrase":6326,"ressed":6327,"elt":6328,"Ġsubter":6329,"Ġmast":6330,"oping":6331,"opinion":6332,"prev":6333,"Ġnear":6334,"agreement":6335,"ĠIntrodu":6336,"Ġplacing":6337,"ortions":6338,"ĠGr":6339,"ĠGer":6340,"ĠGood":6341,"ĠWill":6342,"ĠWhere":6343,"Ġendeavoured":6344,"Ġgrat":6345,"Ġcontrover":6346,"ritical":6347,"ĠCRI":6348,"Ġrequest":6349,"Ġdescribe":6350,"Ġdistant":6351,"Ġdistress":6352,"arium":6353,"composite":6354,"Ġcalls":6355,"Ġcalling":6356,"prob":6357,"icious":6358,"Ġencour":6359,"ĠRational":6360,"Ġprescribe":6361,"ĠEnd":6362,"Ġsensibly":6363,"Ġrealize":6364,"Ġjustifies":6365,"serves":6366,"Ġcritic":6367,"Ġattach":6368,"Ġattacks":6369,"ĠDes":6370,"Ġsensuously":6371,"assign":6372,"Ġentity":6373,"Ġcorporeal":6374,"Ġquanta":6375,"ĠRegulative":6376,"ĠMis":6377,"Ġstrike":6378,"Ġstrives":6379,"Ġanalysing":6380,"Ġrefuse":6381,"Ġrefers":6382,"Ġdiverse":6383,"Ġcomplying":6384,"Ġcompels":6385,"Ġadvances":6386,"Ġcontradicts":6387,"Ġconcluding":6388,"Ġconceiving":6389,"Ġconceivable":6390,"ĠLogical":6391,"ĠLOG":6392,"ĠLIMITED":6393,"Ġremained":6394,"Ġdecides":6395,"lucid":6396,"Ġ178":6397,"Ġresistance":6398,"Ġlogically":6399,"Ġconsistency":6400,"Ġdiscoverable":6401,"accur":6402,"Ġsatisfies":6403,"knows":6404,"Ġworthiness":6405,"practically":6406,"ENCE":6407,"Ġobserving":6408,"TIES":6409,"TIQU":6410,"Ġseemingly":6411,"Ġmodest":6412,"Ġacknowledge":6413,"ĠĠĠĠĠĠĠĠĠĠĠĠĠĠĠĠĠĠĠĠĠĠĠĠĠĠ":6414,"ĠĠĠĠĠĠĠĠĠĠĠĠĠĠĠĠĠĠĠĠĠĠĠĠĠĠĠĠĠĠĠ":6415,"Ġattempting":6416,"Ġneglect":6417,"contempl":6418,"subjectively":6419,"aims":6420,"Ġbelieved":6421,"becom":6422,"Ġspecially":6423,"aneity":6424,"arrant":6425,"Ġequality":6426,"Ġideals":6427,"ĠPrint":6428,"Ġtook":6429,"Ġcontinually":6430,"Ġinstances":6431,"Ġexpectations":6432,"Ġpassive":6433,"Ġessay":6434,"Ġdenies":6435,"Ġaffects":6436,"Ġmission":6437,"Ġallows":6438,"Ġsuperfluous":6439,"Ġcopying":6440,"Ġutter":6441,"extensive":6442,"*****":6443,"ĠAnalytical":6444,"ocation":6445,"ocke":6446,"Ġespecial":6447,"Ġyourself":6448,"giving":6449,"Ġbran":6450,"accordingly":6451,"Ġinquiring":6452,"discus":6453,"Ġthoroughness":6454,"Ġconvince":6455,"Ġpretend":6456,"Ġobtains":6457,"Ġinvolve":6458,"Ġinvolving":6459,"shall":6460,"design":6461,"process":6462,"justified":6463,"Ġrecognise":6464,"purposes":6465,"Ġfri":6466,"Ġabstracto":6467,"remain":6468,"Ġdonate":6469,"Ġsurpr":6470,"Ġoccupation":6471,"Ġdelusive":6472,"Ġconstructing":6473,"attention":6474,"Ġapproach":6475,"Ġmanifestations":6476,"separate":6477,"Ġdecline":6478,"Ġadequately":6479,"Ġorganization":6480,"productive":6481,"Ġletter":6482,"consists":6483,"Ġcreator":6484,"Ġcreating":6485,"Ġcreatures":6486,"Therefore":6487,"constitution":6488,"compelled":6489,"Ġacquire":6490,"Ġacquaint":6491,"grounded":6492,"THE":6493,"insight":6494,"Ġproblematically":6495,"CEP":6496,"moreover":6497,"Ġfigur":6498,"Ġdefinitely":6499,"specif":6500,"Ġedition":6501,"Ġeditions":6502,"ispensably":6503,"Ġcounsel":6504,"realization":6505,"guidance":6506,"Ġfilling":6507,"Ġfilled":6508,"Ġdefence":6509,"Ġdefici":6510,"Ġmeets":6511,"Ġsecurely":6512,"greatest":6513,"Ġtalk":6514,"Ġfancies":6515,"Ġprobable":6516,"Ġfailed":6517,"Ġultimately":6518,"advance":6519,"ators":6520,"ĠImpossibility":6521,"Ġdetected":6522,"Ġdetailed":6523,"Suppose":6524,"attained":6525,"Ġwritings":6526,"Ġinduce":6527,"Ġascent":6528,"Ġsentiment":6529,"Ġsentiments":6530,"Ġbeneficial":6531,"Ġsucceeded":6532,"Produ":6533,"Ġpunct":6534,"Ġmistakes":6535,"Ġmistaken":6536,"Ġperforms":6537,"Ġ2001":6538,"Ġpayments":6539,"Ġstrengthen":6540,"Ġmeritorious":6541,"Ġfitness":6542,"consequence":6543,"Ġestimated":6544,"Ġestimating":6545,"Ġescap":6546,"element":6547,"operation":6548,"impenetrability":6549,"Ġdevoted":6550,"Ġdisplayed":6551,"Ġpromotion":6552,"Ġpromoting":6553,"Ġfulfilled":6554,"reflection":6555,"Ġhistorical":6556,"Ġprimarily":6557,"Ġheavy":6558,"Ġaccords":6559,"fortune":6560,"Ġderivation":6561,"Ġspecified":6562,"difficulty":6563,"Ġweakness":6564,"concepts":6565,"ĠNOT":6566,"Ġsubsists":6567,"Ġesteemed":6568,"Ġconvincing":6569,"EMENT":6570,"Ġobeying":6571,"Ġwidely":6572,"Ġhinder":6573,"Ġhindrance":6574,"establish":6575,"Ġimitated":6576,"supply":6577,"support":6578,"precedes":6579,"Ġanticipate":6580,"Ġfallacies":6581,"Ġcontemplation":6582,"attribute":6583,"Ġfruitful":6584,"Ġaccomplish":6585,"Ġaccomplished":6586,"rupted":6587,"Analytic":6588,"Without":6589,"declar":6590,"icked":6591,"statements":6592,"Ġdeeply":6593,"Ġalteration":6594,"transition":6595,"ĠObjects":6596,"Ġserviceable":6597,"Ġimpartial":6598,"ĠMetaphysic":6599,"Ġobstacles":6600,"Ġgovernment":6601,"authority":6602,"Ġtendency":6603,"Ġfictions":6604,"Ġfictitious":6605,"Ġdimensions":6606,"Ġexertions":6607,"Ġdeprive":6608,"Ġundertaking":6609,"unconditional":6610,"unconditionally":6611,"Ġambiguity":6612,"occupied":6613,"inquiry":6614,"inquiries":6615,"generally":6616,"Ġpraise":6617,"absurd":6618,"answer":6619,"proportion":6620,"Ġaccompanied":6621,"ABILITY":6622,"PHY":6623,"ausible":6624,"Ġwidest":6625,"Ġmundus":6626,"Ġrepeated":6627,"Ġuprightness":6628,"Ġsusceptible":6629,"Ġprincipal":6630,"ĠAlthough":6631,"ĠMethod":6632,"ĠAntinomy":6633,"Before":6634,"Ġaforesaid":6635,"Ġurged":6636,"ĠĠĠĠĠĠĠĠĠĠĠĠĠĠĠĠĠĠĠĠĠĠĠĠĠĠĠĠĠĠĠĠĠĠĠĠĠĠĠĠĠĠĠĠĠĠĠĠĠĠ":6637,"ĠWARRANTY":6638,"Ġcomputer":6639,"ODOL":6640,"mechanism":6641,"rogative":6642,"inseparably":6643,"Ġincompetent":6644,"Ġexcellent":6645,"embracing":6646,"experiences":6647,"ĠPRINCIPLES":6648,"aggregate":6649,"Ġantinomies":6650,"Ġdenomin":6651,"Ġmultiplicity":6652,"ĠDIALECTIC":6653,"Ġsophisms":6654,"Metaphysic":6655,"Ã¦deutic":6656,"infinity":6657,"enevolence":6658,"Ġfatal":6659,"accompan":6660,"Ġirresistible":6661,"METHODOL":6662,"spont":6663,"Ġpolemic":6664,"Ġexagger":6665,"ĠASCII":6666,"ĠPRACTICAL":6667,"ĠCRITIQU":6668,"ĠLOGIC":6669,"METHODOLOGY":6670,"ĠCRITIQUE":6671,"22":6672,"50":6673,"71":6674,"?âĢĶ":6675,"At":6676,"APHY":6677,"Both":6678,"ET":6679,"Em":6680,"FL":6681,"General":6682,"Ide":6683,"ION":6684,"IES":6685,"Nevertheless":6686,"OS":6687,"OSE":6688,"Ph":6689,"PRO":6690,"Respect":6691,"Some":6692,"Small":6693,"SIC":6694,"See":6695,"TRA":6696,"TRI":6697,"Un":6698,"VIS":6699,"_âĢĶ":6700,"acious":6701,"bed":6702,"bar":6703,"bation":6704,"bring":6705,"between":6706,"creat":6707,"certitude":6708,"dle":6709,"dut":6710,"eal":6711,"ees":6712,"ego":6713,"fund":6714,"favour":6715,"field":6716,"founded":6717,"fuge":6718,"had":6719,"joined":6720,"lain":6721,"lable":6722,"last":6723,"little":6724,"lines":6725,"load":6726,"met":6727,"mag":6728,"making":6729,"ng":6730,"nis":6731,"net":6732,"oe":6733,"oose":6734,"oved":6735,"popular":6736,"ram":6737,"ries":6738,"rown":6739,"sur":6740,"sch":6741,"spr":6742,"sort":6743,"slet":6744,"tent":6745,"test":6746,"ux":6747,"uent":6748,"uum":6749,"void":6750,"varying":6751,"ware":6752,"xis":6753,"your":6754,"yield":6755,"Ġeduc":6756,"Ġaut":6757,"Ġastr":6758,"Ġaxis":6759,"ining":6760,"intr":6761,"inently":6762,"insufficient":6763,"Ġtheore":6764,"recogn":6765,"receptivity":6766,"itiz":6767,"itory":6768,"isk":6769,"isive":6770,"enough":6771,"enable":6772,"encing":6773,"enjoy":6774,"atir":6775,"Ġwarn":6776,"Ġwicked":6777,"erms":6778,"Ġcens":6779,"Ġcertitude":6780,"Ġsl":6781,"Ġsw":6782,"Ġsaw":6783,"Ġsave":6784,"Ġpol":6785,"Ġpubl":6786,"Ġparent":6787,"altogether":6788,"Ġinsp":6789,"Ġbenevolence":6790,"Ġtol":6791,"Ġmal":6792,"Ġmar":6793,"Ġmass":6794,"ctible":6795,"Ġfelt":6796,"anc":6797,"anill":6798,"analog":6799,"oud":6800,"Ġissu":6801,"Ġred":6802,"Ġrefin":6803,"Ġreply":6804,"Ġrevel":6805,"Ġreferences":6806,"Ġrelease":6807,"Ġreserve":6808,"Ġredistrib":6809,"Ġrevolution":6810,"Ġdas":6811,"Ġdatum":6812,"entity":6813,"arm":6814,"asions":6815,"Ġaspect":6816,"osing":6817,"Ġanxi":6818,"Ġlow":6819,"Ġlime":6820,"Ġlays":6821,"Ġlogicians":6822,"Ġliability":6823,"ptions":6824,"ows":6825,"Ġweaken":6826,"Ġweapons":6827,"iboly":6828,"ibilis":6829,"ldom":6830,"irable":6831,"Ġwithdraw":6832,"Ġgot":6833,"third":6834,"ĠID":6835,"ĠIF":6836,"ĠIND":6837,"ĠIndeed":6838,"version":6839,"que":6840,"ogram":6841,"resh":6842,"istered":6843,"Ġorigination":6844,"iful":6845,"permitted":6846,"permanence":6847,"ulous":6848,"ulated":6849,"ulsion":6850,"Ġprohib":6851,"Ġprolong":6852,"pping":6853,"changes":6854,"Ġdead":6855,"actually":6856,"actorily":6857,"amp":6858,"amples":6859,"Ġunite":6860,"Ġunits":6861,"Ġunavoid":6862,"Ġunsuccess":6863,"Ġuncertainty":6864,"Ġunpleasant":6865,"Ġunattainable":6866,"del":6867,"det":6868,"dependent":6869,"dependence":6870,"ansition":6871,"minis":6872,"Ġspecul":6873,"triangle":6874,"estim":6875,"Ġric":6876,"Ġrig":6877,"Ġrare":6878,"Ġrati":6879,"Ġundertake":6880,"Ġdeterminability":6881,"Ġtruly":6882,"Ġvision":6883,"Ġvisible":6884,"ĠBE":6885,"ĠBRE":6886,"Ġheat":6887,"Ġperpet":6888,"prud":6889,"priate":6890,"primitive":6891,"ading":6892,"piric":6893,"Ġregular":6894,"Ġregistered":6895,"suasion":6896,"antinomy":6897,"phiboly":6898,"Ġcognitive":6899,"artes":6900,"Ġselect":6901,"Ġseldom":6902,"Ġquoad":6903,"Ġreluct":6904,"Ġstake":6905,"Ġstage":6906,"presents":6907,"Ġconsult":6908,"ĠAgain":6909,"ĠAmong":6910,"acities":6911,"Ġappell":6912,"Ġsubjection":6913,"ĠPsych":6914,"Ġdisapp":6915,"Ġdissatisfaction":6916,"too":6917,"),âĢĿ":6918,"soon":6919,"Ġprepar":6920,"Ġprecise":6921,"Ġprecision":6922,"Ġprerogative":6923,"Ġpartial":6924,"tellig":6925,"teaches":6926,"Ġlevel":6927,"close":6928,"Ġarms":6929,"ĠSe":6930,"ĠScience":6931,"ĠNeither":6932,"Ġsubdiv":6933,"Ġsubdivision":6934,"precept":6935,"precisely":6936,"matic":6937,"agon":6938,"agogic":6939,"duc":6940,"ĠInstead":6941,"Ġpresentation":6942,"ĠWolf":6943,"Ġgroping":6944,"Ġcontrol":6945,"Ġcontradistinction":6946,"ĠCan":6947,"ĠCogn":6948,"iversal":6949,"Ġdesert":6950,"Ġposit":6951,"Ġcommerci":6952,"Ġowns":6953,"fects":6954,"ishments":6955,"roken":6956,"derived":6957,"Ġfeet":6958,"Ġcategorically":6959,"Ġvalu":6960,"Ġyoung":6961,"Ġfinding":6962,"ĠRel":6963,"ĠRoyal":6964,"elling":6965,"Ġprescribing":6966,"objections":6967,"ĠEach":6968,"ĠEND":6969,"Ġexpense":6970,"Ġexpenses":6971,"ilege":6972,"reasons":6973,"keep":6974,"Ġrealities":6975,"Ġrealizing":6976,"Ġjustification":6977,"sym":6978,"aved":6979,"avity":6980,"avag":6981,"Ġsimpl":6982,"Ġsimultaneous":6983,"physics":6984,"ĠDetermin":6985,"ĠDonations":6986,"Ġsecuring":6987,"Ġsecurity":6988,"anging":6989,"Ġthroughout":6990,"Ġoriginates":6991,"Ġviewing":6992,"Ġinvent":6993,"therein":6994,"Ġhereafter":6995,"Ġinfring":6996,"ĠMon":6997,"ĠMET":6998,"Ġapagogic":6999,"Ġstrikes":7000,"Ġanalyse":7001,"Ġcompares":7002,"Ġconceit":7003,"Ġconcede":7004,"evidence":7005,"ĠLaw":7006,"Ġdeciding":7007,"Ġdecisive":7008,"tenance":7009,"Ġ13":7010,"Ġrespon":7011,"undetermined":7012,"Ġsupplies":7013,"ĠUltimate":7014,"ĠUSE":7015,"Ġnowhere":7016,"Ġtotally":7017,"Ġmathematicians":7018,"Ġmathematician":7019,"maj":7020,"mail":7021,"accord":7022,"Ġclue":7023,"Ġsatisfying":7024,"relatively":7025,"Ġsuccessful":7026,"Ġdefines":7027,"Ġpleases":7028,"Ġarrives":7029,"Ġestablishing":7030,"Ġderives":7031,"Ġlegality":7032,"Ġsignify":7033,"Ġconsequent":7034,"TIVE":7035,"Ġseeming":7036,"Ġmodi":7037,"Ġmodification":7038,"Ġcontingently":7039,"error":7040,"Ġfinality":7041,"contest":7042,"misunderstanding":7043,"Ġcorrespondence":7044,"ifices":7045,"party":7046,"Ġdemonstrating":7047,"Ġsouls":7048,"Ġpostponed":7049,"ĠSubject":7050,"Ġconducts":7051,"Ġexplains":7052,"completed":7053,"Ġhopes":7054,"Ġmisconception":7055,"Ġmisunderstood":7056,"Ġprogressus":7057,"Ġgeneration":7058,"ĠĠĠĠĠĠĠĠĠĠĠĠĠĠĠĠĠĠĠĠĠĠĠĠĠĠĠĠĠĠĠĠĠĠĠĠĠĠĠĠĠĠ":7059,"Ġoblige":7060,"Ġremarked":7061,"Ġdepending":7062,"Ġfallen":7063,"granted":7064,"extend":7065,"Ġaffirmations":7066,"ocin":7067,"Ġaddress":7068,"Ġharmonious":7069,"bling":7070,"Ġfalsehood":7071,"giver":7072,"happy":7073,"Ġdemanding":7074,"Ġdemanded":7075,"Ġnegatively":7076,"RECT":7077,"Ġjudges":7078,"discursive":7079,"Ġteaching":7080,"Ġthoroughgoing":7081,"Ġabsent":7082,"Ġpretension":7083,"Ġchooses":7084,"irdly":7085,"Ġceasing":7086,"Ġparadox":7087,"whereas":7088,"Ġleading":7089,"Ġstrictness":7090,"desc":7091,"desires":7092,"Ġtransitory":7093,"Ġdistinguishable":7094,"Ġprofit":7095,"Ġrequisites":7096,"Ġsuppositions":7097,"Ġhelps":7098,"Ġdesignation":7099,"Ġobservable":7100,"Ġ35":7101,"legitimate":7102,"Ġpursuing":7103,"Ġoccupy":7104,"Ġrestricting":7105,"Ġrestrictive":7106,"properties":7107,"Ġintroduces":7108,"Ġintroduced":7109,"III":7110,"Ġexactness":7111,"Ġappropri":7112,"Ġmanifests":7113,"appearances":7114,"Ġchem":7115,"Ġlasting":7116,"Ġlastly":7117,"Ġsooner":7118,"produces":7119,"Ġarbitrarily":7120,"Ġfurnishes":7121,"quantities":7122,"Ġoffender":7123,"constitutes":7124,"Ġdispense":7125,"compared":7126,"rence":7127,"Ġfacil":7128,"Ġaccepting":7129,"THER":7130,"ipse":7131,"Ġ45":7132,"Ġputting":7133,"confirm":7134,"Ġsimilarity":7135,"picion":7136,"presuppose":7137,"satisfied":7138,"interested":7139,"Ġtaut":7140,"Ġdominion":7141,"Ġdownload":7142,"Ġconflicts":7143,"demonstrated":7144,"guard":7145,"Ġfills":7146,"Ġaccession":7147,"ouncement":7148,"Ġarrangements":7149,"Ġlosing":7150,"conceivable":7151,"provided":7152,"discoverable":7153,"Ġprevented":7154,"investigations":7155,"Ġdetach":7156,"observ":7157,"occur":7158,"occasion":7159,"Ġirrational":7160,"Ġhumbles":7161,"claims":7162,"Ġenlarged":7163,"Ġdiscussing":7164,"Ġdiscussed":7165,"Why":7166,"motives":7167,"Ġsentence":7168,"Ġbenefic":7169,"theoretically":7170,"concreto":7171,"Ġcontributions":7172,"proceeds":7173,"proceeding":7174,"Ġdiscerned":7175,"Ġelevation":7176,"Princi":7177,"Practical":7178,"postulates":7179,"Ġperforming":7180,"Ġantithetic":7181,"Ġearths":7182,"Ġgladly":7183,"Ġcapacities":7184,"Ġnecessitation":7185,"Ġremoving":7186,"attempts":7187,"Ġcrime":7188,"Ġcrude":7189,"indicates":7190,"Ġestimation":7191,"Ġprofessed":7192,"Ġomnis":7193,"Ġincreased":7194,"Ġexcite":7195,"feelings":7196,"legislative":7197,"hypothetical":7198,"assertion":7199,"Ġpromotive":7200,"volition":7201,"Ġ60":7202,"ĠEpicurean":7203,"ĠMoral":7204,"Ġspecification":7205,"Ġspecifically":7206,"obliged":7207,"Ġsafely":7208,"IRD":7209,"passing":7210,"ĠNatural":7211,"Ġgradual":7212,"problems":7213,"Ġstruct":7214,"Ġsacred":7215,"Ġprotected":7216,"conviction":7217,"Ġadduce":7218,"Ġprepared":7219,"ĠDIVIS":7220,"Ġdeclaring":7221,"Ġdeclaration":7222,"Ġdeclarations":7223,"Ġconfirms":7224,"Ġmoderation":7225,"requirements":7226,"Ġforbidden":7227,"Ġprejudice":7228,"Ġprejudicial":7229,"Ġobviously":7230,"Ġdescending":7231,"Ġimpression":7232,"Ġfruitless":7233,"Ġcurrent":7234,"Ġunceasingly":7235,"Ġchimera":7236,"ĠObjective":7237,"Ġpenetration":7238,"Ġpenetrate":7239,"anthropomorph":7240,"Ġrecommend":7241,"ĠStoic":7242,"Ġnumerous":7243,"Ġhyperphysical":7244,"reciprocal":7245,"Ġcenturies":7246,"Ġreveals":7247,"Ġdamages":7248,"Ġdiminish":7249,"Ġdiminished":7250,"arbitrary":7251,"Ġexercises":7252,"Ġexercised":7253,"Ġdepartment":7254,"methods":7255,"combination":7256,"combined":7257,"Ġextremely":7258,"obtained":7259,"Ġteachers":7260,"ĠVIII":7261,"Ġaccompanies":7262,"ANTITHESIS":7263,"affected":7264,"counter":7265,"noumena":7266,"noumenon":7267,"Ġwaver":7268,"Ġcredit":7269,"Ġmutually":7270,"Ġunbounded":7271,"demanded":7272,"Ġarchetyp":7273,"Ġarchetype":7274,"semble":7275,"Ġreconciled":7276,"Ġbeauty":7277,"Ġprinted":7278,"ulgence":7279,"Ġrashly":7280,"profess":7281,"added":7282,"ĠPossibility":7283,"sophistical":7284,"Ġmachine":7285,"Ġinfallibly":7286,"Ġoverlooked":7287,"Ġstruggle":7288,"Ġomnipotent":7289,"ACH":7290,"OREM":7291,"donate":7292,"suspicion":7293,"Ġzero":7294,"impressions":7295,"Ġannexed":7296,"emonstrable":7297,"Ġ199":7298,"Ġsolicit":7299,"States":7300,"harmony":7301,"ymous":7302,"Ġsaltus":7303,"Ġbinding":7304,"Ġunfortunately":7305,"Ġdispensed":7306,"Ġchildren":7307,"hausted":7308,"convinced":7309,"ĠMORALS":7310,"Ġcatalog":7311,"allel":7312,"Ġburden":7313,"Ġsubterfuge":7314,"prevent":7315,"Ġcontroversy":7316,"becomes":7317,"discussion":7318,"Ġacquaintance":7319,"APHYSIC":7320,"TRIB":7321,"duties":7322,"anilla":7323,"Ġunavoidably":7324,"Ġunsuccessful":7325,"Ġratiocin":7326,"ĠBREACH":7327,"telligence":7328,"ĠMETAPHYSIC":7329,"ĠDIVISION":7330,"'t":7331,")(":7332,"):":7333,"--":7334,".âĢĶ":7335,"13":7336,"17":7337,"18":7338,"280":7339,"40":7340,"AD":7341,"Al":7342,"Act":7343,"Author":7344,"AVE":7345,"Again":7346,"BL":7347,"BS":7348,"Besides":7349,"Ca":7350,"Critique":7351,"EG":7352,"Foundation":7353,"Finally":7354,"GH":7355,"Happ":7356,"Hume":7357,"IV":7358,"Is":7359,"ITION":7360,"Mat":7361,"NI":7362,"NAL":7363,"NITY":7364,"NOM":7365,"Necessity":7366,"OF":7367,"OBS":7368,"PEND":7369,"Plain":7370,"Sy":7371,"Time":7372,"UM":7373,"VI":7374,"VEN":7375,"VATIONS":7376,"YTIC":7377,"agement":7378,"aught":7379,"aordin":7380,"authoriz":7381,"bor":7382,"ban":7383,"bst":7384,"bour":7385,"bet":7386,"bered":7387,"bra":7388,"bene":7389,"business":7390,"cr":7391,"cest":7392,"cern":7393,"coin":7394,"culate":7395,"dict":7396,"divers":7397,"danger":7398,"ey":7399,"eous":7400,"eared":7401,"ethics":7402,"fl":7403,"fr":7404,"fal":7405,"fut":7406,"fil":7407,"fill":7408,"fold":7409,"fits":7410,"function":7411,"fety":7412,"fixed":7413,"gue":7414,"holy":7415,"horizon":7416,"ipt":7417,"iant":7418,"ips":7419,"iatus":7420,"king":7421,"lp":7422,"lest":7423,"lie":7424,"lated":7425,"lication":7426,"license":7427,"lier":7428,"losing":7429,"mem":7430,"mast":7431,"mutable":7432,"ngl":7433,"numer":7434,"pat":7435,"pone":7436,"pite":7437,"pun":7438,"pel":7439,"pared":7440,"parent":7441,"pdated":7442,"rs":7443,"ration":7444,"rain":7445,"run":7446,"sk":7447,"sent":7448,"sation":7449,"sciousness":7450,"scribe":7451,"smell":7452,"ta":7453,"tou":7454,"tow":7455,"tempt":7456,"takes":7457,"taken":7458,"ub":7459,"uating":7460,"van":7461,"vention":7462,"wit":7463,"writ":7464,"xious":7465,"Ġrom":7466,"Ġign":7467,"Ġtone":7468,"Ġtemper":7469,"held":7470,"hetical":7471,"help":7472,"Ġaught":7473,"once":7474,"onical":7475,"inner":7476,"infer":7477,"incapable":7478,"inferences":7479,"inconsistent":7480,"incomprehensible":7481,"Ġost":7482,"Ġomitted":7483,"rete":7484,"revol":7485,"reconci":7486,"itim":7487,"itute":7488,"itted":7489,"ithetic":7490,"iss":7491,"isy":7492,"isition":7493,"ateness":7494,"Ġwings":7495,"Ġwoe":7496,"eral":7497,"erably":7498,"Ġcut":7499,"Ġcard":7500,"Ġcustom":7501,"Ġcivil":7502,"Ġsor":7503,"Ġsan":7504,"Ġsine":7505,"Ġsedu":7506,"Ġsmo":7507,"Ġsoft":7508,"Ġsaved":7509,"Ġpot":7510,"Ġpet":7511,"Ġpays":7512,"Ġpage":7513,"Ġpages":7514,"Ġpair":7515,"Ġpiece":7516,"Ġportions":7517,"alogy":7518,"almost":7519,"ica":7520,"Ġinsufficiency":7521,"Ġincap":7522,"Ġinhering":7523,"Ġincontest":7524,"Ġbes":7525,"Ġball":7526,"Ġbooks":7527,"Ġbaseless":7528,"Ġthrown":7529,"oric":7530,"Ġmil":7531,"Ġmoun":7532,"Ġmixture":7533,"Ġmoments":7534,"cely":7535,"Ġfed":7536,"Ġfire":7537,"Ġflu":7538,"Ġflat":7539,"anqu":7540,"anwhile":7541,"anuary":7542,"edistrib":7543,"Ġep":7544,"Ġell":7545,"Ġecon":7546,"Ġelucid":7547,"Ġrever":7548,"Ġreception":7549,"Ġreport":7550,"Ġrevere":7551,"Ġrevol":7552,"Ġrestraint":7553,"Ġresolution":7554,"Ġreverse":7555,"lements":7556,"Ġdi":7557,"Ġdread":7558,"Ġdrop":7559,"Ġdwell":7560,"Ġduring":7561,"Ġdoubted":7562,"Ġbeg":7563,"streng":7564,"entitled":7565,"otion":7566,"arum":7567,"arles":7568,"arched":7569,"arcely":7570,"asus":7571,"utiful":7572,"Ġhit":7573,"Ġhollow":7574,"llog":7575,"iven":7576,"iver":7577,"imb":7578,"Ġancest":7579,"Ġlar":7580,"Ġlib":7581,"Ġlive":7582,"Ġlof":7583,"Ġlives":7584,"Ġlooks":7585,"Ġlively":7586,"Ġloose":7587,"Ġlimb":7588,"Ġnote":7589,"ĠĠĠĠĠ":7590,"Ġwealth":7591,"Ġforget":7592,"ibus":7593,"ceptive":7594,"terable":7595,"terior":7596,"terms":7597,"Ġwithdrawn":7598,"uris":7599,"uristic":7600,"ciences":7601,"ĠIM":7602,"verted":7603,"quality":7604,"quire":7605,"ogmat":7606,"ecided":7607,"ander":7608,"perity":7609,"perform":7610,"ulating":7611,"ĠTHAT":7612,"ĠTerms":7613,"chief":7614,"changed":7615,"Ġdeed":7616,"Ġdeceive":7617,"Ġintend":7618,"pleteness":7619,"ilt":7620,"iled":7621,"ilty":7622,"acted":7623,"Ġalge":7624,"Ġalike":7625,"hens":7626,"usality":7627,"usual":7628,"Ġhast":7629,"Ġhabits":7630,"illusions":7631,"illiant":7632,"aments":7633,"plain":7634,"Ġunlaw":7635,"Ġunites":7636,"Ġuniting":7637,"Ġunconscious":7638,"Ġuninter":7639,"Ġunansw":7640,"Ġunobserved":7641,"Ġunmixed":7642,"Ġunvarying":7643,"abandon":7644,"ummum":7645,"umbling":7646,"Ġ(_":7647,"Ġthereon":7648,"Ġlawgiver":7649,"Ġspare":7650,"Ġcompos":7651,"Ġcomfor":7652,"Ġcomponent":7653,"notwithstanding":7654,"often":7655,"ested":7656,"Ġrises":7657,"Ġrob":7658,"Ġrising":7659,"Ġrisk":7660,"Ġsoci":7661,"Ġundermin":7662,"stands":7663,"Ġtrad":7664,"Ġtroub":7665,"Ġsensual":7666,"ĠBel":7667,"ĠBOOK":7668,"ĠBUT":7669,"Ġheuristic":7670,"Ġimpract":7671,"Ġpersist":7672,"orial":7673,"priv":7674,"allen":7675,"allow":7676,"ads":7677,"posited":7678,"Ġregulate":7679,"Ġexperienced":7680,"indu":7681,"indifferent":7682,"Ġshad":7683,"Ġship":7684,"antom":7685,"ĠFinally":7686,"ĠFUL":7687,"ĠFUND":7688,"artic":7689,"exerc":7690,"Ġquit":7691,"Ġquid":7692,"Ġstability":7693,"Ġstopp":7694,"ordination":7695,"Ġconsent":7696,"ĠAct":7697,"ourth":7698,"acle":7699,"Ġappet":7700,"caution":7701,"Ġadhere":7702,"Ġadvers":7703,"force":7704,"ponder":7705,"ĠPG":7706,"ĠPers":7707,"ĠPost":7708,"Ġdisregard":7709,"united":7710,"Ġye":7711,"ictions":7712,"ĠThought":7713,"Ġparte":7714,"Ġpartiality":7715,"strum":7716,"strained":7717,"teaching":7718,"Ġcharact":7719,"Ġleap":7720,"ĠĠĠĠĠĠĠĠĠĠĠĠĠĠĠĠĠĠĠĠĠĠĠĠĠĠĠĠĠĠĠĠĠĠĠĠĠĠĠ":7721,"Ġartic":7722,"Ġargu":7723,"ĠSc":7724,"ĠSen":7725,"ĠSee":7726,"elve":7727,"pposites":7728,"Ġsubmitted":7729,"Ġsubrept":7730,"opyright":7731,"preted":7732,"precede":7733,"ĠOp":7734,"intention":7735,"possibly":7736,"Ġserious":7737,"Ġserving":7738,"Ġdiffers":7739,"Ġdiffered":7740,"ĠInternal":7741,"izable":7742,"Ġplane":7743,"Ġplausible":7744,"Ġnothingness":7745,"ĠGos":7746,"reator":7747,"Ġgrate":7748,"Ġgross":7749,"ĠCa":7750,"ĠCertain":7751,"ĠCosm":7752,"ĠCritical":7753,"Ġowing":7754,"Ġdescribed":7755,"Ġdesirable":7756,"Ġemployees":7757,"coming":7758,"Ġfirstly":7759,"proving":7760,"Ġremed":7761,"ĠHAVE":7762,"Ġbelonged":7763,"Ġacted":7764,"Ġago":7765,"overt":7766,"overty":7767,"medi":7768,"ĠRespect":7769,"ĠRedistrib":7770,"Ġpresum":7771,"having":7772,"ĠEVEN":7773,"ĠEngl":7774,"Ġoutset":7775,"Ġpossessions":7776,"Ġapplicability":7777,"earance":7778,"Ġamid":7779,"Ġamphiboly":7780,"avail":7781,"Ġattaching":7782,"Ġmatured":7783,"ouncing":7784,"ĠDO":7785,"ĠDate":7786,"ĠDuty":7787,"ĠDifference":7788,"ĠDogmat":7789,"angles":7790,"Ġimpelled":7791,"assume":7792,"assumption":7793,"Ġinviol":7794,"thereto":7795,"Ġhereby":7796,"Ġintelligibilis":7797,"Ġlikely":7798,"Ġhands":7799,"ables":7800,"Ġconcrete":7801,"Ġresting":7802,"rade":7803,"Ġrefuted":7804,"Ġrefutation":7805,"Ġdivisions":7806,"Ġindul":7807,"Ġindivid":7808,"Ġindispensably":7809,"Ġindemonstrable":7810,"Ġproofread":7811,"Ġcompel":7812,"Ġcontradictorily":7813,"Ġassumptions":7814,"Ġconcludes":7815,"event":7816,"ĠLIC":7817,"ĠLocke":7818,"Ġtruths":7819,"ERVATIONS":7820,"contradistinction":7821,"Ġ100":7822,"undity":7823,"Ġsupplying":7824,"Ġattainable":7825,"Ġconsisting":7826,"Ġcontented":7827,"ĠUND":7828,"Ġconfound":7829,"Ġconfirmed":7830,"Ġconfounded":7831,"Ġmathematically":7832,"Ġdiscovers":7833,"represented":7834,"Ġmotions":7835,"Ġaffair":7836,"Ġconceptus":7837,"Intelligence":7838,"Ġsatisfactorily":7839,"knowled":7840,"relates":7841,"Ġstanding":7842,"Ġstandpoint":7843,"Ġarrogant":7844,"disposed":7845,"dispute":7846,"ENSE":7847,"Ġimagin":7848,"Ġimages":7849,"subordinated":7850,"Ġlegally":7851,"Ġsignal":7852,"TINOM":7853,"Ġneeded":7854,"Ġneedless":7855,"Ġguess":7856,"Ġguides":7857,"Ġguided":7858,"Ġguiding":7859,"ĠĠĠĠĠĠĠĠĠĠĠĠĠĠĠĠĠĠĠĠĠĠĠĠĠ":7860,"ĠĠĠĠĠĠĠĠĠĠĠĠĠĠĠĠĠĠĠĠĠĠĠĠĠĠĠĠĠĠ":7861,"Ġnegativum":7862,"Ġinvestigated":7863,"Ġinvestigating":7864,"subjected":7865,"miss":7866,"Ġasserts":7867,"Ġassertor":7868,"Ġasserting":7869,"Ġassertorical":7870,"ificent":7871,"doctr":7872,"oval":7873,"partly":7874,"particip":7875,"ĠTHIRD":7876,"TERNAL":7877,"Ġantiqu":7878,"Ġattributing":7879,"morally":7880,"Ġcoal":7881,"ĠSuppose":7882,"Ġprevents":7883,"completion":7884,"Ġhero":7885,"Ġdistinctions":7886,"obsc":7887,"Ġpassages":7888,"Ġdeductions":7889,"Ġmaterialism":7890,"Ġaffection":7891,"Ġmiss":7892,"Ġmisled":7893,"Ġmisconceptions":7894,"Ġvariance":7895,"Ġfalling":7896,"distinct":7897,"grat":7898,"ĠTHEOREM":7899,"Ġfals":7900,"Ġesse":7901,"Ġadding":7902,"Ġagreed":7903,"Ġcircular":7904,"Ġspecious":7905,"ontological":7906,"Ġintellect":7907,"everyone":7908,"Ġbrain":7909,"Ġbrilliant":7910,"ĠYet":7911,"Ġunden":7912,"happen":7913,"morals":7914,"Ġvolunt":7915,"corrupt":7916,"ignorance":7917,"Ġadvantageous":7918,"discern":7919,"indefinitum":7920,"Ġceases":7921,"Ġparallel":7922,"Ġauthors":7923,"whereby":7924,"Ġcontinues":7925,"Ġcontinuum":7926,"Ġantecede":7927,"Ġcomparatively":7928,"ĠUnless":7929,"ĠUniversal":7930,"prescribes":7931,"substant":7932,"requis":7933,"Ġtransfer":7934,"Ġtransformed":7935,"ĠExcept":7936,"justify":7937,"Ġexclusion":7938,"Ġprofits":7939,"Ġcombine":7940,"Ġdogmatically":7941,"believe":7942,"Ġinscr":7943,"Ġdesigns":7944,"Ġtranscendentally":7945,"Ġevils":7946,"rowd":7947,"Ġsurvey":7948,"Ġcomprehension":7949,"ĠArgum":7950,"ighbour":7951,"Ġblamed":7952,"Ġbliss":7953,"Ġrestricts":7954,"Ġappropriate":7955,"community":7956,"Ġraising":7957,"Ġ568":7958,"ĠVanilla":7959,"IND":7960,"INTRODUCTION":7961,"ĠJanuary":7962,"Ġearlier":7963,"employing":7964,"Ġtests":7965,"containing":7966,"Ġcareful":7967,"Ġseparation":7968,"Ġhypothetically":7969,"Ġacquisition":7970,"THING":7971,"divisibility":7972,"faculties":7973,"Ġ40":7974,"Ġputs":7975,"possession":7976,"Ġadopting":7977,"insically":7978,"confess":7979,"conflict":7980,"Ġscarcely":7981,"thinks":7982,"Ġreaching":7983,"Ġhappening":7984,"Ġdestroyed":7985,"kinds":7986,"Ġconvert":7987,"Ġconversion":7988,"Ġsubtlety":7989,"sensations":7990,"Ġcollected":7991,"analyse":7992,"Ġannihilates":7993,"Ġlaying":7994,"conformable":7995,"conformably":7996,"characteristic":7997,"characteristics":7998,"Ġimplanted":7999,"ĠANTINOM":8000,"contentment":8001,"demonstrative":8002,"judge":8003,"Ġdefault":8004,"Ġadmire":8005,"enetrable":8006,"critic":8007,"lightened":8008,"ruption":8009,"Ġfanci":8010,"Ġmajesty":8011,"Ġplainly":8012,"province":8013,"subsisting":8014,"Ġopened":8015,"xioms":8016,"Ġplanets":8017,"Ġassigns":8018,"Ġabsurdity":8019,"Supposing":8020,"Ġinduction":8021,"Ġinduced":8022,"Ġreceipt":8023,"particularly":8024,"Ġsafety":8025,"Ġsucceeding":8026,"Ġdiscernment":8027,"Ġelevating":8028,"Ġborrowing":8029,"Ġmistake":8030,"Ġperformed":8031,"Ġapparently":8032,"continue":8033,"continuous":8034,"Only":8035,"afterwards":8036,"Ġangle":8037,"Ġnecessitate":8038,"Ġsubsume":8039,"Ġremoves":8040,"Ġcry":8041,"Ġfitted":8042,"Ġfitting":8043,"Ġaggregation":8044,"Ġreflecting":8045,"Ġproportioned":8046,"Ġpopularity":8047,"Ġreturns":8048,"Ġanimals":8049,"Ġexcused":8050,"proofs":8051,"Ġentering":8052,"Ġcalm":8053,"Ġcalculate":8054,"Ġrenunciation":8055,"Ġprosperity":8056,"impul":8057,"Ġextravag":8058,"Ġextraordin":8059,"Ġpersuaded":8060,"Ġpersuade":8061,"ĠCharles":8062,"ĠEmpty":8063,"Ġschematism":8064,"signific":8065,"Ġtwelve":8066,"Ġwondered":8067,"Ġculture":8068,"Ġbuilt":8069,"Ġsuggested":8070,"defined":8071,"ĠMorals":8072,"Ġhonesty":8073,"Ġhonestly":8074,"influenced":8075,"scepticism":8076,"Ġdoctrinal":8077,"Ġappeared":8078,"Ġsubsisting":8079,"Ġsubsistence":8080,"pretation":8081,"Ġenabling":8082,"Ġsecretly":8083,"Ġillustration":8084,"Ġillustrate":8085,"Ġconfession":8086,"deduce":8087,"Ġrepay":8088,"Ġprotect":8089,"Ġcomplaint":8090,"Ġimitation":8091,"ĠInterest":8092,"ĠWho":8093,"ĠWhatever":8094,"commonest":8095,"Ġanticipation":8096,"Ġpathologically":8097,"Ġcontemplated":8098,"restriction":8099,"restricted":8100,"Ġpattern":8101,"Ġabandons":8102,"sufficiently":8103,"ĠCONFL":8104,"Ġcommunicated":8105,"Ġperiods":8106,"Ġperiodic":8107,"AMENTAL":8108,"Ġclearer":8109,"Ġdictate":8110,"Ġdictates":8111,"Ġordains":8112,"Ġordinary":8113,"Ġchimeras":8114,"Ġchimerical":8115,"ĠCompleteness":8116,"ĠMetaphysical":8117,"maintained":8118,"clearness":8119,"anthropology":8120,"Ġresolve":8121,"Ġresolved":8122,"Ġrecommended":8123,"Ġdry":8124,"Ġhardly":8125,"ĠpropÃ¦deutic":8126,"Ġundertaken":8127,"Ġformats":8128,"Ġdisclaimer":8129,"Ġdisclaimers":8130,"Ġarchitectonical":8131,"Ġgranting":8132,"Ġambiguous":8133,"Ġnumerical":8134,"ĠIdealism":8135,"commanded":8136,"Ġfulfilment":8137,"Ġhypertext":8138,"coexistence":8139,"reciprocally":8140,"Ġmonth":8141,"Ġreveal":8142,"Ġpraised":8143,"Ġproprietary":8144,"ĠTransition":8145,"absence":8146,"Ġembraces":8147,"comparison":8148,"Ġparalogisms":8149,"Ġdestructive":8150,"Ġmagnanim":8151,"Ġmagnificent":8152,"Ġwarnings":8153,"SITION":8154,"copyright":8155,"smallest":8156,"various":8157,"words":8158,"Ġcredential":8159,"Ġinherent":8160,"Ġinstitute":8161,"Ġinstituted":8162,"Ġthreaten":8163,"Ġmutual":8164,"Ġfooting":8165,"Ġanthropology":8166,"Ġanthropomorph":8167,"Ġsusceptibility":8168,"Ġunbroken":8169,"Ġhearing":8170,"anticipation":8171,"ĠApplication":8172,"ĠAppearance":8173,"Ġimperfection":8174,"ĠProblem":8175,"ĠProblems":8176,"Ġobstinate":8177,"Ġobstinately":8178,"Ġhypostatizing":8179,"CLUD":8180,"Ġmiddle":8181,"Ġbeautiful":8182,"Ġroyalty":8183,"Ġroyalties":8184,"Ġvisit":8185,"Ġsharp":8186,"ĠPossible":8187,"Ġgrowth":8188,"Ġenumeration":8189,"syllogisms":8190,"Ġselfishness":8191,"Ġinfallible":8192,"Ġcompensate":8193,"Ġguaranteed":8194,"Ġomnipotence":8195,"circle":8196,"circum":8197,"Ġcourage":8198,"Ġpoison":8199,"Ġlurks":8200,"Ġsuitably":8201,"Ġunfair":8202,"Ġvacant":8203,"ĠSTART":8204,"intuite":8205,"assumed":8206,"Ġinvalidity":8207,"Ġelaboration":8208,"Ġcoincide":8209,"Ġharmless":8210,"Ġconjoining":8211,"Ġconvenience":8212,"Ġcombatants":8213,"ĠANALYTIC":8214,"Ġcalculated":8215,"ĠMathematical":8216,"ĠMathematics":8217,"cultiv":8218,"annihilated":8219,"Ġlaborious":8220,"Ġdeceitful":8221,"Ġhesitate":8222,"Ġparticipation":8223,"inevitable":8224,"ĠDISTRIB":8225,"Ġimpediments":8226,"ĠConclusions":8227,"ocrisy":8228,"Ġdeliberate":8229,"Ġfairly":8230,"Ġindubitable":8231,"Ġridiculous":8232,"Archive":8233,"Nothing":8234,"efforts":8235,"habit":8236,"heteronomy":8237,"Ġastonishment":8238,"referred":8239,"reckoned":8240,"Ġboni":8241,"Ġfiles":8242,"Ġrestrain":8243,"Ġpragmatical":8244,"ĠIllusory":8245,"Ġvictory":8246,"Ġvague":8247,"Ġsynonymous":8248,"Ġstepping":8249,"ĠAGREE":8250,"speaking":8251,"Ġmaster":8252,"ĠIntroductory":8253,"ĠGround":8254,"assigned":8255,"accurate":8256,"Ġbranches":8257,"Ġsurprising":8258,"CEPTION":8259,"Ġfigurative":8260,"specification":8261,"Produced":8262,"declaring":8263,"Ġdenominate":8264,"accompanied":8265,"spontaneity":8266,"Ġexaggerated":8267,"Empirical":8268,"Ideal":8269,"Philos":8270,"spring":8271,"sletter":8272,"intrinsic":8273,"atirae":8274,"Ġissue":8275,"Ġanxiety":8276,"ĠIDEAS":8277,"Ġprohibition":8278,"prudence":8279,"Ġappellation":8280,"ĠPsychology":8281,"ducive":8282,"ĠRelation":8283,"ĠRoyalty":8284,"ĠMonad":8285,"Principle":8286,"Ġomniscient":8287,"Ġstructure":8288,"Ġcatalogue":8289,"GHT":8290,"Happiness":8291,"Mathemat":8292,"OBSERVATIONS":8293,"better":8294,"coinc":8295,"future":8296,"toward":8297,"Ġostensive":8298,"Ġfederal":8299,"Ġreverence":8300,"llogistic":8301,"Ġancestors":8302,"Ġalgebra":8303,"Ġunlawful":8304,"Ġcompositum":8305,"ĠBelief":8306,"ĠFULL":8307,"ĠFUNDAMENTAL":8308,"Ġcharacters":8309,"ĠDogmatism":8310,"ĠLICENSE":8311,"ĠUNDER":8312,"Ġinscrutable":8313,"ĠANTINOMY":8314,"Ġextraordinary":8315,"ĠCONFLICT":8316,"Ġmagnanimous":8317,"CLUDING":8318,"ĠDISTRIBUT":8319,"!)":8320,"\".":8321,"*]":8322,".:":8323,".;":8324,"10":8325,"11":8326,"20":8327,"39":8328,"45":8329,"55":8330,"57":8331,"568":8332,"622":8333,"75":8334,"79":8335,"After":8336,"AIM":8337,"Among":8338,"Books":8339,"BILITY":8340,"Ch":8341,"Cont":8342,"DENTAL":8343,"DED":8344,"Epic":8345,"EBook":8346,"First":8347,"Further":8348,"FIRST":8349,"FORE":8350,"Fourth":8351,"GENCE":8352,"IX":8353,"IED":8354,"IVE":8355,"IRECT":8356,"LE":8357,"Literary":8358,"License":8359,"Language":8360,"LIMITED":8361,"Mor":8362,"Most":8363,"Moreover":8364,"NT":8365,"NES":8366,"OP":8367,"POSE":8368,"PPEND":8369,"Right":8370,"Rational":8371,"Remark":8372,"RICT":8373,"RPOSE":8374,"SS":8375,"Sto":8376,"Title":8377,"URE":8378,"Very":8379,"WARRAN":8380,"Wolf":8381,"az":8382,"aple":8383,"apart":8384,"aired":8385,"acies":8386,"bre":8387,"bly":8388,"cal":8389,"cur":8390,"carr":8391,"custom":8392,"cartes":8393,"dent":8394,"dest":8395,"dash":8396,"dden":8397,"dignity":8398,"eg":8399,"eas":8400,"efficient":8401,"ease":8402,"eBook":8403,"eBooks":8404,"fa":8405,"fam":8406,"fast":8407,"fici":8408,"firm":8409,"fail":8410,"failed":8411,"fault":8412,"gen":8413,"gust":8414,"gance":8415,"hn":8416,"ho":8417,"hum":8418,"hort":8419,"high":8420,"hip":8421,"ios":8422,"iour":8423,"iological":8424,"join":8425,"kal":8426,"lo":8427,"land":8428,"lab":8429,"mer":8430,"mas":8431,"mise":8432,"mber":8433,"mother":8434,"mdash":8435,"nic":8436,"nify":8437,"oke":8438,"opposed":8439,"put":8440,"pus":8441,"pire":8442,"pso":8443,"pium":8444,"penetr":8445,"putation":8446,"ror":8447,"rought":8448,"ried":8449,"sid":8450,"sure":8451,"sakes":8452,"sipp":8453,"tx":8454,"tes":8455,"table":8456,"tered":8457,"taking":8458,"uc":8459,"uation":8460,"uated":8461,"uously":8462,"ucid":8463,"vity":8464,"vive":8465,"vain":8466,"verest":8467,"viour":8468,"wis":8469,"wart":8470,"wishes":8471,"warrant":8472,"yle":8473,"zip":8474,"Ġ#":8475,"Ġ$":8476,"Ġ'":8477,"Ġ+":8478,"Ġ80":8479,"Ġtor":8480,"Ġted":8481,"Ġtant":8482,"Ġtear":8483,"Ġtempt":8484,"het":8485,"heit":8486,"Ġach":8487,"Ġadequ":8488,"Ġaux":8489,"onom":8490,"ino":8491,"iny":8492,"inent":8493,"inference":8494,"information":8495,"instruction":8496,"instruct":8497,"ineness":8498,"Ġopposing":8499,"Ġopposites":8500,"Ġtheolog":8501,"rew":8502,"rendered":8503,"recognized":8504,"reverse":8505,"reproductive":8506,"itatis":8507,"itably":8508,"iteness":8509,"Ġoffered":8510,"enes":8511,"enumer":8512,"aton":8513,"atch":8514,"atible":8515,"atically":8516,"Ġwont":8517,"Ġwarrant":8518,"Ġwander":8519,"erion":8520,"erce":8521,"erke":8522,"erits":8523,"ervice":8524,"Ġcand":8525,"Ġcame":8526,"Ġcold":8527,"Ġcurs":8528,"Ġcush":8529,"Ġcitiz":8530,"Ġsit":8531,"Ġsem":8532,"Ġsag":8533,"Ġsending":8534,"Ġsmell":8535,"Ġpoverty":8536,"along":8537,"alogical":8538,"icited":8539,"Ġincontr":8540,"Ġincompre":8541,"Ġincorrect":8542,"Ġinjustice":8543,"Ġinsecure":8544,"Ġinstrum":8545,"Ġinaccurate":8546,"Ġbar":8547,"Ġbro":8548,"Ġbinary":8549,"esthe":8550,"essel":8551,"estr":8552,"Ġthir":8553,"Ġthread":8554,"Ġthrow":8555,"Ġthwart":8556,"orous":8557,"Ġming":8558,"Ġmove":8559,"Ġmock":8560,"Ġmillion":8561,"Ġmerits":8562,"cease":8563,"cember":8564,"Ġfing":8565,"Ġfam":8566,"Ġfant":8567,"Ġfund":8568,"Ġfaint":8569,"Ġfavoured":8570,"Ġfresh":8571,"ann":8572,"animal":8573,"analogy":8574,"edifice":8575,"edient":8576,"editions":8577,"Ġnom":8578,"Ġnought":8579,"Ġnames":8580,"Ġnaught":8581,"Ġecl":8582,"Ġearn":8583,"Ġepo":8584,"outh":8585,"Ġrecognition":8586,"Ġrepress":8587,"Ġreaches":8588,"Ġremind":8589,"Ġresearch":8590,"Ġresemble":8591,"ley":8592,"lement":8593,"leave":8594,"Ġdouble":8595,"Ġbeha":8596,"stition":8597,"sthetical":8598,"omaton":8599,"entions":8600,"Ġwhit":8601,"otes":8602,"otyp":8603,"aralogism":8604,"asc":8605,"asm":8606,"ascertain":8607,"utor":8608,"utum":8609,"utious":8610,"Ġhour":8611,"Ġhint":8612,"Ġhiatus":8613,"Ġprince":8614,"Ġasks":8615,"Ġascribing":8616,"llous":8617,"thew":8618,"theory":8619,"theologia":8620,"ivoc":8621,"ivae":8622,"imid":8623,"impl":8624,"image":8625,"imilar":8626,"imony":8627,"Ġexhausted":8628,"Ġlat":8629,"Ġland":8630,"Ġliqu":8631,"Ġlangu":8632,"Ġlament":8633,"Ġlikes":8634,"Ġliking":8635,"essor":8636,"Ġwear":8637,"ithmet":8638,"ider":8639,"idge":8640,"idently":8641,"Ġsuppos":8642,"Ġsuits":8643,"Ġsudden":8644,"irus":8645,"Ġgene":8646,"thy":8647,"threat":8648,"urance":8649,"urbed":8650,"ĠIX":8651,"vert":8652,"quid":8653,"resistance":8654,"ivered":8655,"isturbed":8656,"sibilities":8657,"Ġproc":8658,"Ġproject":8659,"emarks":8660,"empor":8661,"embarrass":8662,"embered":8663,"emnify":8664,"Ġreasoners":8665,"Ġobjected":8666,"ĠTRAN":8667,"vellous":8668,"conject":8669,"confin":8670,"conven":8671,"constant":8672,"connexion":8673,"chimer":8674,"choice":8675,"Ġdear":8676,"Ġdeist":8677,"Ġdeposit":8678,"Ġdeceptive":8679,"endi":8680,"endeavoured":8681,"Ġintentions":8682,"pleases":8683,"iliar":8684,"ilia":8685,"therwise":8686,"acts":8687,"actly":8688,"Ġalkal":8689,"Ġaltered":8690,"hentic":8691,"hensibility":8692,"usio":8693,"illusory":8694,"aware":8695,"aming":8696,"amount":8697,"plan":8698,"Ġunsol":8699,"Ġunquestion":8700,"Ġunconnected":8701,"Ġunimportant":8702,"Ġunanim":8703,"Ġunsatisfactory":8704,"abilis":8705,"âĢĶ(":8706,"ĠĠĠĠĠĠĠĠĠĠ":8707,"olunteers":8708,"depr":8709,"igious":8710,"ighed":8711,"Ġthereupon":8712,"Ġlawless":8713,"iest":8714,"Ġspent":8715,"Ġspheres":8716,"Ġsprun":8717,"Ġcoming":8718,"tries":8719,"trace":8720,"tricable":8721,"ofessor":8722,"Ġpossibilities":8723,"estic":8724,"Ġrap":8725,"Ġembe":8726,"Ġempiric":8727,"ousand":8728,"Ġsoar":8729,"ideality":8730,"Ġtrave":8731,"Ġtrium":8732,"Ġtraining":8733,"Ġwilled":8734,"ĠTheology":8735,"ĠTheoretical":8736,"Ġvulg":8737,"Ġvicious":8738,"Ġvocation":8739,"Ġvessel":8740,"Ġvirus":8741,"odes":8742,"odality":8743,"ĠBec":8744,"ĠBonum":8745,"ĠBetween":8746,"ounds":8747,"Ġhearer":8748,"Ġimposing":8749,"Ġimmutable":8750,"Ġimmedi":8751,"Ġpertaining":8752,"Ġnovel":8753,"Ġnobody":8754,"prot":8755,"prim":8756,"pros":8757,"allowed":8758,"Ġabut":8759,"Ġabode":8760,"adem":8761,"adapt":8762,"pirit":8763,"Ġsyllogistic":8764,"Ġregulating":8765,"supposes":8766,"suggest":8767,"Ġusage":8768,"Ġshalt":8769,"antity":8770,"ĠFac":8771,"ĠFRO":8772,"ĠFIT":8773,"ĠFOU":8774,"phold":8775,"phaenomenon":8776,"Ġcognizes":8777,"Ġsearched":8778,"ometer":8779,"Ġquick":8780,"Ġreligious":8781,"Ġstay":8782,"Ġstaff":8783,"Ġstream":8784,"Ġstumbling":8785,"Ġstyle":8786,"presenting":8787,"why":8788,"whom":8789,"Ġconscience":8790,"nowhere":8791,"ĠAd":8792,"ĠAutonomy":8793,"ĠAug":8794,"ĠAxioms":8795,"ĠAesthe":8796,"Ġjuris":8797,"Ġaccus":8798,"acent":8799,"acquire":8800,"Ġappend":8801,"cast":8802,"Ġador":8803,"forces":8804,"ĠForm":8805,"ĠPre":8806,"ĠPref":8807,"ĠPART":8808,"ĠParalogism":8809,"Ġdisk":8810,"Ġdiss":8811,"Ġdispar":8812,"Ġdisposed":8813,"Ġdispleasure":8814,"Ġdissect":8815,"Ġdissection":8816,"Ġdisinterested":8817,"Ġdisgust":8818,"union":8819,"ungl":8820,"unattainable":8821,"etc":8822,"etic":8823,"etition":8824,"eties":8825,"etext":8826,"mental":8827,"ĠThose":8828,"ĠThrough":8829,"Ġpartially":8830,"teen":8831,"teleological":8832,"Ġchapt":8833,"Ġchallen":8834,"Ġlear":8835,"Ġsomeone":8836,"Ġmoralists":8837,"ĠĠĠĠĠĠĠĠĠĠĠĠĠĠĠĠĠĠĠĠĠĠĠĠĠĠĠĠĠĠĠĠĠĠĠ":8838,"specul":8839,"spread":8840,"ternational":8841,"Ġargue":8842,"sissipp":8843,"ĠSh":8844,"ĠSoul":8845,"ĠSUC":8846,"ĠSpecial":8847,"ĠSecondly":8848,"ĠSummum":8849,"ĠSatirae":8850,"ĠService":8851,"ĠSouth":8852,"Ġphantom":8853,"solve":8854,"Ġwhoever":8855,"eless":8856,"ĠNecessity":8857,"ĠNEG":8858,"ensed":8859,"Ġsubmission":8860,"Ġsubspecies":8861,"Ġsubordination":8862,"opinions":8863,"prefer":8864,"Ġthank":8865,"ĠOTHER":8866,"intended":8867,"intensive":8868,"intuit":8869,"Ġfreed":8870,"imitation":8871,"Ġnearest":8872,"Ġneighbour":8873,"aging":8874,"ĠInte":8875,"ĠInfinite":8876,"ĠInasmuch":8877,"Ġcausa":8878,"Ġplans":8879,"Ġcontest":8880,"Ġcontents":8881,"ĠGre":8882,"ĠGIVE":8883,"ĠWis":8884,"ĠWest":8885,"ĠWhence":8886,"ĠWHAT":8887,"Ġended":8888,"reating":8889,"Ġgrown":8890,"Ġgravity":8891,"They":8892,"ignific":8893,"ĠCl":8894,"ĠCHA":8895,"ĠCause":8896,"ĠCoper":8897,"ĠCopyright":8898,"ĠCreator":8899,"meant":8900,"Ġassures":8901,"Ġassuring":8902,"Ġassurance":8903,"Ġobl":8904,"Ġfounds":8905,"Ġpositing":8906,"Ġcommitted":8907,"comes":8908,"prohib":8909,"propri":8910,"projected":8911,"Ġremoval":8912,"Ġdiscret":8913,"Ġsystematically":8914,"ĠHist":8915,"ĠHypothe":8916,"Ġhappily":8917,"Ġextinct":8918,"Ġactuality":8919,"weight":8920,"weapons":8921,"Ġagents":8922,"lessed":8923,"Ġenv":8924,"Ġenig":8925,"Ġenounced":8926,"Ġenjoined":8927,"Ġenclose":8928,"stitution":8929,"Ġeffecting":8930,"Ġeffective":8931,"ĠRemark":8932,"ĠRemarks":8933,"Ġthinkable":8934,"ĠEv":8935,"ĠEIN":8936,"ĠEBook":8937,"ĠEthics":8938,"ĠElements":8939,"Ġoutline":8940,"Ġoutlines":8941,"Ġsensibilis":8942,"Ġtert":8943,"reasoning":8944,"early":8945,"service":8946,"uteness":8947,"ointment":8948,"sensual":8949,"physiology":8950,"Ġgreatness":8951,"ĠDr":8952,"Ġbasing":8953,"Ġfacta":8954,"Ġfacto":8955,"Ġfacts":8956,"Ġsecures":8957,"Ġinclined":8958,"angled":8959,"Ġimpot":8960,"Ġimputation":8961,"Ġimpenetrability":8962,"Ġshallow":8963,"Ġenters":8964,"Ġentium":8965,"Ġentrust":8966,"principium":8967,"Ġoriginator":8968,"ribe":8969,"Ġcorrupt":8970,"Ġcorrection":8971,"Ġcorruption":8972,"Thou":8973,"Those":8974,"Thirdly":8975,"Ġinvention":8976,"Ġinflex":8977,"Ġexplore":8978,"Ġpowerless":8979,"Ġinterested":8980,"Ġintelligibility":8981,"experienced":8982,"ĠReality":8983,"ĠReplace":8984,"ĠRepresentation":8985,"ĠRefund":8986,"ĠMay":8987,"ĠMER":8988,"ĠMany":8989,"ĠMotion":8990,"Ġapper":8991,"Ġwherefore":8992,"Ġcharacterized":8993,"Ġcharacterizes":8994,"Ġrested":8995,"Ġanalyst":8996,"raid":8997,"raise":8998,"raising":8999,"Ġrefuses":9000,"Ġsummon":9001,"Ġindulgence":9002,"Ġindestr":9003,"Ġindemnify":9004,"Ġcompounded":9005,"Ġadvice":9006,"Ġconclusive":9007,"Ġconceives":9008,"ĠLat":9009,"Ġsincere":9010,"Ġdecre":9011,"ERAL":9012,"Ġmetal":9013,"Ġ16":9014,"Ġ17":9015,"Ġ18":9016,"Ġresist":9017,"Ġresides":9018,"structive":9019,"undoubted":9020,"Ġsupplement":9021,"learned":9022,"Ġconsistently":9023,"ĠUT":9024,"ĠUnder":9025,"ĠUpon":9026,"Ġillum":9027,"Ġaimed":9028,"represents":9029,"representing":9030,"Information":9031,"Instead":9032,"International":9033,"Ġ[*]":9034,"Ġelegance":9035,"ĠOne":9036,"ĠConsciousness":9037,"Ġdegr":9038,"related":9039,"religion":9040,"Ġsuccessfully":9041,"Ġdefining":9042,"naturally":9043,"natura":9044,"Ġworthlessness":9045,"Ġplea":9046,"Ġpleasing":9047,"Ġupwards":9048,"Ġarranging":9049,"Ġoccasions":9050,"discipline":9051,"ENTI":9052,"ENERAL":9053,"redit":9054,"Ġobserver":9055,"Ġobserves":9056,"Ġobservers":9057,"subtle":9058,"substratum":9059,"Ġlegitim":9060,"Ġelimin":9061,"Ġconsequentia":9062,"TICE":9063,"Ġneedful":9064,"monition":9065,"Ġmodus":9066,"Ġmodified":9067,"Ġmodesty":9068,"Ġresulted":9069,"Ġacuteness":9070,"Ġguilty":9071,"ĠĠĠĠĠĠĠĠĠĠĠĠĠĠĠĠĠĠĠĠĠĠĠĠĠĠĠĠ":9072,"Ġcopied":9073,"Ġcopula":9074,"Ġnegations":9075,"Ġmaintenance":9076,"contempt":9077,"subjects":9078,"Ġnewsletter":9079,"Ġbodily":9080,"Ġmethodology":9081,"Ġeasier":9082,"Ġreading":9083,"ovember":9084,"Ġdogmas":9085,"Ġnonsense":9086,"Ġdemonstrates":9087,"Ġovercome":9088,"arrive":9089,"arrangement":9090,"synthetic":9091,"Ġanswering":9092,"ALITY":9093,"Ġcoherence":9094,"Ġposterity":9095,"Ġpostpone":9096,"Ġexcepted":9097,"CHANT":9098,"Ġmemory":9099,"Ġcontinual":9100,"Ġinquires":9101,"Ġcosmology":9102,"obvious":9103,"obedience":9104,"Ġidentify":9105,"Ġinstant":9106,"Ġhoping":9107,"Ġhoped":9108,"Ġhopeless":9109,"Ġprovision":9110,"Ġprovides":9111,"Ġprovisions":9112,"Ġexpects":9113,"Ġdenote":9114,"Ġappreciation":9115,"Ġ22":9116,"Ġaffecting":9117,"Ġaffections":9118,"Ġmislead":9119,"Ġmiserable":9120,"Ġprogressing":9121,"Ġgenerality":9122,"Ġgenerations":9123,"Ġobliges":9124,"Ġremarkably":9125,"Ġvariable":9126,"Ġsuperstition":9127,"grant":9128,"Ġaids":9129,"Ġipso":9130,"Ġdraws":9131,"extended":9132,"Ġaffirms":9133,"ĠAny":9134,"differences":9135,"ocent":9136,"connects":9137,"simony":9138,"Ġharmonizes":9139,"blance":9140,"Ġyourselves":9141,"sometimes":9142,"Ġbrief":9143,"ĠYes":9144,"Ġundisturbed":9145,"hapsod":9146,"iae":9147,"Ġvolume":9148,"Ġfutility":9149,"Ġjudicial":9150,"Ġdistinctive":9151,"Ġoperate":9152,"Ġintrinsically":9153,"Ġcorrective":9154,"Ġlieu":9155,"Ġabsor":9156,"Ġpretence":9157,"limitations":9158,"indefinite":9159,"Ġceaseless":9160,"Ġintuites":9161,"Ġleaden":9162,"Ġcontinuance":9163,"Ġdynamically":9164,"ĠUniverse":9165,"presence":9166,"Ġsupports":9167,"Ġsupporting":9168,"Ġexhibition":9169,"Ġtransfers":9170,"ĠExt":9171,"intelligent":9172,"intelligibility":9173,"justification":9174,"Ġrecognises":9175,"Ġrecognised":9176,"Ġcombines":9177,"ordinate":9178,"Ġinsignific":9179,"Ġdesignated":9180,"Ġabstracting":9181,"removed":9182,"legal":9183,"Ġdonation":9184,"Ġdonors":9185,"aska":9186,"Ġsurr":9187,"Ġsurpass":9188,"Ġsurrender":9189,"Ġsurrept":9190,"Ġsurveyed":9191,"Ġsurvive":9192,"Ġoccupying":9193,"Ġdelight":9194,"Ġkept":9195,"attered":9196,"attack":9197,"Ġapprove":9198,"commerci":9199,"Ġreferring":9200,"Ġcircumference":9201,"Ġorganism":9202,"product":9203,"Ġagreeable":9204,"Ġagreeableness":9205,"Ġsignifications":9206,"ĠJuly":9207,"Ġearlies":9208,"placed":9209,"Ġfurnishing":9210,"considering":9211,"considerable":9212,"people":9213,"ĠKey":9214,"ĠKIND":9215,"Ġtested":9216,"Ġtestimony":9217,"invent":9218,"quantitas":9219,"Ġseparately":9220,"distinguishing":9221,"Ġdisputing":9222,"Ġdisputation":9223,"compare":9224,"ĠREAD":9225,"worthiness":9226,"Ġcarries":9227,"Ġcarried":9228,"Ġcarrying":9229,"Ġaccepts":9230,"Ġacceptation":9231,"Ġspeaks":9232,"divided":9233,"Ġcreate":9234,"Ġcreations":9235,"iberum":9236,"Ġpositions":9237,"myst":9238,"atae":9239,"architect":9240,"Ġgains":9241,"Ġgaining":9242,"confusion":9243,"confirmed":9244,"ĠState":9245,"ĠStaple":9246,"Ġsimilarly":9247,"cret":9248,"created":9249,"value":9250,"Ġscattered":9251,"Ġinterfere":9252,"Ġintermediate":9253,"Ġintervention":9254,"Ġinterpreted":9255,"Ġconversation":9256,"Ġwisely":9257,"Ġcollective":9258,"originally":9259,"originates":9260,"conformability":9261,"mortal":9262,"realitas":9263,"Ġtranscending":9264,"Ġtranscription":9265,"Ġtranscribe":9266,"Ġheterogeneity":9267,"ĠANTITHESIS":9268,"demonstrate":9269,"judged":9270,"criterion":9271,"greatness":9272,"Ġborne":9273,"Ġreciprocity":9274,"Ġprivativum":9275,"Ġprivilege":9276,"concealed":9277,"explained":9278,"Ġarts":9279,"providing":9280,"Ġequals":9281,"discovering":9282,"Ġcomprehending":9283,"Release":9284,"Ġ95":9285,"Ġ99":9286,"Ġfailing":9287,"Ġsophistries":9288,"antecede":9289,"Ġanalogon":9290,"denial":9291,"Ġbackwards":9292,"ĠImper":9293,"Ġdetect":9294,"Ġdetail":9295,"Ġinduces":9296,"Ġhumility":9297,"Ġhumble":9298,"Ġpracticability":9299,"Ġprocessing":9300,"Ġventures":9301,"Ġventured":9302,"veloped":9303,"airban":9304,"uitous":9305,"Ġturns":9306,"Ġweighty":9307,"Ġstudies":9308,"Ġcontributing":9309,"Ġdiscerning":9310,"manifest":9311,"Ġelevates":9312,"Ġantecedentia":9313,"looked":9314,"nexus":9315,"posted":9316,"postulate":9317,"Ġpunished":9318,"Ġpunishments":9319,"Ġmistrust":9320,"Ġdestined":9321,"Ġdestitute":9322,"Ġpreserved":9323,"ĠDefect":9324,"ĠDependence":9325,"ĠDecember":9326,"continually":9327,"Ġ2000":9328,"Ġ2004":9329,"EDIES":9330,"Ġmarket":9331,"Ġglance":9332,"Ġglass":9333,"Ġglorious":9334,"Ġintentionally":9335,"Ġcapability":9336,"Ġnecessitates":9337,"Ġqualification":9338,"contingency":9339,"attempted":9340,"gression":9341,"Ġcrown":9342,"consequentia":9343,"indicating":9344,"expresses":9345,"expressed":9346,"expressions":9347,"ĠPUNI":9348,"ĠPURPOSE":9349,"negation":9350,"Ġprofession":9351,"Ġprofesses":9352,"Ġproportionate":9353,"junct":9354,"Ġincreasing":9355,"steps":9356,"Ġexcites":9357,"superfluous":9358,"Ġshortest":9359,"Ġguards":9360,"Ġguarding":9361,"legislating":9362,"ĠÃ¦sthetical":9363,"START":9364,"bidden":9365,"elev":9366,"operations":9367,"porated":9368,"Ġboldly":9369,"Ġprosyllogism":9370,"Ġextricate":9371,"Ġdevi":9372,"Ġdevote":9373,"ĠChange":9374,"ĠDoes":9375,"Ġstronger":9376,"Ġoccurred":9377,"Ġoccurrence":9378,"Ġblindly":9379,"Ġgenuineness":9380,"Concl":9381,"SEQU":9382,"signifies":9383,"Ġ64":9384,"Ġprimacy":9385,"Ġtaxes":9386,"concerns":9387,"concerning":9388,"PLEAS":9389,"PLIED":9390,"finds":9391,"passages":9392,"Ġlisten":9393,"concilable":9394,"ĠĠĠĠĠĠĠĠĠĠĠĠĠĠ":9395,"Ġheads":9396,"additional":9397,"ĠNOTICE":9398,"ĠEverything":9399,"Ġillustrating":9400,"Ġconfessed":9401,"EMNITY":9402,"deductible":9403,"equal":9404,"equality":9405,"intermediate":9406,"Ġprototyp":9407,"iliary":9408,"Ġmeasured":9409,"Ġmeasurement":9410,"ĠWhy":9411,"Ġsubstantia":9412,"ĠDisc":9413,"Ġ1500":9414,"Ġanticipations":9415,"Ġroots":9416,"Ġcontemplates":9417,"PRESS":9418,"directly":9419,"doubtful":9420,"falls":9421,"fallacies":9422,"single":9423,"Ġtreasure":9424,"restricting":9425,"attributes":9426,"attributed":9427,"Ġrejecting":9428,"Ġrejected":9429,"Ġhypocrisy":9430,"imperatives":9431,"importance":9432,"versa":9433,"Ġattract":9434,"transcendentally":9435,"Ġevidences":9436,"ĠPhenomenal":9437,"Ġprejudices":9438,"ĠCONTRA":9439,"ĠCONCEPTION":9440,"ĠCONSEQU":9441,"Ġdescent":9442,"Ġdescend":9443,"Ġdescription":9444,"Ġcommenced":9445,"Ġcommunication":9446,"ĠREMEDIES":9447,"Ġadmirable":9448,"CTRIN":9449,"bodies":9450,"decided":9451,"Ġtypes":9452,"Ġclearest":9453,"Ġcurved":9454,"Ġisolate":9455,"Ġlocations":9456,"ĠINTRODUCTION":9457,"ĠINCLUDING":9458,"Ġordered":9459,"pleasantness":9460,"Ġpremiss":9461,"ĠNeg":9462,"ĠMatthew":9463,"ĠMetaphysics":9464,"Ġapproximation":9465,"Ġcounterpo":9466,"Ġcultivate":9467,"Experience":9468,"clearly":9469,"sources":9470,"Ġdriven":9471,"Ġdimension":9472,"conclusion":9473,"conclusions":9474,"progression":9475,"ĠEBOOKS":9476,"approach":9477,"approbation":9478,"Ġapprehended":9479,"Ġhonourable":9480,"occupy":9481,"affirmative":9482,"colour":9483,"modes":9484,"prominently":9485,"enlargement":9486,"enlarged":9487,"Ġcentre":9488,"seek":9489,"Ġdamage":9490,"Ġdamaged":9491,"arbitrarily":9492,"arbitrium":9493,"Ġannouncement":9494,"resulting":9495,"ĠOrigin":9496,"Ġindefinitely":9497,"ĠHimself":9498,"ĠANYTHING":9499,"ABLE":9500,"CIDENTAL":9501,"SIBILITY":9502,"moving":9503,"variety":9504,"Ġincite":9505,"Ġinstructed":9506,"Ġmundo":9507,"Ġerecting":9508,"Ġerected":9509,"searchable":9510,"Ġrepeat":9511,"conducted":9512,"Ġuniformity":9513,"Ġviolence":9514,"Ġviolates":9515,"anticipate":9516,"Ġsubmits":9517,"agreeableness":9518,"Ġattacking":9519,"Ġconcealed":9520,"Ġsuperiority":9521,"gradually":9522,"ĠAntithetic":9523,"demands":9524,"Ġhumiliating":9525,"ĠPhysical":9526,"ĠPhysico":9527,"problematically":9528,"ĠIntuitions":9529,"CLAIM":9530,"Ġafraid":9531,"Ġmidst":9532,"Ġflattering":9533,"ĠBefore":9534,"ĠBeyond":9535,"Ġsharing":9536,"Ġcharm":9537,"Ġcharges":9538,"ĠWARRANTIES":9539,"Ġdespise":9540,"Ġenumerate":9541,"ĠEXPRESS":9542,"Ġcomputers":9543,"Ġcompensation":9544,"Ġguarantee":9545,"Ġwitnesses":9546,"Ġirreconcilable":9547,"LIGENCE":9548,"bounds":9549,"boundaries":9550,"furnish":9551,"furnishes":9552,"mistake":9553,"uctible":9554,"wanting":9555,"Ġzeal":9556,"Ġpresses":9557,"Ġpaperwork":9558,"Ġtouching":9559,"Ġtouchstone":9560,"impression":9561,"Ġlicensed":9562,"Ġlurking":9563,"Ġdetriment":9564,"Ġdetrimental":9565,"Ġspoil":9566,"Ġspoken":9567,"idealism":9568,"Ġvacuum":9569,"practised":9570,"ĠSTRICT":9571,"ĠSometimes":9572,"ĠNorth":9573,"Ġsubstituted":9574,"intuited":9575,"formulae":9576,"Ġphilosophize":9577,"assuming":9578,"Ġentertained":9579,"Ġindiscern":9580,"accidental":9581,"accidentally":9582,"Ġcoincides":9583,"Ġconvenient":9584,"ĠANALOGY":9585,"continuation":9586,"Ġaccompanying":9587,"dogmatism":9588,"Space":9589,"Speculative":9590,"culture":9591,"Ġoffering":9592,"Ġsilence":9593,"Ġinextricable":9594,"annihilation":9595,"qualities":9596,"deviate":9597,"defective":9598,"Ġperplexity":9599,"excluding":9600,"Ġsteadily":9601,"Ġsteadfast":9602,"ĠAbb":9603,"ĠParticular":9604,"Ġdissimilarity":9605,"Ġparticipating":9606,"classification":9607,"previously":9608,"inevitably":9609,"ĠDISCLAIM":9610,"Ġawakening":9611,"Ġawakened":9612,"deserving":9613,"Ġdeliberation":9614,"communicated":9615,"involves":9616,"involved":9617,"Ġindubitably":9618,"Ġembraced":9619,"Defects":9620,"Granted":9621,"cosmical":9622,"ipped":9623,"meritorious":9624,"peculiarity":9625,"sighted":9626,"Ġidle":9627,"increasing":9628,"introduced":9629,"Ġinnocent":9630,"Ġincorporated":9631,"seems":9632,"Ġdarkness":9633,"thoroughly":9634,"endeavours":9635,"Ġcasts":9636,"Ġcomprises":9637,"transcend":9638,"Ġruin":9639,"Ġvital":9640,"geometry":9641,"geometrical":9642,"Ġperceives":9643,"Ġperceiving":9644,"exhibited":9645,"Ġdisguise":9646,"Ġdisguised":9647,"Ġnearly":9648,"ĠGerman":9649,"probability":9650,"ĠDespite":9651,"ĠDescartes":9652,"ĠMississipp":9653,"Ġ1787":9654,"Ġfriend":9655,"Ġfriends":9656,"Ġcounsels":9657,"Ġdeficient":9658,"Ġescaping":9659,"Ġescaped":9660,"supported":9661,"proportioned":9662,"OSSIBILITY":9663,"PROJECT":9664,"magnitude":9665,"schol":9666,"yielding":9667,"Ġauthentic":9668,"Ġastronom":9669,"Ġtheorem":9670,"Ġwarns":9671,"Ġcensure":9672,"Ġinspire":9673,"ancendent":9674,"Ġrefined":9675,"Ġrevelation":9676,"Ġlowest":9677,"ĠINDIRECT":9678,"Ġspeculations":9679,"estimation":9680,"Ġriches":9681,"Ġrigorous":9682,"Ġrarely":9683,"Ġperpetually":9684,"Ġreluctant":9685,"Ġpreparation":9686,"Ġcommercial":9687,"Ġinfringement":9688,"accordant":9689,"descending":9690,"Ġappropriated":9691,"Ġchemical":9692,"Ġfacilitate":9693,"confirms":9694,"Ġtautology":9695,"Ġdownloading":9696,"guarded":9697,"observations":9698,"Ġbeneficent":9699,"anthropomorphism":9700,"Ġrecommendation":9701,"professing":9702,"Although":9703,"Against":9704,"Synthetical":9705,"VIDED":9706,"dangerous":9707,"false":9708,"ipses":9709,"members":9710,"smelling":9711,"touch":9712,"written":9713,"Ġromance":9714,"Ġtemperament":9715,"Ġsorrow":9716,"Ġpetty":9717,"Ġincontestably":9718,"Ġbeside":9719,"Ġellipse":9720,"Ġeconom":9721,"Ġlofty":9722,"ĠIMPLIED":9723,"hensions":9724,"Ġuninterrupted":9725,"Ġunanswerable":9726,"Ġsociety":9727,"Ġtrades":9728,"Ġtroubling":9729,"Ġimpracticable":9730,"Ġstopped":9731,"ĠPerson":9732,"ĠSensuous":9733,"ĠOpinion":9734,"ĠGospel":9735,"Ġgratefully":9736,"Ġremedy":9737,"ĠEnglish":9738,"Ġamidst":9739,"ĠDOCTRIN":9740,"Ġinviolable":9741,"Ġindulge":9742,"Ġaffairs":9743,"Ġassertorically":9744,"Ġantiquity":9745,"Ġcoalition":9746,"Ġundeniable":9747,"Ġvoluntary":9748,"ĠArguments":9749,"Ġfancied":9750,"Ġextravagant":9751,"significance":9752,"Ġcomplaints":9753,"Ġanthropomorphic":9754,"circumst":9755,"ĠMonadists":9756,"Mathematics":9757,"towards":9758,"62215":9759,"Fourthly":9760,"NESS":9761,"PPENDIX":9762,"WARRANTIES":9763,"iosity":9764,"txt":9765,"Ġtedious":9766,"Ġtantamount":9767,"Ġachieve":9768,"Ġauxiliary":9769,"Ġcursory":9770,"Ġcushion":9771,"Ġsemblance":9772,"Ġincontrovert":9773,"Ġfingers":9774,"Ġearnest":9775,"Ġepoch":9776,"Ġbehaviour":9777,"ivocal":9778,"imilarly":9779,"Ġgenealogical":9780,"ĠTRANSITION":9781,"Ġunanimously":9782,"Ġsprung":9783,"Ġrapid":9784,"Ġembell":9785,"Ġtravel":9786,"Ġtriumph":9787,"Ġvulgar":9788,"ĠFROM":9789,"ĠFITNESS":9790,"ĠAugust":9791,"ĠAesthetic":9792,"ĠPreface":9793,"Ġchapters":9794,"ĠSUCH":9795,"ĠNEGLIGENCE":9796,"intuitus":9797,"ĠCHAPTER":9798,"ĠCopernic":9799,"ĠReplacement":9800,"ĠMERCHANT":9801,"Ġindestructible":9802,"ENTIAL":9803,"Ġlegitimacy":9804,"Ġinsignificant":9805,"Ġsurreptitious":9806,"commercium":9807,"Ġearliest":9808,"ĠStapleton":9809,"airbanks":9810,"ĠPUNITIVE":9811,"Ġprototype":9812,"ĠCONTRACT":9813,"ĠCONCEPTIONS":9814,"ĠCONSEQUENTIAL":9815,"Ġcounterpoise":9816,"ĠDISCLAIMER":9817,"ĠMississippi":9818,"ĠDOCTRINE":9819,"ĠMERCHANTABILITY":9820,"\"),":9821,"($":9822,")-":9823,")?":9824,"*(":9825,".]":9826,".),":9827,"02":9828,"04":9829,"12":9830,"14":9831,"19":9832,"178":9833,"21":9834,"23":9835,"24":9836,"25":9837,"26":9838,"27":9839,"28":9840,"29":9841,"30":9842,"31":9843,"32":9844,"33":9845,"34":9846,"35":9847,"36":9848,"37":9849,"38":9850,"42":9851,"43":9852,"44":9853,"46":9854,"47":9855,"48":9856,"49":9857,"4280":9858,"51":9859,"52":9860,"53":9861,"54":9862,"56":9863,"58":9864,"59":9865,"60":9866,"61":9867,"62":9868,"63":9869,"64":9870,"65":9871,"66":9872,"67":9873,"69":9874,"70":9875,"72":9876,"73":9877,"74":9878,"76":9879,"77":9880,"81":9881,"87":9882,"96":9883,";[":9884,"AF":9885,"AT":9886,"AY":9887,"ARA":9888,"AIN":9889,"Arist":9890,"Apperception":9891,"APPENDIX":9892,"BC":9893,"BJEC":9894,"Between":9895,"Che":9896,"Com":9897,"Certain":9898,"Categor":9899,"Crit":9900,"Cosmological":9901,"Critical":9902,"Creating":9903,"DIC":9904,"Dialectic":9905,"DEM":9906,"DAMAG":9907,"Different":9908,"DITION":9909,"DURE":9910,"EI":9911,"End":9912,"FUND":9913,"GRA":9914,"GEMENT":9915,"GENERAL":9916,"His":9917,"Human":9918,"Have":9919,"HIL":9920,"Im":9921,"ITH":9922,"IGHT":9923,"Ju":9924,"LL":9925,"Logical":9926,"Last":9927,"Love":9928,"Logic":9929,"Locke":9930,"LEMENT":9931,"LAF":9932,"Me":9933,"MAL":9934,"MENT":9935,"Michael":9936,"NO":9937,"Non":9938,"NER":9939,"Or":9940,"ORO":9941,"Ple":9942,"Possib":9943,"Part":9944,"Plato":9945,"RS":9946,"Reven":9947,"RTH":9948,"STHE":9949,"Thing":9950,"Two":9951,"US":9952,"Upon":9953,"UAL":9954,"Unt":9955,"USI":9956,"Updated":9957,"VII":9958,"Volunteers":9959,"WNER":9960,"Yes":9961,"YST":9962,"].":9963,"_[":9964,"ah":9965,"aut":9966,"aud":9967,"astr":9968,"adequ":9969,"augment":9970,"bi":9971,"bat":9972,"bes":9973,"bus":9974,"ball":9975,"bser":9976,"back":9977,"besides":9978,"bnew":9979,"bungl":9980,"cs":9981,"cence":9982,"cher":9983,"cover":9984,"cible":9985,"cert":9986,"cob":9987,"covered":9988,"civil":9989,"citiz":9990,"casus":9991,"crowd":9992,"dur":9993,"dam":9994,"doll":9995,"dile":9996,"data":9997,"drop":9998,"dimin":9999,"ditio":10000,"ew":10001,"ein":10002,"eper":10003,"egr":10004,"ebr":10005,"eometr":10006,"eveloped":10007,"fan":10008,"fence":10009,"fict":10010,"full":10011,"fix":10012,"flection":10013,"faces":10014,"fru":10015,"filled":10016,"fancy":10017,"fanci":10018,"gn":10019,"gy":10020,"gest":10021,"gone":10022,"gover":10023,"gained":10024,"hic":10025,"hist":10026,"hind":10027,"hart":10028,"hop":10029,"hold":10030,"hyp":10031,"hio":10032,"hitherto":10033,"holiness":10034,"homogeneity":10035,"iog":10036,"iary":10037,"iently":10038,"jacent":10039,"kingdom":10040,"lor":10041,"lose":10042,"link":10043,"llect":10044,"laid":10045,"lcome":10046,"loc":10047,"lio":10048,"lix":10049,"lurality":10050,"liability":10051,"mn":10052,"mal":10053,"mill":10054,"mour":10055,"moun":10056,"mark":10057,"mund":10058,"mov":10059,"munity":10060,"macy":10061,"mock":10062,"moments":10063,"night":10064,"null":10065,"nicious":10066,"oh":10067,"oqu":10068,"oca":10069,"ober":10070,"pict":10071,"past":10072,"putes":10073,"pob":10074,"putable":10075,"piece":10076,"rd":10077,"ral":10078,"ros":10079,"rum":10080,"rary":10081,"rible":10082,"rances":10083,"ront":10084,"rium":10085,"rash":10086,"rhapsod":10087,"sin":10088,"spl":10089,"sies":10090,"sound":10091,"sought":10092,"sake":10093,"sided":10094,"scribed":10095,"sciences":10096,"tw":10097,"tre":10098,"tact":10099,"tort":10100,"tology":10101,"task":10102,"temper":10103,"tlest":10104,"ugg":10105,"useless":10106,"upright":10107,"uphold":10108,"vous":10109,"vict":10110,"vered":10111,"voc":10112,"vocation":10113,"wond":10114,"wished":10115,"welf":10116,"water":10117,"wrong":10118,"wants":10119,"ypon":10120,"yers":10121,"zer":10122,"zism":10123,"Ġ&":10124,"Ġq":10125,"Ġer":10126,"Ġil":10127,"Ġvel":10128,"ĠQU":10129,"Ġ*****":10130,"Ġtib":10131,"Ġtur":10132,"Ġtrem":10133,"Ġtends":10134,"Ġtutor":10135,"heart":10136,"Ġathe":10137,"Ġapt":10138,"Ġaver":10139,"Ġawe":10140,"Ġaequ":10141,"Ġaversion":10142,"ones":10143,"onent":10144,"ina":10145,"inj":10146,"inable":10147,"inated":10148,"inward":10149,"inning":10150,"inability":10151,"incomp":10152,"internally":10153,"inery":10154,"inheres":10155,"inconceivable":10156,"Ġopt":10157,"Ġomission":10158,"Ġthee":10159,"Ġtheist":10160,"reject":10161,"reve":10162,"redu":10163,"reach":10164,"relu":10165,"received":10166,"rehension":10167,"reption":10168,"recomm":10169,"repe":10170,"recognize":10171,"resem":10172,"repute":10173,"reputation":10174,"ital":10175,"itial":10176,"itating":10177,"itudes":10178,"ititious":10179,"isi":10180,"isse":10181,"ister":10182,"isol":10183,"isyllogism":10184,"iscovered":10185,"enn":10186,"encour":10187,"enforce":10188,"ats":10189,"aten":10190,"atical":10191,"ature":10192,"attr":10193,"aturn":10194,"Ġwal":10195,"Ġwent":10196,"Ġwound":10197,"Ġwarr":10198,"Ġwret":10199,"Ġwild":10200,"Ġwrest":10201,"Ġwrought":10202,"Ġwatch":10203,"erm":10204,"erv":10205,"eron":10206,"eration":10207,"erate":10208,"erum":10209,"erring":10210,"erving":10211,"Ġcou":10212,"Ġcun":10213,"Ġcert":10214,"Ġcath":10215,"Ġcount":10216,"Ġcub":10217,"Ġcasus":10218,"Ġcrowd":10219,"Ġcodes":10220,"Ġsi":10221,"Ġsal":10222,"Ġsend":10223,"Ġsink":10224,"Ġsap":10225,"Ġsites":10226,"Ġsadly":10227,"Ġpu":10228,"Ġpal":10229,"Ġpus":10230,"Ġpill":10231,"Ġpause":10232,"Ġpoly":10233,"Ġpomp":10234,"Ġpush":10235,"alar":10236,"altern":10237,"alleg":10238,"alterable":10239,"icing":10240,"ican":10241,"iced":10242,"icros":10243,"Ġinan":10244,"Ġinform":10245,"Ġinsen":10246,"Ġinane":10247,"Ġinexpl":10248,"Ġincompar":10249,"Ġinestim":10250,"Ġinconceivable":10251,"Ġinhabit":10252,"Ġinstructive":10253,"Ġinequality":10254,"Ġban":10255,"Ġbow":10256,"Ġbare":10257,"Ġblessed":10258,"esult":10259,"esca":10260,"Ġthine":10261,"Ġthresh":10262,"Ġthousand":10263,"orter":10264,"orably":10265,"origination":10266,"Ġtou":10267,"Ġtold":10268,"Ġmir":10269,"Ġmus":10270,"Ġmill":10271,"Ġmover":10272,"celebrated":10273,"ctyp":10274,"ctification":10275,"ctantly":10276,"ctober":10277,"Ġfain":10278,"Ġfif":10279,"Ġfame":10280,"Ġfight":10281,"Ġfra":10282,"Ġfatum":10283,"Ġflight":10284,"Ġfier":10285,"analytic":10286,"animity":10287,"Ġnes":10288,"Ġnations":10289,"Ġnet":10290,"Ġnisi":10291,"Ġeb":10292,"Ġeul":10293,"Ġeff":10294,"Ġelect":10295,"Ġectyp":10296,"sever":10297,"sett":10298,"severest":10299,"secret":10300,"oup":10301,"oure":10302,"Ġrely":10303,"Ġreign":10304,"Ġreward":10305,"Ġrecall":10306,"Ġreap":10307,"Ġrenew":10308,"Ġrecap":10309,"Ġreproduction":10310,"Ġretrace":10311,"Ġrerum":10312,"Ġretort":10313,"lege":10314,"leology":10315,"left":10316,"Ġcone":10317,"Ġconqu":10318,"Ġconced":10319,"Ġcondem":10320,"Ġconvey":10321,"Ġconveyed":10322,"Ġconducive":10323,"Ġconditio":10324,"Ġdil":10325,"Ġdie":10326,"Ġdress":10327,"Ġdates":10328,"Ġdial":10329,"Ġdull":10330,"Ġdiction":10331,"Ġdumb":10332,"Ġduc":10333,"Ġdrew":10334,"Ġbead":10335,"Ġbeque":10336,"Ġbefits":10337,"stain":10338,"start":10339,"stac":10340,"states":10341,"starr":10342,"stability":10343,"status":10344,"omas":10345,"omain":10346,"ompl":10347,"omaly":10348,"omni":10349,"omnit":10350,"entities":10351,"Ġwhol":10352,"otot":10353,"aring":10354,"arol":10355,"arond":10356,"arities":10357,"asp":10358,"asur":10359,"ascribed":10360,"asibility":10361,"utche":10362,"utmost":10363,"ections":10364,"ectyp":10365,"Ġhide":10366,"Ġhost":10367,"Ġhover":10368,"Ġhole":10369,"Ġprize":10370,"Ġprae":10371,"Ġproud":10372,"Ġprogram":10373,"Ġaspir":10374,"lling":10375,"lled":10376,"theore":10377,"thening":10378,"Ġum":10379,"ivial":10380,"ivisible":10381,"iveness":10382,"ivoca":10383,"imm":10384,"impose":10385,"imposes":10386,"improv":10387,"immortality":10388,"immaterial":10389,"ossess":10390,"osoph":10391,"Ġanxious":10392,"Ġanterior":10393,"Ġanomaly":10394,"Ġexceed":10395,"Ġexchange":10396,"Ġexcess":10397,"Ġexerted":10398,"Ġexempl":10399,"Ġexhort":10400,"Ġlend":10401,"Ġlust":10402,"Ġloth":10403,"Ġlack":10404,"Ġliable":10405,"Ġlau":10406,"Ġlux":10407,"Ġlucid":10408,"Ġliberum":10409,"Ġnotifies":10410,"ptuously":10411,"jective":10412,"Ġweari":10413,"Ġweighed":10414,"Ġwelcome":10415,"ithful":10416,"Ġfort":10417,"Ġforbe":10418,"Ġforcing":10419,"Ġforfe":10420,"Ġforsakes":10421,"idity":10422,"idens":10423,"idger":10424,"idnight":10425,"Ġsupre":10426,"Ġsuspect":10427,"Ġsuited":10428,"Ġsunt":10429,"ibib":10430,"ibles":10431,"ibrium":10432,"ceptation":10433,"ceptical":10434,"ceptible":10435,"teronomy":10436,"ureans":10437,"ldarond":10438,"iration":10439,"irgin":10440,"Ġwithstand":10441,"Ġgout":10442,"Ġgaps":10443,"Ġgbnew":10444,"Ġgerm":10445,"urp":10446,"urred":10447,"ciate":10448,"ĠIRS":10449,"versely":10450,"qui":10451,"querable":10452,"ogue":10453,"resides":10454,"istences":10455,"Ġorator":10456,"Ġorbits":10457,"erer":10458,"erect":10459,"Ġcanst":10460,"aindrop":10461,"ecum":10462,"ecutive":10463,"ecundity":10464,"ifling":10465,"andi":10466,"ando":10467,"andal":10468,"anded":10469,"andom":10470,"sels":10471,"permit":10472,"perceived":10473,"persist":10474,"permission":10475,"perpet":10476,"perplex":10477,"pertains":10478,"persuasion":10479,"sibly":10480,"Ġallot":10481,"Ġallure":10482,"Ġallied":10483,"romise":10484,"ulzer":10485,"Ġprolix":10486,"emy":10487,"emin":10488,"empiric":10489,"Ġreasonably":10490,"veil":10491,"ateful":10492,"consol":10493,"condem":10494,"conveyed":10495,"converted":10496,"conducive":10497,"conjunct":10498,"conversely":10499,"conquerable":10500,"chie":10501,"charge":10502,"chasm":10503,"charities":10504,"Ġdeter":10505,"Ġdefe":10506,"Ġdearest":10507,"Ġdelet":10508,"Ġdeeper":10509,"Ġdepict":10510,"endations":10511,"endour":10512,"endels":10513,"ored":10514,"Ġintact":10515,"Ġintimate":10516,"Ġintimid":10517,"Ġintegr":10518,"ilation":10519,"ilanthrop":10520,"ilibrium":10521,"activity":10522,"Ġalarm":10523,"Ġallege":10524,"usable":10525,"usiveness":10526,"Ġhaph":10527,"illain":10528,"illustr":10529,"ampl":10530,"amination":10531,"amps":10532,"amorph":10533,"plies":10534,"plays":10535,"planation":10536,"places":10537,"placing":10538,"pliance":10539,"plausible":10540,"Ġunw":10541,"Ġunre":10542,"Ġuntr":10543,"Ġunsh":10544,"Ġunjust":10545,"Ġunreal":10546,"Ġunnecessarily":10547,"Ġunqual":10548,"Ġunbelief":10549,"Ġunexception":10550,"Ġunsatisfied":10551,"Ġunchanged":10552,"Ġunusual":10553,"Ġuninfluenced":10554,"Ġunrestricted":10555,"Ġunbidden":10556,"Ġunyielding":10557,"Ġunguarded":10558,"Ġunlink":10559,"Ġunerring":10560,"Ġunalterable":10561,"Ġunsett":10562,"Ġunconquerable":10563,"ditions":10564,"ditional":10565,"abol":10566,"abile":10567,"abiding":10568,"abilities":10569,"abyss":10570,"selfish":10571,"olence":10572,"olens":10573,"olved":10574,"ollection":10575,"detr":10576,"depre":10577,"depart":10578,"deceived":10579,"deistic":10580,"defence":10581,"Ġcael":10582,"Ġcaution":10583,"Ġcautious":10584,"Ġ(\"":10585,"Ġ(*":10586,"igence":10587,"igour":10588,"ansas":10589,"minor":10590,"iestle":10591,"Ġspur":10592,"Ġspher":10593,"Ġsport":10594,"Ġcomets":10595,"trod":10596,"tried":10597,"track":10598,"tranqu":10599,"off":10600,"offer":10601,"esting":10602,"Ġrot":10603,"Ġrich":10604,"Ġrose":10605,"Ġrude":10606,"Ġraces":10607,"Ġriver":10608,"Ġrhet":10609,"Ġraindrop":10610,"Ġempire":10611,"Ġworse":10612,"Ġexistent":10613,"Ġexistential":10614,"Ġmel":10615,"Ġmelt":10616,"herself":10617,"Ġtries":10618,"Ġtrial":10619,"Ġtraces":10620,"Ġtriang":10621,"Ġtranqu":10622,"Ġtrivial":10623,"Ġtrifling":10624,"ctions":10625,"Ġwillingly":10626,"foreign":10627,"foreseen":10628,"Ġva":10629,"Ġvast":10630,"Ġvigour":10631,"ĠBerke":10632,"usement":10633,"useful":10634,"aked":10635,"Ġimpre":10636,"Ġimmaterial":10637,"Ġimproved":10638,"Ġimmortal":10639,"Ġperish":10640,"Ġperman":10641,"Ġpertains":10642,"Ġpervert":10643,"Ġpernicious":10644,"orially":10645,"Ġformarum":10646,"Ġnative":10647,"Ġnatura":10648,"Ġnobl":10649,"pron":10650,"prag":10651,"Ġabsol":10652,"Ġabund":10653,"ameter":10654,"posits":10655,"positio":10656,"Ġregions":10657,"Ġregret":10658,"Ġregulated":10659,"suppos":10660,"supposed":10661,"supposing":10662,"suitable":10663,"succeed":10664,"Ġkat":10665,"Ġknew":10666,"indifference":10667,"indispensably":10668,"indulgence":10669,"Ġusurp":10670,"Ġshame":10671,"Ġshake":10672,"Ġshine":10673,"Ġshaken":10674,"Ġshield":10675,"Ġshared":10676,"Ġshorter":10677,"antagon":10678,"ĠFunction":10679,"ĠFull":10680,"ĠFAC":10681,"ĠFairbanks":10682,"ĠFebr":10683,"outside":10684,"outset":10685,"phil":10686,"phrase":10687,"Ġcognise":10688,"Ġcogniz":10689,"Ġcognitio":10690,"Ġcognisable":10691,"Ġsea":10692,"Ġseyn":10693,"exec":10694,"exto":10695,"exert":10696,"externally":10697,"excell":10698,"exhausted":10699,"exterior":10700,"exactly":10701,"udo":10702,"Ġquib":10703,"Ġideally":10704,"Ġreliable":10705,"Ġstat":10706,"Ġstone":10707,"Ġstory":10708,"Ġstars":10709,"Ġstored":10710,"Ġevade":10711,"wholly":10712,"anced":10713,"ĠAK":10714,"ĠAS":10715,"ĠAre":10716,"ĠAff":10717,"ĠACT":10718,"ĠAldarond":10719,"Ġjugg":10720,"Ġjesting":10721,"ource":10722,"Ġaccum":10723,"Ġaccused":10724,"Ġaccru":10725,"Ġaccredit":10726,"acid":10727,"acknowled":10728,"acceptation":10729,"Ġmanhood":10730,"ultimate":10731,"ultaneity":10732,"Ġunderstandings":10733,"sequence":10734,"care":10735,"Ġadjust":10736,"Ġadjacent":10737,"Ġadjective":10738,"forward":10739,"ĠPO":10740,"ĠPER":10741,"ĠPublic":10742,"ĠPlease":10743,"ĠPolem":10744,"ĠPOSSIBILITY":10745,"ĠPARA":10746,"ĠPHIL":10747,"ĠPlurality":10748,"Ġdismis":10749,"Ġdisadvantage":10750,"Ġdisposing":10751,"Ġdisappro":10752,"Ġdiscontinu":10753,"Ġdiscontinue":10754,"Ġdispleases":10755,"Ġdisrepute":10756,"unite":10757,"unted":10758,"units":10759,"uncertain":10760,"unnecessary":10761,"unities":10762,"unlimited":10763,"uncertainty":10764,"uniting":10765,"until":10766,"unfortun":10767,"unceasing":10768,"unchangeable":10769,"untrue":10770,"uniform":10771,"unciated":10772,"unsearchable":10773,"positions":10774,"),[":10775,"sohn":10776,"Ġyaw":10777,"Ġyoke":10778,"Ġknowable":10779,"etus":10780,"etting":10781,"etched":10782,"Ġprecl":10783,"Ġpreference":10784,"Ġprefers":10785,"Ġpreposited":10786,"Ġprecaution":10787,"Ġpreponder":10788,"Ġpremise":10789,"Ġpremonition":10790,"ĠThough":10791,"ĠThirdly":10792,"ĠThomas":10793,"strong":10794,"strings":10795,"striking":10796,"Ġchamp":10797,"eneration":10798,"enerally":10799,"Ġrepresentative":10800,"Ġsomewhere":10801,"Ġeveryday":10802,"spaces":10803,"Ġsyntheses":10804,"Ġarouse":10805,"Ġardent":10806,"Ġarmour":10807,"ĠSU":10808,"ĠSing":10809,"ĠSense":10810,"ĠSEND":10811,"ĠSalt":10812,"ĠSecond":10813,"ĠSenses":10814,"ĠSciences":10815,"ĠSpirit":10816,"ĠSimilarly":10817,"ĠSMAL":10818,"ĠSaturn":10819,"ĠSceptical":10820,"Ġphilanthrop":10821,"solved":10822,"ĠName":10823,"ĠNoumen":10824,"ĠNihil":10825,"ĠNearly":10826,"ĠNovember":10827,"ensity":10828,"ensome":10829,"oying":10830,"oyed":10831,"nesses":10832,"Ġsubdu":10833,"Ġsubsid":10834,"prepar":10835,"predetermined":10836,"prehensible":10837,"prepared":10838,"preponder":10839,"ĠOtherwise":10840,"ĠOWNER":10841,"ĠOctober":10842,"possibilities":10843,"Ġfrees":10844,"imitable":10845,"conditional":10846,"ĠIncl":10847,"beho":10848,"Ġcertainties":10849,"Ġcompleting":10850,"Ġplun":10851,"Ġplays":10852,"Ġcontending":10853,"orting":10854,"ortunities":10855,"ĠGover":10856,"ĠGenerally":10857,"ĠWould":10858,"ĠWell":10859,"ĠWOR":10860,"ĠWIL":10861,"ĠWITH":10862,"ĠWidger":10863,"Ġending":10864,"Ġenduring":10865,"Ġwhenever":10866,"ployment":10867,"Ġgroup":10868,"Ġgrasp":10869,"gory":10870,"Ġcontrari":10871,"Ġgold":10872,"Theological":10873,"Theoretical":10874,"ĠCity":10875,"ĠCAN":10876,"ĠCOM":10877,"ĠCartes":10878,"ĠCORO":10879,"ĠCarol":10880,"astically":10881,"meet":10882,"measur":10883,"Ġowe":10884,"Ġowed":10885,"Ġconnections":10886,"Ġobno":10887,"Ġobsole":10888,"Ġdesist":10889,"Ġdescribes":10890,"Ġdespot":10891,"Ġfounding":10892,"forming":10893,"Ġdistrust":10894,"Ġcommend":10895,"Ġcommences":10896,"Ġcommencing":10897,"Ġcommerce":10898,"oldest":10899,"Ġfollowers":10900,"arius":10901,"Ġemployee":10902,"Ġwashed":10903,"compl":10904,"commen":10905,"proves":10906,"proposed":10907,"Ġrationalist":10908,"Ġrationalism":10909,"ishable":10910,"Ġrespective":10911,"Ġpurified":10912,"icium":10913,"withdrawn":10914,"Ġremember":10915,"Ġremembered":10916,"Ġdiscord":10917,"ĠHas":10918,"ĠHad":10919,"ĠHitherto":10920,"ĠHarmon":10921,"âĢĿ.":10922,"âĢĿ),":10923,"Ġextol":10924,"Ġextingu":10925,"Ġactor":10926,"Ġactuating":10927,"web":10928,"weak":10929,"weaken":10930,"Ġvaluel":10931,"Ġages":10932,"Ġagency":10933,"overlook":10934,"overstep":10935,"overthrow":10936,"Ġgrounding":10937,"undertaking":10938,"paralogism":10939,"paradox":10940,"medium":10941,"mediable":10942,"Ġenunciation":10943,"Ġenlightened":10944,"Ġenemy":10945,"ĠReci":10946,"ĠRIGHT":10947,"Ġpresume":10948,"Ġpresiding":10949,"ĠEs":10950,"ĠEqu":10951,"ĠEdition":10952,"ĠElucid":10953,"ĠEmail":10954,"ĠEBC":10955,"ĠEDITION":10956,"ĠELEMENT":10957,"Ġoutwe":10958,"Ġoutdated":10959,"Ġexpend":10960,"Ġexpedient":10961,"Ġexporting":10962,"woven":10963,"Ġterminis":10964,"Ġterrible":10965,"Ġreale":10966,"Ġrealitates":10967,"existed":10968,"existences":10969,"Ġamply":10970,"Ġperfections":10971,"sert":10972,"served":10973,"ointed":10974,"ava":10975,"aven":10976,"Ġattends":10977,"mankind":10978,"ogito":10979,"physician":10980,"physiological":10981,"ĠDE":10982,"ĠDest":10983,"ĠDirect":10984,"ĠDON":10985,"ĠDOM":10986,"ĠDomain":10987,"Ġfacti":10988,"hematism":10989,"identity":10990,"identical":10991,"Ġimpure":10992,"Ġimpass":10993,"Ġimplying":10994,"Ġimpair":10995,"Ġimpelling":10996,"Ġimpenetrable":10997,"Ġimpaired":10998,"determinable":10999,"assion":11000,"assent":11001,"assistance":11002,"Ġentities":11003,"Ġentrance":11004,"cognizing":11005,"Ġconstituent":11006,"Ġcorpor":11007,"Thought":11008,"fulfil":11009,"Ġpurposely":11010,"Ġherein":11011,"necessitate":11012,"Ġinfused":11013,"Ġinfancy":11014,"canon":11015,"Ġexplication":11016,"Ġinteresting":11017,"Ġkindness":11018,"ĠMore":11019,"ĠMatter":11020,"ĠModality":11021,"ĠMAY":11022,"ĠMendels":11023,"Ġhandle":11024,"Ġhandles":11025,"ysms":11026,"Ġconcess":11027,"Ġconcur":11028,"Ġdemerit":11029,"Ġstrive":11030,"Ġstray":11031,"Ġstrain":11032,"Ġstriving":11033,"Ġappearing":11034,"Ġrestless":11035,"Ġanalyses":11036,"otheology":11037,"raised":11038,"raft":11039,"Ġrefute":11040,"Ġrefused":11041,"Ġrefusing":11042,"Ġrefrain":11043,"empty":11044,"Ġdivides":11045,"Ġsumm":11046,"Ġsums":11047,"Ġindivisible":11048,"Ġindolence":11049,"Ġdeductible":11050,"Ġcompound":11051,"Ġcompany":11052,"Ġcompulsion":11053,"Ġcompelling":11054,"Ġcompetition":11055,"Ġcompromise":11056,"Ġcompilation":11057,"Ġadvised":11058,"Ġcontradicting":11059,"Ġassumes":11060,"appeared":11061,"events":11062,"ĠLI":11063,"ĠLest":11064,"ĠLogicians":11065,"regulate":11066,"regulated":11067,"Ġtruthfulness":11068,"Ġdecay":11069,"Ġdecried":11070,"mediately":11071,"lude":11072,"contrib":11073,"contrast":11074,"Ġmetals":11075,"Ġ11":11076,"Ġ14":11077,"Ġresiding":11078,"strugg":11079,"Ġmighty":11080,"undecided":11081,"Ġsuppress":11082,"Ġsuppressed":11083,"Ġpredicating":11084,"Ġpredicaments":11085,"Ġpredicables":11086,"Ġexpressing":11087,"Ġexpressly":11088,"Ġworking":11089,"Ġphysician":11090,"Ġphysica":11091,"ĠUS":11092,"ĠUpdated":11093,"Ġconfer":11094,"Ġconfident":11095,"Ġconfusions":11096,"Ġconfusing":11097,"Ġconfidently":11098,"Ġdiscoveries":11099,"Inasmuch":11100,"Introdu":11101,"Introd":11102,"accustomed":11103,"accompl":11104,"Ġclock":11105,"Ġcloud":11106,"ĠOntological":11107,"ĠConcept":11108,"ĠContrib":11109,"ĠConjunction":11110,"ĠContent":11111,"ĠContact":11112,"ĠConditions":11113,"Ġdegrade":11114,"knowing":11115,"Ġdefiniteness":11116,"Ġclearing":11117,"Ġrighteous":11118,"Ġimperilled":11119,"Ġregression":11120,"Ġregressively":11121,"Ġarrog":11122,"Ġarranges":11123,"disk":11124,"display":11125,"disjunctive":11126,"dissimilar":11127,"disappears":11128,"disinterested":11129,"disputes":11130,"redistrib":11131,"tlement":11132,"subsum":11133,"subscribe":11134,"substitution":11135,"subordinate":11136,"Ġeloqu":11137,"Ġsolemn":11138,"Ġpersonified":11139,"Ġneeding":11140,"monads":11141,"Ġacknowled":11142,"Ġwanted":11143,"Ġcontingencies":11144,"errors":11145,"Ġfinishing":11146,"Ġfinanci":11147,"contend":11148,"contact":11149,"contempor":11150,"misconception":11151,"misapprehension":11152,"aimed":11153,"Ġmethodical":11154,"Ġassertorial":11155,"Ġassertorially":11156,"Ġcommanding":11157,"contradicts":11158,"contradictorily":11159,"Ġmeanest":11160,"ificate":11161,"overer":11162,"parte":11163,"parted":11164,"Ġdogma":11165,"ĠTHOSE":11166,"transcendentalism":11167,"goals":11168,"Ġnonentity":11169,"Ġnonpropri":11170,"Ġdemonstrable":11171,"Ġoverthrow":11172,"Ġovercoming":11173,"array":11174,"arrived":11175,"arrogant":11176,"Ġrelationship":11177,"Ġsolving":11178,"Ġequipped":11179,"Ġequilibrium":11180,"Ġidealistic":11181,"Ġidealizing":11182,"Ġcoin":11183,"Ġcoat":11184,"Ġcoar":11185,"Ġcool":11186,"Ġcoins":11187,"Ġcoerc":11188,"Ġlesson":11189,"Ġlesser":11190,"Ġlessened":11191,"bitably":11192,"bitious":11193,"ĠPrimal":11194,"ĠPriestle":11195,"ĠSub":11196,"ĠSupposing":11197,"ĠSubst":11198,"Ġboundless":11199,"Ġconducting":11200,"Ġinfluenced":11201,"mense":11202,"ailing":11203,"obstac":11204,"Ġidentification":11205,"Ġharsh":11206,"Ġexpecting":11207,"Ġpassion":11208,"Ġpassions":11209,"Ġargumentative":11210,"Ġdenying":11211,"Ġdenotes":11212,"Ġappreciated":11213,"Ġapprehensions":11214,"Ġ21":11215,"Ġ23":11216,"Ġmisuse":11217,"Ġmisology":11218,"Ġmisrepresentation":11219,"Ġmisinter":11220,"Ġmisapplied":11221,"Ġmissed":11222,"Ġmisleads":11223,"Ġmisfortune":11224,"Ġmiserably":11225,"Ġmischief":11226,"Ġgenerates":11227,"Ġgeneratio":11228,"Ġobligatory":11229,"Ġremarking":11230,"Ġpromising":11231,"Ġprominent":11232,"Ġopens":11233,"Ġsuperficial":11234,"ĠBeings":11235,"Ġconsciously":11236,"grace":11237,"Ġpeculiarities":11238,"Ġlegislator":11239,"Ġmaintainer":11240,"Ġiii":11241,"Ġawa":11242,"Ġawakes":11243,"extends":11244,"extreme":11245,"Ġaffirming":11246,"Ġunderstands":11247,"ĠAnalog":11248,"differ":11249,"ocate":11250,"ocks":11251,"connecting":11252,"aveolens":11253,"simplicity":11254,"simultaneous":11255,"blind":11256,"blunder":11257,"blances":11258,"Ġcircuit":11259,"Ġspeech":11260,"somewhat":11261,"ontal":11262,"nearer":11263,"Ġbrutes":11264,"Ġbrutum":11265,"Ġbridge":11266,"Ġundone":11267,"Ġundecided":11268,"Ġundeveloped":11269,"Ġundiscovered":11270,"righteous":11271,"happily":11272,"happened":11273,"Ġintellectualized":11274,"corporeal":11275,"correction":11276,"categorically":11277,"Ġfutile":11278,"Ġdistinctly":11279,"Ġdistinctness":11280,"Ġoperative":11281,"Ġoperates":11282,"Ġendeavouring":11283,"Ġclaiming":11284,"ynics":11285,"Ġteleology":11286,"Ġthreefold":11287,"Ġconvict":11288,"Ġconvictions":11289,"Ġcorrecting":11290,"Ġanalogical":11291,"Ġpretext":11292,"Ġdistributive":11293,"sensuously":11294,"fering":11295,"Ġceased":11296,"Ġparsimony":11297,"Ġparabol":11298,"Ġinvolunt":11299,"brain":11300,"examine":11301,"examined":11302,"examining":11303,"noble":11304,"noisse":11305,"short":11306,"ship":11307,"Ġmeditation":11308,"Ġdynamics":11309,"ĠUnphilosophical":11310,"apse":11311,"prescribed":11312,"Ġasking":11313,"ARY":11314,"describe":11315,"desired":11316,"request":11317,"requiring":11318,"Ġtransport":11319,"Ġtranslated":11320,"procure":11321,"ĠExternal":11322,"ĠExtent":11323,"ĠExamples":11324,"ĠExistences":11325,"ĠExecutive":11326,"ĠExamination":11327,"justifies":11328,"Ġpains":11329,"Ġpainful":11330,"Ġexcluding":11331,"Ġexclusive":11332,"Ġprofundity":11333,"Ġvainly":11334,"belie":11335,"Ġfrustr":11336,"Ġfrank":11337,"Ġframes":11338,"causal":11339,"caused":11340,"Ġdesigned":11341,"Ġdesignates":11342,"Ġdesignating":11343,"fees":11344,"Ġsuccessively":11345,"remo":11346,"remove":11347,"remote":11348,"remarks":11349,"remained":11350,"remaining":11351,"Ġthirdly":11352,"legality":11353,"asked":11354,"ĠArchitect":11355,"Ġmeanings":11356,"Ġmeaningless":11357,"ftp":11358,"inclined":11359,"includes":11360,"respects":11361,"respecting":11362,"respective":11363,"Ġdelivers":11364,"Ġdeline":11365,"Ġdelusions":11366,"Ġdelicate":11367,"Ġdelivered":11368,"applies":11369,"attached":11370,"attacks":11371,"Ġapproved":11372,"Ġapproval":11373,"Ġapprobation":11374,"Ġreferable":11375,"Ġelemental":11376,"Ġ*(":11377,"Ġcheer":11378,"Ġchemist":11379,"thoughts":11380,"Ġraises":11381,"orizontal":11382,"ĠSphere":11383,"Ġdeclined":11384,"Ġ55":11385,"Ġ596":11386,"ĠVery":11387,"Ġorganic":11388,"Ġletters":11389,"Ġarbitrium":11390,"Ġagreeably":11391,"consisting":11392,"Ġsignificancy":11393,"INCIDENTAL":11394,"ĠJUD":11395,"thened":11396,"universally":11397,"ĠKings":11398,"ĠKNO":11399,"iterated":11400,"quanta":11401,"Ġcarelessness":11402,"Ġseparates":11403,"Ġseparating":11404,"icipations":11405,"metaphysicians":11406,"Ġoffence":11407,"constituted":11408,"constituent":11409,"mathematician":11410,"comput":11411,"compound":11412,"compressed":11413,"ĠREPL":11414,"ĠREFUND":11415,"worthless":11416,"Ġwiser":11417,"Ġwisest":11418,"Ġsceptic":11419,"Ġfaulty":11420,"Ġacceptance":11421,"cogitable":11422,"cogitating":11423,"divisible":11424,"ipid":11425,"ipate":11426,"Ġ4000":11427,"Ġ4280":11428,"Ġcreative":11429,"Ġgeometer":11430,"Ġgenius":11431,"ursively":11432,"possessions":11433,"venal":11434,"insipid":11435,"Ġfavourite":11436,"confounded":11437,"confutation":11438,"changeably":11439,"CEDURE":11440,"Ġensure":11441,"Ġensures":11442,"Ġensuring":11443,"Ġscale":11444,"Ġscandal":11445,"Ġsurely":11446,"thinker":11447,"thinkers":11448,"specific":11449,"Ġoccasioning":11450,"Ġoccasioned":11451,"Ġoccasionally":11452,"Ġdogmata":11453,"Ġdogmatists":11454,"satisfy":11455,"Ġediting":11456,"Ġedifices":11457,"Ġhighway":11458,"Ġgeometricians":11459,"Ġgeometrician":11460,"Ġinterference":11461,"Ġinterior":11462,"Ġinterrog":11463,"Ġinterpretation":11464,"Ġinterwoven":11465,"Ġinterfering":11466,"Ġconverted":11467,"Ġconverting":11468,"sensatio":11469,"Ġcollect":11470,"Ġcountenance":11471,"Ġcountries":11472,"originated":11473,"originator":11474,"originarium":11475,"Ġmechanically":11476,"analysed":11477,"predicated":11478,"predicaments":11479,"ICAL":11480,"realized":11481,"realissimum":11482,"Ġreducing":11483,"Ġexperiments":11484,"Ġexperimental":11485,"ĠAND":11486,"demonstrations":11487,"demonstratively":11488,"guides":11489,"judges":11490,"judging":11491,"judicium":11492,"matters":11493,"iminished":11494,"Ġcanons":11495,"Ġaccessed":11496,"Ġaccessible":11497,"firstly":11498,"ruin":11499,"Ġprudential":11500,"Ġloses":11501,"explanations":11502,"Ġaccidentally":11503,"Ġartifice":11504,"Ġclassed":11505,"discovers":11506,"Ġcomprehended":11507,"iana":11508,"Ġ92":11509,"Ġdiversities":11510,"Ġdefects":11511,"advances":11512,"investigating":11513,"Ġsketched":11514,"ĠImmortality":11515,"Ġdetection":11516,"observe":11517,"NDATION":11518,"Subst":11519,"Ġirrespective":11520,"attaining":11521,"Ġwriter":11522,"Ġrecent":11523,"Ġrecord":11524,"Ġrecollection":11525,"Ġconfining":11526,"Ġhumour":11527,"Ġpractised":11528,"Ġpracticable":11529,"Ġascends":11530,"Ġventuring":11531,"Ġenlarges":11532,"Ġenlarging":11533,"adequately":11534,"Ġsentimental":11535,"Ġbenef":11536,"Ġbenefits":11537,"Ġfirmness":11538,"Ġsucceeds":11539,"Ġstudent":11540,"Ġobscured":11541,"Professor":11542,"Protot":11543,"saying":11544,"influences":11545,"Ġmistaking":11546,"Ġdestiny":11547,"Ġlowering":11548,"ĠPhalar":11549,"Ġpreserves":11550,"Ġpreservation":11551,"maximum":11552,"continual":11553,"Ġ2003":11554,"drawing":11555,"psychologia":11556,"Ġreckons":11557,"Ġglim":11558,"Ġglory":11559,"Ġcapital":11560,"Ġqualified":11561,"Ġstrengthening":11562,"Ġengraft":11563,"attempting":11564,"affinity":11565,"Ġauthorizes":11566,"Ġauthorizing":11567,"Ġbestowed":11568,"Ġspirituality":11569,"ĠPUBL":11570,"ĠPROBL":11571,"ĠPROCEDURE":11572,"ĠHerein":11573,"Ġestimates":11574,"Ġreflected":11575,"negations":11576,"neglect":11577,"Ġprofessions":11578,"Ġincreases":11579,"Ġexcuse":11580,"Ġexcited":11581,"Ġexcusable":11582,"Ġhabitation":11583,"superior":11584,"apprehend":11585,"regressive":11586,"regressus":11587,"Ġguarded":11588,"Ġguardian":11589,"glorious":11590,"humanity":11591,"operate":11592,"operative":11593,"operating":11594,"Ġmoves":11595,"Ġrenamed":11596,"Ġrenounces":11597,"Ġrenounced":11598,"Ġbehold":11599,"Ġbehalf":11600,"impenetrable":11601,"Ġextract":11602,"conditio":11603,"Ġdeviate":11604,"Ġsearching":11605,"ĠChief":11606,"Ġenjoying":11607,"ĠEmpiricism":11608,"ĠEmployment":11609,"Ġstrongly":11610,"Ġstrongest":11611,"ĠLeibnitzian":11612,"Ġoccurring":11613,"Ġblindness":11614,"Conceptions":11615,"volunteers":11616,"Ġ65":11617,"Ġ70":11618,"Ġ75":11619,"Ġtwist":11620,"infinitely":11621,"imagine":11622,"imagined":11623,"Ġsuggests":11624,"Ġsuggestion":11625,"Ġsuggestions":11626,"define":11627,"depending":11628,"Ġaccordant":11629,"unteer":11630,"ĠEpicureans":11631,"Ġderivable":11632,"obligatory":11633,"difficult":11634,"inquire":11635,"altered":11636,"secondly":11637,"conceptus":11638,"degrees":11639,"Ġheader":11640,"Ġpermits":11641,"additions":11642,"Ġappeals":11643,"Ġadaptation":11644,"pretext":11645,"ĠEveryone":11646,"Ġsecrets":11647,"Ġstruck":11648,"Ġillustrations":11649,"Ġtransgresses":11650,"Ġtransgressing":11651,"equally":11652,"equivalent":11653,"potence":11654,"showing":11655,"instance":11656,"instances":11657,"Ġobeys":11658,"Ġrepul":11659,"Ġreputation":11660,"Ġhinders":11661,"Ġfortunate":11662,"iliates":11663,"Ġvanish":11664,"Ġvanishes":11665,"Ġimitate":11666,"Ġimitating":11667,"supplied":11668,"Ġadducing":11669,"Ġprepares":11670,"ĠWhole":11671,"Ġgovernor":11672,"Ġsubstantive":11673,"ĠDIRECT":11674,"Ġmoderately":11675,"requirement":11676,"Ġscholar":11677,"Ġscholars":11678,"Ġscholastically":11679,"Ġrooted":11680,"Ġcontemplate":11681,"ACEMENT":11682,"directs":11683,"directing":11684,"directed":11685,"labours":11686,"singular":11687,"attributing":11688,"Ġinjuring":11689,"Ġinjury":11690,"settlement":11691,"Ġrejects":11692,"Ġrejection":11693,"Ġsuffers":11694,"Ġsuffices":11695,"versed":11696,"Ġattractions":11697,"Ġabandoned":11698,"Ġsympath":11699,"Ġsymbol":11700,"Ġsympat":11701,"Ġstarted":11702,"Ġevidencing":11703,"Ġchaos":11704,"begins":11705,"Ġcommunic":11706,"Ġconfusedly":11707,"Ġaccomplishes":11708,"analytically":11709,"advantageous":11710,"Ġomnipresent":11711,"Ġomnipresence":11712,"culation":11713,"oxysms":11714,"Ġtypic":11715,"Ġcleared":11716,"Ġcuriosity":11717,"Ġdictation":11718,"Ġdictated":11719,"Ġlocale":11720,"ĠINTERNAL":11721,"persons":11722,"personal":11723,"personality":11724,"Ġdeepest":11725,"Ġaltering":11726,"Ġspectata":11727,"Ġspectacle":11728,"transgression":11729,"Ġmeantime":11730,"ĠComposition":11731,"ĠCompliance":11732,"Ġimparted":11733,"Ġimpartiality":11734,"ĠMaterial":11735,"Ġlegitimately":11736,"Ġblameless":11737,"abstracted":11738,"antecedently":11739,"maintains":11740,"aenomena":11741,"801":11742,"Existence":11743,"Examples":11744,"authors":11745,"Ġtender":11746,"Ġtendencies":11747,"Ġtells":11748,"Ġresolves":11749,"Ġresolutions":11750,"Ġreplaced":11751,"Ġdrives":11752,"Ġhardness":11753,"Ġlinked":11754,"Ġpropension":11755,"Ġpropounded":11756,"conclusio":11757,"constructions":11758,"Ġdeprives":11759,"Ġundertakes":11760,"progressus":11761,"Ġstops":11762,"ĠPerception":11763,"ĠPerfect":11764,"ĠPerhaps":11765,"ĠPermitted":11766,"Ġpreferable":11767,"Ġpreferred":11768,"ĠCategory":11769,"ĠCategorical":11770,"Ġambigu":11771,"Ġpleasantness":11772,"correctly":11773,"correctness":11774,"Ġteachings":11775,"commands":11776,"occupies":11777,"affirming":11778,"affirmations":11779,"Ġfulfils":11780,"Ġhyperbol":11781,"collect":11782,"collection":11783,"collected":11784,"generations":11785,"modi":11786,"promise":11787,"promote":11788,"Ġversion":11789,"Ġverify":11790,"Ġverbal":11791,"Ġaugmentative":11792,"incerity":11793,"reciprocity":11794,"enlarges":11795,"enlarging":11796,"Ġcentury":11797,"Ġmonogram":11798,"Ġmonads":11799,"security":11800,"Ġrevealed":11801,"Ġannounces":11802,"Ġannoying":11803,"results":11804,"ĠTranscendent":11805,"ĠTrancendent":11806,"Ġalleging":11807,"Ġjoining":11808,"comparatively":11809,"Ġenouncement":11810,"Ġdecidedly":11811,"Ġerroneously":11812,"distribute":11813,"distribution":11814,"needing":11815,"Ġcolouring":11816,"Quod":11817,"affecting":11818,"copy":11819,"copying":11820,"country":11821,"moon":11822,"smaller":11823,"Ġwax":11824,"Ġwait":11825,"Ġwider":11826,"Ġincit":11827,"Ġincumb":11828,"Ġinherence":11829,"Ġinstructs":11830,"Ġthyself":11831,"Ġthreatened":11832,"Ġthreatening":11833,"Ġfootpath":11834,"Ġfootsteps":11835,"Ġnullity":11836,"Ġerects":11837,"Ġconjectures":11838,"Ġhundreds":11839,"Ġpropensions":11840,"constructs":11841,"constructed":11842,"Ġprincipally":11843,"Ġratione":11844,"Ġviolate":11845,"individuals":11846,"ĠAlaska":11847,"materialiter":11848,"agreeable":11849,"Ġyouthful":11850,"Ġattacked":11851,"ĠMeanwhile":11852,"Ġconcealment":11853,"graduated":11854,"Ġ501":11855,"Ġroads":11856,"ĠÃĨSTHE":11857,"pathologically":11858,"ĠProofs":11859,"ĠProblematical":11860,"Ġobstinacy":11861,"ĠPhilosophical":11862,"ĠPhysics":11863,"Ġprospects":11864,"Ġhypostatize":11865,"Ġhypostatized":11866,"Beyond":11867,"CLUSI":11868,"ULAR":11869,"ULTY":11870,"figur":11871,"opportunity":11872,"opponent":11873,"poseless":11874,"Ġmovable":11875,"Ġflatters":11876,"Ġreconcile":11877,"Ġurges":11878,"Ġsovereignty":11879,"profitable":11880,"sophistries":11881,"Ġcharitable":11882,"Ġmachines":11883,"Ġmachinery":11884,"Ġdespising":11885,"ĠEXCEP":11886,"ĠEXTERNAL":11887,"Ġamounts":11888,"Ġsettlement":11889,"apodeictical":11890,"Ġirremediable":11891,"ĠSystematic":11892,"Ġstruggles":11893,"Ġstruggling":11894,"ĠNewby":11895,"Ġbreaks":11896,"LIABILITY":11897,"LIABLE":11898,"donation":11899,"Ġ85":11900,"Ġ841":11901,"inseparable":11902,"Ġcourtes":11903,"Ġpoor":11904,"Ġpressure":11905,"Ġincompatible":11906,"stones":11907,"Ġascertaining":11908,"Ġannexes":11909,"Ġexemption":11910,"Ġexcellence":11911,"Ġlicence":11912,"Ġlicet":11913,"Ġdetract":11914,"Ġalternation":11915,"Ġalternate":11916,"Ġalternatively":11917,"Ġruns":11918,"experiment":11919,"ĠPRINT":11920,"Ġsubstitute":11921,"Ġsubstituting":11922,"Ġindisputable":11923,"Ġ1971":11924,"dispositions":11925,"Ġelaborate":11926,"Ġelaborating":11927,"Ġmoderns":11928,"Ġantinomial":11929,"Ġsolicitation":11930,"Ġsolidity":11931,"Ġinstincts":11932,"Ġdenomination":11933,"Ġspiritualism":11934,"Ġcalculation":11935,"ĠDIALECTICAL":11936,"Ġflowing":11937,"Permanence":11938,"Persuasion":11939,"SECTION":11940,"SECOND":11941,"harmonize":11942,"treatment":11943,"Ġvex":11944,"Ġveiled":11945,"Ġvehic":11946,"Ġsilver":11947,"Ġsalts":11948,"Ġinexhaust":11949,"Ġinexorably":11950,"Ġbinds":11951,"Ġprimeval":11952,"cility":11953,"Ġdeceit":11954,"Ġunfortunate":11955,"devised":11956,"definitely":11957,"Ġtrustworthy":11958,"Ġhesitation":11959,"Ġheights":11960,"Ġperplexing":11961,"expositions":11962,"ĠAbout":11963,"classes":11964,"Ġmysticism":11965,"Ġcompassion":11966,"ĠConclusion":11967,"deserve":11968,"pursuit":11969,"pursued":11970,"remarking":11971,"communio":11972,"comprehending":11973,"comprehended":11974,"convincing":11975,"Ġsuffering":11976,"Ġridicule":11977,"Ġbetrayed":11978,"Deity":11979,"Grant":11980,"cosmology":11981,"honoured":11982,"honesty":11983,"momenta":11984,"tonian":11985,"ĠQuantity":11986,"heterogeneous":11987,"Ġastonishing":11988,"increase":11989,"introduction":11990,"reckoning":11991,"Ġinnate":11992,"Ġincorporeal":11993,"Ġinsisted":11994,"Ġbonus":11995,"organon":11996,"ancients":11997,"secting":11998,"Ġrestrained":11999,"Ġpragmatic":12000,"Ġsustain":12001,"Ġsustained":12002,"Ġcomprised":12003,"transcends":12004,"Ġruined":12005,"Ġembarrassments":12006,"Ġhealthy":12007,"admixture":12008,"admiration":12009,"excite":12010,"excited":12011,"exhibit":12012,"ĠAGREEMENT":12013,"forthcoming":12014,"Ġchiefly":12015,"speak":12016,"ĠIntroduction":12017,"ĠGrant":12018,"ĠGermany":12019,"Ġgratification":12020,"probable":12021,"Ġencourage":12022,"Ġencourages":12023,"Ġcriticize":12024,"ĠMission":12025,"contemplated":12026,"Ġbranch":12027,"designate":12028,"Ġsurprise":12029,"specifically":12030,"Ġdeficiency":12031,"Ġtalked":12032,"Produce":12033,"Ġpunctual":12034,"Ġpunctually":12035,"Ġstrengthens":12036,"declarations":12037,"ĠMethodology":12038,"Ġdenominated":12039,"Ġfatalist":12040,"501":12041,"OSO":12042,"PROVIDED":12043,"TRADEM":12044,"barism":12045,"bringing":12046,"creature":12047,"creatures":12048,"school":12049,"testing":12050,"Ġeducation":12051,"Ġeducational":12052,"Ġautomaton":12053,"Ġtheorems":12054,"recognise":12055,"recognizes":12056,"enjoyment":12057,"Ġslip":12058,"Ġswamp":12059,"Ġpoles":12060,"Ġpolice":12061,"Ġpublish":12062,"Ġpublished":12063,"Ġparents":12064,"Ġinspires":12065,"Ġtolerable":12066,"Ġtolerate":12067,"Ġmali":12068,"Ġmalum":12069,"Ġmarvellous":12070,"Ġmasses":12071,"Ġrefinement":12072,"Ġredistribute":12073,"Ġredistributing":12074,"ĠINDEMNITY":12075,"Ġprolonging":12076,"Ġprolonged":12077,"delusion":12078,"detect":12079,"detailed":12080,"Ġricher":12081,"Ġvisionary":12082,"ĠBEFORE":12083,"Ġperpetual":12084,"Ġconsulting":12085,"ĠAgainst":12086,"Ġdisappeared":12087,"Ġdisappointment":12088,"ĠSeat":12089,"Ġsubdivided":12090,"Ġsubdivisions":12091,"precepts":12092,"agonal":12093,"ĠWolfian":12094,"ĠCanon":12095,"ĠCognition":12096,"ĠCognitions":12097,"Ġcommercium":12098,"Ġvalues":12099,"Ġvalued":12100,"sympathy":12101,"symbol":12102,"Ġsimplest":12103,"ĠDetermine":12104,"ĠDetermining":12105,"Ġresponsible":12106,"Ġresponsibility":12107,"major":12108,"majesty":12109,"ĠSubjective":12110,"Ġaddresses":12111,"Ġparadoxical":12112,"descent":12113,"Ġchemists":12114,"Ġfacility":12115,"confirmation":12116,"Ġtautological":12117,"Ġbeneficence":12118,"anthropomorphic":12119,"Ġwavering":12120,"Ġarchetypal":12121,"Ġarchetypes":12122,"professes":12123,"preventing":12124,"Ġratiocinant":12125,"1887":12126,"Caius":12127,"Causality":12128,"authorized":12129,"beneficial":12130,"diversity":12131,"diversities":12132,"flown":12133,"framed":12134,"functions":12135,"master":12136,"mastery":12137,"parents":12138,"ratione":12139,"skill":12140,"sketch":12141,"sentiments":12142,"temptation":12143,"temptations":12144,"Ġignore":12145,"reconciled":12146,"Ġcardinal":12147,"Ġsanctions":12148,"Ġseduced":12149,"Ġsmoke":12150,"Ġsmooth":12151,"Ġsoftware":12152,"Ġpotential":12153,"Ġincapac":12154,"Ġincapacity":12155,"Ġmilitates":12156,"Ġmountain":12157,"Ġmountains":12158,"Ġfluid":12159,"Ġflatten":12160,"Ġepisyllogism":12161,"Ġelucidate":12162,"Ġreverses":12163,"Ġreports":12164,"Ġreported":12165,"Ġdiameter":12166,"Ġdiagonal":12167,"Ġdrops":12168,"strength":12169,"strengthened":12170,"iverance":12171,"Ġlarger":12172,"Ġlargest":12173,"Ġlibitum":12174,"Ġlibrary":12175,"Ġlimbs":12176,"Ġforgetting":12177,"performing":12178,"Ġhastily":12179,"plainly":12180,"Ġunconsciously":12181,"abandoning":12182,"abandoned":12183,"Ġcomfort":12184,"private":12185,"privilege":12186,"indubitably":12187,"Ġshadow":12188,"Ġshadows":12189,"exercising":12190,"Ġappetite":12191,"Ġadversary":12192,"ĠPGLAF":12193,"ĠPostulate":12194,"ĠPostulates":12195,"Ġyea":12196,"Ġarticulation":12197,"Ġarguing":12198,"ĠSchematism":12199,"Ġsubreptions":12200,"Ġsubreptio":12201,"ĠCauses":12202,"ĠCausality":12203,"ĠCertainly":12204,"ĠCosmical":12205,"ĠCosmology":12206,"ĠRedistribution":12207,"ĠRedistributing":12208,"Ġpresumed":12209,"available":12210,"Ġindividuum":12211,"Ġconfounding":12212,"Ġimaginarium":12213,"Ġsignalize":12214,"doctrines":12215,"doctrinal":12216,"Ġheroes":12217,"obscure":12218,"obscurity":12219,"Ġfalsity":12220,"substantia":12221,"requisite":12222,"Ġ5682":12223,"Ġ5683":12224,"Ġadmirers":12225,"impulse":12226,"impulses":12227,"ĠWhoever":12228,"Ġsharpen":12229,"Ġpoisons":12230,"cultivated":12231,"Idealism":12232,"Philosophical":12233,"ĠDISTRIBUTE":12234,"ĠDISTRIBUTOR":12235,"5683":12236,"Epicurean":12237,"Morality":12238,"Stoics":12239,"Wolfian":12240,"azard":12241,"calculation":12242,"destination":12243,"easily":12244,"facility":12245,"familiar":12246,"ficiency":12247,"humiliates":12248,"loving":12249,"laborious":12250,"motherly":12251,"penetrating":12252,"wisdom":12253,"warranties":12254,"Ġtorment":12255,"Ġtears":12256,"Ġadequacy":12257,"inozism":12258,"instructed":12259,"Ġtheologians":12260,"enesis":12261,"enumerate":12262,"Ġwandering":12263,"Ġcandour":12264,"Ġcitizen":12265,"Ġsagacity":12266,"Ġincomprehensibility":12267,"Ġinstrument":12268,"Ġbroke":12269,"Ġthirteen":12270,"Ġthwarting":12271,"Ġmingles":12272,"Ġfantastic":12273,"animals":12274,"Ġnominally":12275,"Ġeclipses":12276,"Ġlatent":12277,"Ġliquet":12278,"Ġlanguages":12279,"Ġweariness":12280,"ithmetic":12281,"Ġsupposititious":12282,"Ġsuddenly":12283,"threatens":12284,"embarrassment":12285,"conjectured":12286,"confines":12287,"convenience":12288,"constantly":12289,"Ġalkali":12290,"Ġunsolicited":12291,"Ġunquestionably":12292,"Ġempiricist":12293,"ĠBecause":12294,"Ġimmediatae":12295,"Ġnovelty":12296,"primary":12297,"ademical":12298,"adapted":12299,"ĠFaculty":12300,"ĠFOUNDATION":12301,"ĠAdditional":12302,"Ġaccusation":12303,"ĠPrecisely":12304,"ĠParalogisms":12305,"Ġdissipate":12306,"speculations":12307,"Ġphantoms":12308,"ĠIntellect":12309,"ĠGregory":12310,"ĠClue":12311,"Ġobliterated":12312,"Ġdiscretum":12313,"ĠHistory":12314,"ĠHypothesis":12315,"Ġenvy":12316,"Ġenigma":12317,"ĠEvents":12318,"Ġtertium":12319,"serviceable":12320,"sensualizing":12321,"Ġimpotence":12322,"Ġshallowness":12323,"Ġentrusted":12324,"Ġinflexible":12325,"Ġappertaining":12326,"ĠLatin":12327,"Ġdecrease":12328,"undoubtedly":12329,"Ġilluminated":12330,"Ġdegraded":12331,"Ġmisleading":12332,"granting":12333,"Ġsurrounded":12334,"mysticism":12335,"architectonic":12336,"ĠImperatives":12337,"Ġdetails":12338,"consequentiae":12339,"elevated":12340,"Ġprosyllogisms":12341,"Ġdeviations":12342,"Concluding":12343,"PLEASE":12344,"ĠDiscovery":12345,"Ġtreasures":12346,"ĠNegation":12347,"ĠOriginally":12348,"Ġzealous":12349,"Ġindiscernibles":12350,"Ġsilenced":12351,"Ġsteadfastness":12352,"ĠAbbott":12353,"scholastic":12354,"Ġauthenticated":12355,"Ġastronomers":12356,"Ġeconomical":12357,"Ġtradesman":12358,"circumstances":12359,"6221541":12360,"Ġincontrovertibly":12361,"Ġembellishments":12362,"ĠCopernicus":12363,"Ġsurreptitiously":12364,"Aristotle":12365,"BJECTIVE":12366,"Categories":12367,"Criticism":12368,"DAMAGE":12369,"GRAPH":12370,"Juvenal":12371,"LLARY":12372,"Meanwhile":12373,"Pleasure":12374,"Possibility":12375,"Particular":12376,"Revenue":12377,"Things":12378,"Until":12379,"YSTEM":12380,"busy":12381,"bservation":12382,"coverably":12383,"cobweb":12384,"civilized":12385,"dollars":12386,"eometry":12387,"fanaticism":12388,"fictitious":12389,"fruitful":12390,"govern":12391,"hindrances":12392,"hopes":12393,"mundus":12394,"movable":12395,"pobox":12396,"splendour":12397,"soundness":12398,"twofold":12399,"victory":12400,"welfare":12401,"Ġillegitimate":12402,"Ġtibi":12403,"Ġatheistic":12404,"Ġaverage":12405,"Ġaequivoca":12406,"Ġoptical":12407,"reluctantly":12408,"recommendations":12409,"repeated":12410,"resemblances":12411,"encouragement":12412,"enforceability":12413,"Ġwalks":12414,"Ġwretched":12415,"Ġcunning":12416,"Ġcathartic":12417,"Ġcubic":12418,"Ġcrowded":12419,"Ġpushed":12420,"alleged":12421,"Ġinanimate":12422,"Ġinsensibly":12423,"Ġinexplicable":12424,"Ġinestimable":12425,"Ġinhabitants":12426,"escape":12427,"Ġthreshold":12428,"Ġnetwork":12429,"Ġeulog":12430,"Ġectypal":12431,"Ġrecapit":12432,"Ġdiligence":12433,"Ġdialetic":12434,"Ġdictionis":12435,"Ġducat":12436,"Ġbequeath":12437,"starry":12438,"omnipotence":12439,"omnitudo":12440,"Ġwholes":12441,"utcheson":12442,"ectypa":12443,"Ġhostile":12444,"Ġaspirations":12445,"theorem":12446,"improvement":12447,"ossession":12448,"Ġlaugh":12449,"Ġluxury":12450,"Ġwearied":12451,"Ġforbear":12452,"Ġsupremacy":12453,"ibiblio":12454,"irginia":12455,"Ġgbnewby":12456,"persisted":12457,"perpetually":12458,"perplexity":12459,"Ġprolixity":12460,"condemn":12461,"conjunctio":12462,"chievous":12463,"Ġdeletions":12464,"Ġintimidation":12465,"Ġintegrity":12466,"Ġhaphazard":12467,"Ġunshaken":12468,"Ġunqualified":12469,"Ġunexceptionable":12470,"Ġunsettled":12471,"detrimental":12472,"Ġcaelo":12473,"Ġraindrops":12474,"Ġmelts":12475,"Ġtriangles":12476,"ĠBerkeley":12477,"Ġimpregn":12478,"Ġpermanently":12479,"Ġnoblest":12480,"pragmatic":12481,"suppositio":12482,"ĠFACULTY":12483,"ĠFebruary":12484,"Ġcognizant":12485,"excellent":12486,"ĠACTUAL":12487,"ĠAldarondo":12488,"ĠPolemics":12489,"ĠPARAGRAPH":12490,"ĠPHILOSO":12491,"Ġarmoury":12492,"ĠSMALL":12493,"Ġphilanthropist":12494,"ĠNoumena":12495,"Ġsubdued":12496,"Ġsubsidiary":12497,"behoof":12498,"ĠGovernor":12499,"ĠWORK":12500,"ĠWILL":12501,"Ġcontrariwise":12502,"ĠCartesian":12503,"ĠCOROLLARY":12504,"ĠCarolina":12505,"Ġobnoxious":12506,"Ġobsolete":12507,"commencing":12508,"ĠHarmony":12509,"Ġvalueless":12510,"paradoxical":12511,"ĠReciproc":12512,"ĠElucidation":12513,"ĠEBCDIC":12514,"ĠELEMENTS":12515,"ĠDirector":12516,"ĠDOMAIN":12517,"Ġimpassable":12518,"Ġcorporation":12519,"ĠMendelssohn":12520,"struggle":12521,"ĠContributions":12522,"Ġeloquent":12523,"Ġfinancial":12524,"Ġnonproprietary":12525,"Ġcoercion":12526,"ĠPriestley":12527,"ĠSubstance":12528,"obstacles":12529,"Ġmisinterpretation":12530,"ĠAnalogies":12531,"Ġparabola":12532,"Ġinvoluntarily":12533,"noisseurs":12534,"Ġfrankness":12535,"ĠArchitectonic":12536,"ĠJUDGEMENT":12537,"ĠKingsmill":12538,"ĠKNOW":12539,"ĠREPLACEMENT":12540,"Substances":12541,"Prototypon":12542,"ĠPhalaris":12543,"ĠPUBLIC":12544,"ĠPROBLEM":12545,"Ġhyperbolic":12546,"ĠTrancendentale":12547,"Ġincumbent":12548,"ĠÃĨSTHETIC":12549,"CLUSION":12550,"ĠEXCEPT":12551,"Ġ84116":12552,"Ġcourtesy":12553,"Ġinexhaustible":12554,"TRADEMARK":12555,"!*":12556,"!).":12557,"!**":12558,"!*****":12559,"\":":12560,"\").":12561,"',":12562,"'ll":12563,"(#":12564,"(Â§":12565,")[":12566,")âĢĿ;":12567,")?\"":12568,")\":":12569,"*:":12570,",-":12571,"._":12572,".).":12573,".)âĢĶ":12574,"03":12575,"09":12576,"100":12577,"655":12578,"775":12579,"83":12580,"84":12581,"8655":12582,":_":12583,";âĢĿ":12584,"?_":12585,"AH":12586,"AW":12587,"Ab":12588,"Are":12589,"App":12590,"Apr":12591,"Astr":12592,"Apart":12593,"Ant":12594,"Autonomy":12595,"AND":12596,"Axioms":12597,"BE":12598,"Bod":12599,"Bole":12600,"BST":12601,"BOL":12602,"Benevolence":12603,"Cr":12604,"Can":12605,"Cogn":12606,"CON":12607,"Copyright":12608,"Creator":12609,"Cogito":12610,"Cynics":12611,"Do":12612,"Des":12613,"Das":12614,"Dem":12615,"Dak":12616,"Det":12617,"Del":12618,"DON":12619,"DIS":12620,"DES":12621,"Deduction":12622,"Duty":12623,"David":12624,"Donations":12625,"EY":12626,"Edition":12627,"Either":12628,"Each":12629,"EAL":12630,"Even":12631,"Ethics":12632,"Elements":12633,"FE":12634,"Freedom":12635,"FIN":12636,"FUT":12637,"FOR":12638,"FOU":12639,"Fairbanks":12640,"Failing":12641,"GE":12642,"GS":12643,"Gign":12644,"GIN":12645,"Generation":12646,"Geometry":12647,"Hart":12648,"Hold":12649,"Hypothe":12650,"Hamps":12651,"Hutcheson":12652,"IP":12653,"Ind":12654,"Ill":12655,"IRE":12656,"IOM":12657,"Indeed":12658,"IENCE":12659,"Imag":12660,"IUM":12661,"IBOL":12662,"IGIN":12663,"Just":12664,"Judgement":12665,"KÃ":12666,"LC":12667,"Law":12668,"Lake":12669,"Look":12670,"LED":12671,"LATION":12672,"LLI":12673,"MB":12674,"MP":12675,"My":12676,"Mich":12677,"Mand":12678,"More":12679,"Mod":12680,"Much":12681,"Mast":12682,"Mark":12683,"MON":12684,"Many":12685,"Mont":12686,"MOR":12687,"Money":12688,"MARK":12689,"MPH":12690,"Modality":12691,"Midnight":12692,"Nat":12693,"Nor":12694,"Nay":12695,"Nol":12696,"Nun":12697,"NIC":12698,"Numer":12699,"NUM":12700,"Neg":12701,"November":12702,"New":12703,"Ok":12704,"Ov":12705,"Ox":12706,"Object":12707,"Other":12708,"One":12709,"Ont":12710,"OUT":12711,"OTHER":12712,"OSITION":12713,"Otherwise":12714,"Observation":12715,"Pre":12716,"Pain":12717,"Phenomen":12718,"Pers":12719,"Pun":12720,"Post":12721,"Pro":12722,"PER":12723,"PAR":12724,"Prop":12725,"Plat":12726,"PACE":12727,"Portions":12728,"POSSIBILITY":12729,"Possession":12730,"PMB":12731,"POSITION":12732,"Result":12733,"Sh":12734,"Sim":12735,"Scept":12736,"Sol":12737,"Sach":12738,"SEND":12739,"Solution":12740,"Second":12741,"Socr":12742,"Summum":12743,"Satirae":12744,"Short":12745,"Similarly":12746,"Sections":12747,"Sulzer":12748,"Setting":12749,"SYSTEM":12750,"TM":12751,"TO":12752,"TU":12753,"Te":12754,"Tot":12755,"Tem":12756,"Then":12757,"Table":12758,"Tell":12759,"TENCE":12760,"TALITY":12761,"Tecum":12762,"Under":12763,"UTION":12764,"UGHT":12765,"Ver":12766,"Vari":12767,"Vanilla":12768,"Virginia":12769,"Where":12770,"Wel":12771,"Wiz":12772,"Well":12773,"WIS":12774,"WAN":12775,"WHAT":12776,"XIOM":12777,"Yet":12778,"Zen":12779,"]-":12780,"_)":12781,"_),":12782,"ai":12783,"aed":12784,"aver":12785,"aum":12786,"aest":12787,"aign":12788,"aert":12789,"aises":12790,"afe":12791,"aug":12792,"aii":12793,"aversion":12794,"aithful":12795,"aversed":12796,"bt":12797,"bu":12798,"bent":12799,"bow":12800,"bur":12801,"bul":12802,"bend":12803,"btr":12804,"bind":12805,"bations":12806,"bled":12807,"bial":12808,"bted":12809,"bases":12810,"books":12811,"burd":12812,"bvious":12813,"bank":12814,"boast":12815,"birth":12816,"benevol":12817,"broken":12818,"blessed":12819,"boldest":12820,"cit":12821,"cle":12822,"cent":12823,"cut":12824,"cation":12825,"cate":12826,"cans":12827,"cod":12828,"card":12829,"cart":12830,"cens":12831,"cue":12832,"cost":12833,"cro":12834,"code":12835,"cular":12836,"cited":12837,"cula":12838,"cibly":12839,"cope":12840,"cription":12841,"cendi":12842,"codes":12843,"dr":12844,"dy":12845,"dit":12846,"ding":12847,"dich":12848,"dere":12849,"date":12850,"decess":12851,"ders":12852,"dise":12853,"dness":12854,"dism":12855,"dro":12856,"dread":12857,"down":12858,"datum":12859,"diction":12860,"double":12861,"dumb":12862,"dentity":12863,"dabilis":12864,"dabile":12865,"een":12866,"eter":12867,"eth":12868,"eur":12869,"eorg":12870,"eternity":12871,"eutic":12872,"epping":12873,"fat":12874,"fle":12875,"fas":12876,"fate":12877,"fol":12878,"fide":12879,"fant":12880,"ford":12881,"fear":12882,"fusion":12883,"fted":12884,"fert":12885,"foc":12886,"frequ":12887,"flatter":12888,"fool":12889,"fume":12890,"flying":12891,"fair":12892,"fals":12893,"futation":12894,"fling":12895,"foot":12896,"fashion":12897,"fri":12898,"felt":12899,"fourth":12900,"fictions":12901,"fecundity":12902,"gical":12903,"gem":12904,"gans":12905,"gard":12906,"gart":12907,"gun":12908,"gated":12909,"gold":12910,"gered":12911,"gree":12912,"gner":12913,"gra":12914,"gene":12915,"gave":12916,"gles":12917,"gizing":12918,"greement":12919,"hi":12920,"hs":12921,"hor":12922,"hur":12923,"hus":12924,"hall":12925,"hire":12926,"hated":12927,"hint":12928,"hollow":12929,"hast":12930,"hode":12931,"htm":12932,"hole":12933,"hamed":12934,"house":12935,"hundred":12936,"half":12937,"harm":12938,"hiatus":12939,"hateful":12940,"horizontal":12941,"iis":12942,"ias":12943,"iation":12944,"iec":12945,"iogn":12946,"iad":12947,"iers":12948,"iates":12949,"iage":12950,"iothe":12951,"iably":12952,"iety":12953,"iatives":12954,"iased":12955,"iery":12956,"iworks":12957,"iunt":12958,"iocr":12959,"iasm":12960,"ihi":12961,"jo":12962,"ju":12963,"jack":12964,"juries":12965,"juris":12966,"ko":12967,"ked":12968,"kill":12969,"kak":12970,"kansas":12971,"ler":12972,"lity":12973,"lical":12974,"lib":12975,"lay":12976,"late":12977,"lam":12978,"lary":12979,"lant":12980,"lays":12981,"lost":12982,"lare":12983,"liness":12984,"lives":12985,"lower":12986,"living":12987,"liber":12988,"lively":12989,"leness":12990,"language":12991,"lery":12992,"laps":12993,"liable":12994,"logicians":12995,"length":12996,"loses":12997,"liking":12998,"lax":12999,"loss":13000,"lvan":13001,"loric":13002,"liberum":13003,"lah":13004,"laud":13005,"mr":13006,"mar":13007,"mate":13008,"mil":13009,"mus":13010,"mans":13011,"mest":13012,"mable":13013,"mel":13014,"mish":13015,"mmed":13016,"mma":13017,"mount":13018,"mole":13019,"march":13020,"mists":13021,"mier":13022,"million":13023,"mphiboly":13024,"mometer":13025,"micros":13026,"midnight":13027,"ns":13028,"ny":13029,"nos":13030,"nil":13031,"num":13032,"nest":13033,"nance":13034,"ners":13035,"narr":13036,"nob":13037,"noc":13038,"named":13039,"nares":13040,"nament":13041,"narrow":13042,"nabilis":13043,"ncret":13044,"naked":13045,"oat":13046,"oal":13047,"oil":13048,"oof":13049,"oak":13050,"oever":13051,"obe":13052,"oble":13053,"oexistence":13054,"oppose":13055,"opposes":13056,"oins":13057,"oosing":13058,"opposites":13059,"oister":13060,"oked":13061,"pg":13062,"pit":13063,"ping":13064,"pith":13065,"pay":13066,"pain":13067,"pate":13068,"pol":13069,"pher":13070,"psis":13071,"pered":13072,"pires":13073,"page":13074,"podeict":13075,"pelled":13076,"pair":13077,"pels":13078,"pupil":13079,"pulsion":13080,"pub":13081,"poverty":13082,"ron":13083,"rin":13084,"ris":13085,"ric":13086,"ran":13087,"rut":13088,"rif":13089,"ract":13090,"rality":13091,"rous":13092,"rose":13093,"rict":13094,"rise":13095,"rink":13096,"rav":13097,"rived":13098,"rang":13099,"range":13100,"rane":13101,"rises":13102,"rup":13103,"rip":13104,"rained":13105,"rival":13106,"royal":13107,"ranc":13108,"rho":13109,"ridge":13110,"random":13111,"rmometer":13112,"sic":13113,"sical":13114,"sink":13115,"sine":13116,"swe":13117,"sedu":13118,"sident":13119,"size":13120,"saken":13121,"sides":13122,"sential":13123,"sio":13124,"sending":13125,"slight":13126,"scribes":13127,"salt":13128,"saf":13129,"sches":13130,"soft":13131,"spirit":13132,"safe":13133,"ti":13134,"ts":13135,"tis":13136,"tur":13137,"tist":13138,"tus":13139,"tol":13140,"tig":13141,"tof":13142,"tuition":13143,"tener":13144,"tress":13145,"tile":13146,"tful":13147,"tension":13148,"tification":13149,"tified":13150,"title":13151,"tending":13152,"titles":13153,"tender":13154,"tax":13155,"totheology":13156,"uo":13157,"ues":13158,"ued":13159,"uend":13160,"uest":13161,"uers":13162,"uber":13163,"uine":13164,"uided":13165,"uck":13166,"ufact":13167,"vo":13168,"vil":13169,"vus":13170,"vig":13171,"vest":13172,"vant":13173,"viate":13174,"vestig":13175,"vidence":13176,"viction":13177,"visible":13178,"vient":13179,"viol":13180,"vicious":13181,"vature":13182,"vogue":13183,"villain":13184,"wre":13185,"wer":13186,"war":13187,"wide":13188,"wither":13189,"whence":13190,"warn":13191,"warks":13192,"wanted":13193,"wrought":13194,"watch":13195,"wider":13196,"winning":13197,"xes":13198,"yom":13199,"year":13200,"yourselves":13201,"yms":13202,"yrin":13203,"zes":13204,"zing":13205,"zed":13206,"zard":13207,"~),":13208,"´ris":13209,"Ã©":13210,"ÃĢ":13211,"Ã´ris":13212,"ĉĠĠ":13213,"Ġ/":13214,"Ġ<":13215,"ĠX":13216,"ĠĊ":13217,"Ġiv":13218,"ĠâĢĶ":13219,"Ġener":13220,"Ġ00":13221,"Ġxi":13222,"Ġversa":13223,"ĸNI":13224,"ĺ_":13225,"Ġtas":13226,"Ġtem":13227,"Ġtil":13228,"Ġtab":13229,"Ġtuition":13230,"Ġtac":13231,"Ġtute":13232,"Ġtong":13233,"Ġtort":13234,"Ġtied":13235,"Ġtree":13236,"Ġtreason":13237,"Ġtang":13238,"Ġtween":13239,"Ġtending":13240,"Ġtaint":13241,"Ġtild":13242,"Ġtimid":13243,"Ġtempor":13244,"heat":13245,"heard":13246,"head":13247,"hement":13248,"heism":13249,"heav":13250,"hema":13251,"health":13252,"headed":13253,"Ġale":13254,"Ġast":13255,"Ġaqu":13256,"Ġade":13257,"Ġaud":13258,"Ġauth":13259,"Ġaward":13260,"Ġavers":13261,"Ġaerum":13262,"Ġaiothe":13263,"onor":13264,"onos":13265,"onant":13266,"onens":13267,"onness":13268,"onism":13269,"onted":13270,"onten":13271,"onset":13272,"onnet":13273,"iner":13274,"inher":13275,"inant":13276,"inex":13277,"insp":13278,"intern":13279,"inform":13280,"instit":13281,"inances":13282,"insensible":13283,"insist":13284,"incomplete":13285,"inctive":13286,"insensibility":13287,"inconce":13288,"inadmissible":13289,"incompar":13290,"indeterminate":13291,"inhering":13292,"insecure":13293,"inhab":13294,"inherence":13295,"inarium":13296,"inuating":13297,"instrum":13298,"inexperienced":13299,"instructive":13300,"initial":13301,"indeterminable":13302,"incogitable":13303,"insecurity":13304,"inconvenience":13305,"innabilis":13306,"Ġoce":13307,"Ġoption":13308,"Ġocular":13309,"Ġthew":13310,"Ġtheat":13311,"Ġtheistic":13312,"Ġtheft":13313,"Ġtheosoph":13314,"Ġthermometer":13315,"rece":13316,"retr":13317,"restr":13318,"refin":13319,"remit":13320,"reaction":13321,"reward":13322,"rearr":13323,"rewards":13324,"reap":13325,"revel":13326,"reached":13327,"revere":13328,"release":13329,"restraint":13330,"reaching":13331,"reinst":13332,"research":13333,"repet":13334,"retaining":13335,"revolution":13336,"rejected":13337,"remiss":13338,"reprehensible":13339,"recoverably":13340,"repulsion":13341,"ita":13342,"itat":13343,"itly":13344,"itiv":13345,"itical":13346,"itter":13347,"itus":13348,"itab":13349,"itant":13350,"itatively":13351,"itiful":13352,"ithet":13353,"itivae":13354,"itiation":13355,"Ġoftener":13356,"isect":13357,"isos":13358,"isans":13359,"isio":13360,"issed":13361,"isque":13362,"iscern":13363,"isiana":13364,"ispered":13365,"enem":13366,"ench":13367,"enge":13368,"ename":13369,"enance":13370,"enment":13371,"enman":13372,"enni":13373,"enounce":13374,"enclosed":13375,"enry":13376,"enounced":13377,"enouncement":13378,"enouncing":13379,
[...]
