#version: 0.2
Ġ t
h e
Ġ a
o n
i n
Ġ o
Ġt he
r e
i t
Ġo f
i s
e n
a t
Ġ w
e r
Ġ c
i on
Ġ s
Ġ p
a l
i c
Ġ in
n d
Ġ b
e s
Ġt h
o r
Ġt o
Ġ m
c e
c t
Ġ f
in g
a n
e d
Ġ n
Ġ e
s e
o u
Ġ is
l y
Ġ Ġ
Ġ re
l e
Ġa nd
Ġ it
Ġc on
Ġ d
Ġb e
s t
o m
en t
Ġw h
o t
a r
a s
u t
ic h
e ct
Ġ h
Ġp r
Ġa s
l l
Ġwh ich
Ġth at
t he
Ġ u
i v
i m
it ion
at ion
o s
it y
Ġa n
Ġe x
Ġ on
Ġ l
ic al
Ġn ot
ĠĠ ĠĠ
p t
Ġth is
j ect
o w
es s
Ġw e
it h
Ġf or
i d
b ject
Ġs u
i b
en ce
ce pt
t er
u re
l d
i r
Ġw ith
Ġ g
t h
u r
c i
Ġ I
v er
q u
o g
re s
iv e
cept ion
is t
as on
Ġo r
a y
e re
Ġc an
g h
a in
Ġb y
e c
i f
a nd
se l
p er
â Ģ
s ib
Ġa ll
r om
u l
Ġpr o
e m
p p
Ġre ason
Ġo bject
Ġ T
Ġa re
v e
at e
c on
Ġf rom
c h
Ġd e
en d
u st
o re
Ġin t
p le
Ġb ut
i l
the r
a ct
Ġa l
he n
u s
Ġit s
os sib
Ġh a
Ġcon ception
i ll
Ġon ly
a w
a m
p l
Ġu n
ou ld
d ition
a b
nd er
âĢ Ķ
ou gh
sel f
u m
in ci
ĠĠĠĠ ĠĠĠĠ
Ġa t
o l
d e
Ġc a
Ġ (
i g
an s
t ain
Ġo ur
Ġthe re
m in
Ġl aw
i es
ter min
Ġm ust
Ġs p
Ġc om
t r
n ot
o f
c c
al ity
Ġp ossib
Ġpr inci
ec ess
res ent
es t
Ġ r
Ġe m
ou s
Ġw or
Ġs o
id e
Ġp ure
Ġex ist
Ġo ther
Ġm e
he r
Ġu nder
Ġha ve
i ence
per ience
Ġde termin
st and
Ġd o
Ġt r
Ġs en
ct ion
Ġm ere
Ġw ill
f ore
og n
ĠT he
im e
Ġ v
o d
Ġ B
u se
Ġcon dition
ar y
Ġan y
ver y
Ġn ecess
a k
om en
Ġit self
g e
Ġm ay
ou nd
Ġ he
Ġ im
hen omen
Ġp er
Ġthe m
or i
Ġfor m
Ġn at
Ġn o
p r
Ġthe y
al l
stand ing
ar d
Ġa b
a d
Ġth ing
am e
p ir
u ition
Ġs y
p os
Ġt ime
e ver
Ġre g
s u
Ġ k
Ġex perience
ab le
i ori
pir ical
in d
o se
il ity
Ġu s
Ġ if
Ġs h
an t
Ġ F
Ġbe ing
f f
Ġcan not
end ent
act ical
a ce
ation s
ou t
p h
Ġc ogn
ar t
Ġs e
om e
e x
Ġh as
Ġon e
u d
Ġthe se
Ġp henomen
Ġ qu
Ġ ide
Ġre l
v es
Ġs t
Ġe v
ĠB ut
Ġpossib le
or d
p resent
Ġm or
w h
gh t
Ġpr iori
i re
an ce
Ġcon s
n ow
Ġg iv
Ġint uition
Ġ A
Ġ j
at ive
ou r
Ġnat ure
Ġa cc
a c
Ġem pirical
Ġm an
th ing
on e
ul t
ans c
Ġw ould
pl es
Ã ł
Ġthere fore
Ġsu ch
Ġunder standing
Ġa pp
Ġthe ir
em ent
Ġexist ence
Ġconception s
ansc endent
it e
se qu
c a
Ġpr actical
Ġcogn ition
Ġa d
Ġprinci ple
Ġsu bject
f or
ĠF or
n the
p on
al ly
Ġreg ard
ut e
Ġ P
Ġd is
t o
Ġ Ãł
er s
u n
sel ves
Ġgiv en
pos ition
) ,
ent ly
Ġobject s
s o
Ġ y
Ġwor ld
Ġmere ly
Ġk now
anscendent al
e t
wh ich
i ght
on g
Ġp re
f ere
he re
m ent
ic t
ĠT h
Ġwith out
ion s
fere n
Ġp art
st r
t e
Ġc h
Ġ le
en er
c l
t ical
Ġphenomen a
Ġre present
Ġs ame
Ġs ome
er tain
Ġmor al
Ġthing s
Ġe very
Ġme ans
Ġprinci ples
ĠĠĠĠĠĠĠĠ ĠĠĠĠĠĠĠĠ
s p
ter n
ough t
c es
ak e
Ġsy nthe
g ement
Ġa r
s is
is e
sequ ently
Ġwh at
Ġh ow
Ġ S
at ter
i e
Ġun ity
h ing
Ġp h
at ed
Ġnecess ary
ord ing
s ol
Ġev en
Ġm y
l ed
Ġwh o
ay s
res s
e l
Ġh is
Ġca se
pp os
Ġ N
en s
th at
f in
o y
ca use
n ess
ud gement
tern al
Ġsu b
ph y
Ġm a
th ough
o p
p re
Ġth an
Ġ O
Ġlaw s
in t
ener al
p ossib
Ġs er
Ġm ore
Ġide a
Ġf re
im it
Ġrel ation
m at
sol ute
Ġn e
Ġa ction
ce d
Ġcon tain
con dition
a g
Ġbe cause
ec ul
Ġal so
n ect
Ġf ar
d u
Ġd if
Ġdo es
ĠI n
b er
w ays
il os
led ge
Ġp resent
Ġu pon
b e
Ġc ertain
i z
Ġtr anscendental
Ġca us
Ġcom ple
Ġp l
Ġcondition s
Ġbe l
Ġnot hing
ĠI t
Ġcon t
or t
Ġpossib ility
o ll
Ġ G
Ġ W
he ther
Ġint o
Ġ end
og ical
Ġj udgement
ation al
ult y
on d
re at
oll ow
ci ous
u e
Ġthe n
Ġw hen
Ġacc ording
Ġu se
Ġn ever
Ġca use
Ġpro position
Ġsen se
o st
ff ect
pl oy
Ġg r
Ġg eneral
g or
Ġcon tr
ir st
Ġg o
Ġcon sequently
ate gor
T he
u ch
Ġal one
r it
ig n
Ġab solute
st em
Ġth ought
Ġpro per
Ġ C
Ġh im
Ġsp ace
a st
m e
iv ers
Ġl imit
Ġal ways
Ġo w
at es
Ġre qu
i al
Ġas s
Ġcon nect
Ġo b
con ception
Ġd es
it her
Ġf ound
for m
a re
Ġthem selves
Ġp os
Ġd ist
Ġcom m
is m
Ġow n
o ld
Ġc ould
Ġknow ledge
Ġf ac
Ġsh ould
possib le
Ġph ilos
f ect
Ġf ollow
ar i
Ġs ay
Ġal though
Ġem ploy
Ġser ies
Ġw as
c om
Ġobject ive
Ġc all
Ġf irst
pr o
sp ect
Ġqu est
ed om
Ġr ational
Ġdif feren
is h
Ġre spect
Ġbe en
r o
Ġp ur
ic i
w ith
Ġre m
Ġdis c
ot her
Ġcons id
ĠN ow
Ġcomple te
Ġin de
a ch
in k
Ġsy stem
in e
Ġex am
i ed
Ġ H
ere d
d er
Ġw hether
Ġth us
Ġha pp
âĢ ľ
âĢ Ŀ
ĠTh is
Ġf e
Ġex t
Ġbel ong
Ġa ct
w e
in ation
Ġfac ulty
ut h
Ġre ality
Ġform er
Ġc ategor
in ess
x im
re e
ecul ative
Ġsynthe sis
s ess
Ġ very
Ġor der
d ic
Ġv al
Ġsome thing
Ġa g
Ġm ake
Ġl atter
Ġhow ever
o ver
Ġwe re
su ous
Ġgr ound
m it
um an
u nder
cious ness
l ess
Ġs ci
Ġun ivers
Ġpl ace
p ar
Ġ âĢľ
Ġnecess ity
Ġy ou
Ġfre edom
Ġgo od
m ed
o de
p ose
Ġf ind
Ġ en
Ġcaus ality
Ġth ose
st it
b y
Ġe ffect
Ġwho le
Ġ R
ad ict
e ll
Ġp res
ic s
h a
o bject
Ġth ink
pre me
Ġ E
Ġo ut
Ġd ut
al y
Ġex p
w o
Ġma xim
Ġquest ion
i le
o phy
Ġh uman
Ġsen sib
Ġpos sess
Ġt er
re ason
k e
Ġre al
ex ist
o ve
t y
u al
r ough
Ġpro du
ig in
Ġj ust
s y
Ġp ow
Ġapp l
e ar
Ġm ind
Ġa m
Ġper fect
s er
ut en
ĠI f
Ġy et
ber g
ari ly
Ġn ame
uten berg
Ġc rit
th is
o int
Ġsp eculative
a v
Ġs im
Ġat t
Ġdetermin ed
Ġm at
Ġsub st
Ġdifferen t
s en
m an
ou n
og it
in ce
ere st
Ġsp here
Ġrepresent ation
Ġsynthe tical
phy s
ic ation
ed u
le ct
ur al
ie w
ce ed
Ġg reat
k s
l f
Ġ D
Ġt wo
Ġb as
ol ogical
) .
iv ed
ib le
Ġman if
i ke
is he
Ġf act
Ġdut y
Ġs ec
Ġval id
b le
he mat
id ent
ff ici
Ġide as
ro ject
u le
or y
Ġsen suous
Ġin cl
Ġin ternal
an g
Ġth rough
Ġim p
con s
de termin
Ġdetermin ation
Ġsh all
Ġcall ed
Ġwor d
Ġse lf
Ġsci ence
as s
Ġper ception
Ġ ent
pr inci
condition ed
c ogn
ar act
Ġor igin
Ġv iew
o o
Ġsubject ive
Ġfe el
under standing
ut ion
ĠW e
r ib
y ond
Ġcon stit
aract er
Ġc or
ul ar
Ġphilos ophy
y p
fin ite
T h
Ġin v
f ul
ic e
Ġh ig
the re
Ġp oint
Ġpur pose
Ġr ule
Ġabsolute ly
v ed
us ion
Ġexam ple
og y
Ġhe re
Ġnat ural
Ġcons ciousness
e ci
n ecess
Ġm ode
ot h
Ġsh ow
an ge
Ġwh ile
Ġunivers al
Ġ _
Ġin f
Ġe ach
ent s
Ġim possible
Ġst ill
Ġhim self
Ġbe t
Ġc ogit
Ġnecess arily
Ġphenomen on
ĠP roject
t ed
Ġex ternal
c an
i ate
Ġex pl
Ġdetermin e
ire ct
Ġad mit
Ġpow er
er n
Ġint erest
act ion
Ġconnect ion
i res
n er
Ġan other
Ġsen s
Ġle ast
s ion
w ise
Ġg ive
Ġw ay
Ġbe yond
Ġint ell
Ġqu ite
Ġaction s
Ġrequ ire
Ġintell ig
a phys
Ġ est
at ing
Ġqu ant
ĠG utenberg
Ġl ike
Ġwe ll
ex perience
Ġhapp iness
ĠR e
Ġname ly
Ġdetermin ing
Ġk ind
Ġmanif old
at is
Ġn or
Ġe ither
Ġour selves
Ġ M
an ces
Ġh and
Ġcontain s
u ght
y s
Ġcategor ies
Ġa p
Ġinde ed
a ge
it s
Ġw here
ab l
Ġch aracter
Ġlimit s
Ġconsid er
Ġcon c
Ġd em
Ġs tr
Ġpro ceed
cc ess
Ġapp ear
. ,
p henomen
Ġre st
Ġan aly
Ġst ate
Ġmor ality
atis f
g in
ot he
r a
t ic
ing u
Ġre f
em pt
Ġter m
ffici ent
oo k
g um
Ġd iv
Ġsu m
ppos ition
Ġcontr ary
Ġcomm on
Ġin d
Ġnot ion
Ġpro of
iz e
m uch
Ġm atter
Ġd edu
ol ogy
Ġcom p
Ġse e
Ġad v
ĠTh us
Ġcontr adict
ishe d
yp othe
ak es
Ġfre e
Ġass um
Ġfollow s
Ġfeel ing
B ut
r ing
ar k
Ġsu preme
feren ce
a pp
Ġcon cl
Ġrepresent ations
conception s
exist ence
Ġcon ce
Ġsec ond
e v
Ġ L
re g
en ces
Ġb oth
Ġtr ue
Ġtr uth
Ġrem ain
p endent
Ġo ught
Ġha d
ab ly
f rom
Ġs ince
Ġm ost
Ġd ec
sib le
med iate
E R
l u
Ġt ake
con tr
Ġdist in
ĠRe ason
f ter
ic ism
Ġme t
Ġpart s
Ġpres u
Ġsensib ility
i ous
t en
Ġ 1
Ġre s
Ġsubst ance
ic ular
str u
f ic
Ġm ight
Ġm uch
Ġbe gin
Ġbeing s
Ġman ner
Ġregard s
we en
u nd
as much
iv es
Ġl ogical
Ġsu pp
Ġat tain
Ġpre dic
Ġexp ress
er t
le ar
Ġwor k
Ġcons ist
Ġph ys
Ġcont ent
Ġ U
Ġn ow
Ġregard ed
Ġma de
int uition
it ed
Ġto t
Ġd irect
Ġbe fore
ir m
Ġfound ation
a id
b ut
Ġ ill
he st
Ġa im
Ġcon f
Ġmat hemat
ppos ed
Ġdisc over
p end
on str
re present
Ġm ot
v ing
Ġa ff
os m
Ġun conditioned
Ġar gum
m a
Ġcon cept
I n
t m
Ġh ypothe
est ig
Ġexist s
pon d
Ġconsid ered
o id
is ion
at ic
Ġcondition ed
Ġjudgement s
Ġbet ween
Ġquant ity
a cc
Ġ [
Ġc l
res pond
Ġother s
Ġab ove
ĠA nd
s on
Ġe le
Ġpro ble
em pirical
Ġab le
ĠO n
ĠC on
ou b
og ic
c ise
w ard
Ġs atisf
Ġth ough
as ure
Ġde g
Ġproposition s
princi ple
k now
p able
at h
Ġcon form
ĠO f
O O
re l
Ġsu ccess
Ġde fin
n at
w or
on ly
en e
ul es
Ġwor th
Ġse t
Ġc lear
Ġst and
Ġsim ple
Ġbas ed
ra ph
i qu
Ġs our
Ġp le
ut es
ore tical
pr actical
ag raph
iz ed
ial ect
Ġdes ire
Ġag ain
om y
Ġu p
ak en
ĠP ure
un ction
be ing
Ġhig hest
re ad
if e
Ġr ight
Ġim per
Ġreg ress
Ġar r
Ġemploy ed
Ġest abl
Ġo cc
the m
th od
c rib
d is
n ing
Ġman y
Ġcognition s
mat ical
Ġcaus es
Ġext end
, âĢĿ
E N
l aw
re d
Ġd er
per ception
ĠG od
Ġob ser
Ġconc ern
s w
t le
Ġin asmuch
the less
Ġan sw
Ġany thing
Ġim ag
su b
Ġle g
op her
Ġcomplete ly
cogn ition
Ġa fter
ent al
Ġr ules
Ġch ange
Ġpresent ed
Ġdist ingu
iqu e
c he
c ertain
e p
Ġs ign
Ġin finite
Ġe l
Ġcon sequ
Ġso le
od u
Ġper son
ment s
Ġbelong s
Ġmaxim s
av our
oun t
Ġmet aphys
I t
T I
m ust
m um
tr ib
Ġse em
Ġpart icular
Ġne ed
Ġrequ ires
phenomen a
m on
at her
Ġm od
Ġf ur
Ġn um
Ġl ife
Ġim mediate
Ġmy self
Ġconnect ed
Ġemploy ment
there fore
necess ary
Ġres ult
O N
u de
Ġa c
on um
Ġw ant
ent ion
ect ion
ir t
Ġg u
ord ance
Ġcont ing
Ġground s
Ġent ire
Ġin dic
hen ce
Ġevery thing
ĠĠĠĠĠĠĠĠĠĠĠĠĠĠĠĠ ĠĠĠĠĠĠĠĠ
Ġvalid ity
lu ence
OO K
Ġend s
Ġsystem atic
Ġappl ication
Ġre ally
Ġatt empt
er r
Ġf in
B OOK
m ere
Ġc op
Ġintuition s
our se
Ġne g
c y
ou l
possib ility
Th is
Ġinv estig
Ġtot ality
H A
Ġ "
Ġm ain
id es
con t
su bject
Ġne w
' s
c ome
h ow
m is
Ġcor respond
Ġintellig ible
oub t
a im
it self
er cise
Ġs ide
Ġb od
Ġb onum
Ġl ogic
Ġme thod
Ġcontain ed
condition s
du ct
Ġass ert
Ġcomm and
contr adict
Ġdeg ree
) ;
a se
l ig
p ect
Ġe as
Ġre ad
Ġr ather
Ġme an
Ġv irt
Ġphys ical
r aw
is l
if ic
Ġthere by
Ġphilos opher
with out
man ent
Ġsens es
I f
d o
o v
p art
ct r
ens ion
Ġbel ie
Ġimp ort
Ġword s
read y
W e
p s
Ġ hence
Ġm en
Ġd og
ĠT H
tr anscendental
Ġother wise
ak ing
un ity
T ER
b ec
g o
Ġ err
er ial
Ġn on
Ġan t
Ġl ong
og ress
Ġsp eci
par agraph
Ġdem onstr
i ly
Ġo ver
an e
ar r
Ġh old
Ġat trib
Ġab str
Ġrel ations
sy nthe
Ġremain s
Ġansw er
Ġ ^
Ġ {
is es
Ġs ol
Ġs oul
an ation
Ġe qu
id ed
ate ver
Ġide al
Ġinde pendent
Ġbas is
Ġsum mum
nat ure
A L
m or
Ġthe oretical
it ies
Ġc o
Ġp ost
Ġex cept
Ġl ess
ĠThe re
Ġform al
Ġacc ordance
ĠTh at
Ġperfect ly
Ġproble m
Ġentire ly
C HA
P TER
b it
Ġm em
ĠP r
ĠS u
Ġne ither
d om
e ing
u ally
al though
Ġb ound
Ġto o
Ġcon duct
Ġgiv es
Ġcont in
Ġproper ly
ĠH ence
Ġthink ing
Ġsensib le
Ġinf luence
Ġnum ber
a use
en cy
Ġin qu
ce ive
Ġbe come
Ġal ready
uth or
Ġexpl ain
i ar
Ġc osm
Ġs aid
as es
Ġsu fficient
pr iori
Ġpre v
Ġdif fic
com ple
CHA PTER
m en
m all
r anscendental
re ct
ce ived
Ġe ver
Ġex ercise
Ġacc ount
ĠO F
Ġvirt ue
w ill
Â §
Ġ her
in ations
an y
Ġd oubt
Ġdetermin es
Ġform s
Ġdistin ction
Ġple asure
a il
o b
p ure
Ġ ident
Ġt aken
Ġin st
Ġd ialect
Ġh ar
Ġh op
ĠI I
Ġpro v
hen sion
ced ure
Ġexp ect
Ġprodu ce
Ġcogit ated
Ġp ass
Ġpro ve
Ġpre ced
ecul iar
lect ual
Ġdedu ction
Ġargum ent
Ġel se
Ġ ess
Ġcon stru
Ġd en
ound ation
Ġab out
ĠA s
Ġapp re
Ġapp ly
Ġmat erial
sen sible
Ġerr or
N ow
t ime
Ġ 2
Ġa ffect
it ive
Ġc ourse
Ġm is
Ġm akes
Ġre nder
Ġpr ogress
Ġg ener
ult ies
ĠĠĠĠĠĠĠĠĠĠĠĠĠĠĠĠ ĠĠĠĠĠĠĠĠĠĠĠĠĠĠĠĠĠĠĠĠĠĠĠĠ
Ġob lig
Ġrem ark
Ġbegin ning
ĠĠ Ġ
Ġpr om
Ġl ies
ir c
Ġall ow
Ġde pend
Ġv ari
Ġlimit ed
object s
cons ciousness
Ġpredic ate
bec ause
t ies
u p
Ġo p
Ġf all
ut ed
Ġsu per
con sequently
ĠB eing
ant age
Ġcons cious
Ġappl ied
can not
Ġassum e
reg ard
Ġconsist s
Ġimper ative
Ġcop y
d ist
g r
the se
pp ose
ab ility
Ġexist ing
Ġcogn ize
Ġch ang
ppos ite
Ġnever theless
Ġquest ions
ha ve
Ġa id
Ġp eculiar
the y
Ġl ook
Ġca pable
sy ch
Ġshow n
Ġexpl anation
Ġleg isl
Ġmain tain
ĠTH E
. âĢĿ
Ġ i
Ġ ut
Ġa w
on ic
Ġp ath
Ġf al
Ġd raw
Ġwh ose
de qu
ex t
Ġincl inations
princi ples
Ġhig her
Ġdiv ision
Ġaff irm
Ġimag ination
Ġsole ly
mere ly
ctr ine
* *
F or
Ġre ference
Ġwh atever
im ate
if ication
Ġpure ly
Ġunder stand
ĠA n
Ġad dition
ie ld
Ġfollow ing
Ġdifferen ce
Ġcontradict ion
che ma
ov ered
d if
o c
w ould
in ed
Ġpro cedure
con nect
ab solute
ĠSu preme
a ve
s im
Ġ es
the ir
Ġwith in
ul ative
Ġad d
Ġag re
object ive
Ġter med
ten ess
ward s
Ġhar mon
_ ,
b l
in te
Ġw ish
Ġc irc
Ġsp e
Ġwor ks
pos es
Ġev ident
Ġy our
Ġhapp ens
Ġill usion
Ġhypothe sis
Ġsour ce
e avour
s ome
u ll
on t
Ġe B
ou men
Ġd one
ical ly
og ism
Ġint el
str ict
Ġcertain ly
Ġeffect s
Ġincl ination
Ġanaly tical
Ġdefin ition
Ġconting ent
Ġfal se
dequ ate
e very
g iv
h ib
n e
w hether
on omy
Ġs mall
Ġb r
or ough
wh at
lect r
Ġcogit ate
Ġagain st
Ġhop e
Ġ Y
Ġcon j
Ġd id
Ġu nd
Ġper manent
pos ed
Ġrel ate
Ġrepresent ed
Ġcategor y
ha ps
acc ording
Ġfur ther
c ing
i a
n i
r ight
t ing
Ġa v
Ġs chema
ent ial
am ental
Ġempirical ly
Ġcertain ty
Ġext ension
ha pp
determin ation
Ġdem and
und amental
Ġimmediate ly
Ġneg ative
mor al
R E
i o
Ġo pposite
Ġs ing
im es
ĠT o
us ions
ĠThe y
Ġv ol
pro position
Ġsubst ances
Ġsens ation
Ġmathemat ics
rel ation
Ġintel lectual
c or
c ategor
p ly
Ġt reat
Ġb ring
Ġf ut
ow n
ur n
ĠT ranscendental
ph ilos
Ġj ud
rit ique
Ġperfect ion
Ġconcl usion
Ġdistin ct
Ġconsequ ence
Ġinqu ir
i x
l es
l ar
o ph
s ist
Ġo per
er se
id ence
Ġint r
Ġsp ring
et aphys
ppos es
Ġend eavour
ign or
Ġproper ties
Ġperception s
Ġadv antage
Ġcl aim
know ledge
Ġconform ity
dis c
comple te
j udgement
s es
y n
Ġt e
it tle
is ed
Ġth ree
Ġth orough
Ġcon v
om ent
iv id
su ch
ĠA ll
Ġser ve
Ġaccording ly
Ġbelong ing
cons id
Ġcor rect
ev en
represent ations
Ġseem s
0 0
c all
e ther
e ad
t og
Ġf unction
im al
Ġan al
Ġl ie
pt ion
if ied
Ġdetermin ations
Ġab s
Ġrel ates
ac he
thing s
Ġdis position
Ġpre t
Ġch o
Ġproper ty
are d
Ġdist rib
Ġval ue
Ġpossess es
Ġam ong
ishe s
Ġrest s
them selves
Ġeas ily
lectr onic
tog ether
c k
h at
l imit
n t
in de
ir d
og ene
Ġob tain
Ġdisc overed
ĠH e
Ġext ent
Ġcrit er
sen suous
Ġconce ive
Ġbod y
Ġappre hension
ĠĠĠĠĠĠĠĠĠĠĠĠĠĠĠĠĠĠĠĠĠĠĠĠĠĠĠĠĠĠĠĠĠĠĠĠĠĠĠĠ Ġ
Ġagre ement
A ll
f er
i or
Ġc e
Ġc ases
Ġp ar
al ways
le ction
as ion
ll ig
Ġthere of
ĠF oundation
ud ed
Ġev ent
Ġknow n
ode ict
Ġpow ers
Ġcrit icism
Ġinv ol
Ġinf er
Ġap perception
ĠCon sequently
Ġchang es
Ġfut ure
R A
b r
g an
Ġ Â§
Ġ ignor
Ġa uthor
Ġpro ved
Ġint u
Ġdetermin ate
ac k
Ġact ual
Ġcrit ical
Ġterm s
. [
E C
o od
p eci
w here
Ġn oumen
Ġl ittle
Ġdo ctrine
ex am
Ġle ad
Ġstr ict
Ġexpress ion
Ġmathemat ical
wor ld
Ġder ived
Ġinvestig ation
bit r
Ġcontin u
giv en
yn am
h il
m ay
n o
s h
es ides
Ġm ed
Ġm oment
Ġn ay
Ġd ynam
iv erse
Ġan te
ow er
Ġsu pposed
ec h
il ar
Ġha ving
Ġcom par
Ġreg ulative
Ġconstit utes
Ġconce ived
ĠU n
Ġele ments
do es
Ġmem ber
ivid ual
a p
p res
p ens
r ational
re edom
at ement
Ġin fin
Ġas k
end ed
ĠThe se
su fficient
ac es
feren t
Ġanaly sis
Ġsupp ort
Ġsuccess ion
Ġestabl ished
sub st
Ġdiffic ulty
A R
d es
he nd
re qu
Ġs ch
Ġf ield
Ġex hib
Ġtr ans
Ġar ises
ens ive
Ġcomple teness
pro c
ĠE x
Ġrequire d
Ġsee k
Ġaim s
Ġmot ive
Ġargum ents
Ġestabl ish
Ġdistingu ish
Ġmetaphys ics
how ever
Ġcorrespond ing
Ġsol ution
inte llig
I S
j ust
n it
Ġp ain
Ġf ul
Ġre cogn
ll ogism
Ġex cl
if y
Ġpro f
Ġsp ont
Ġcom b
Ġv ain
ord in
et y
Ġrequ is
Ġdisc us
Ġap art
Ġdirect ly
Ġsour ces
Ġdog matical
Ġprev ious
Ġsing le
Ġspont ane
b el
n ever
o le
p ur
in omy
Ġin s
Ġf r
Ġon ce
Ġsu pposition
Ġhe l
Ġper haps
Ġcogn ized
ca us
Ġregard ing
ĠĠĠĠĠĠĠĠĠĠĠĠĠĠĠĠ ĠĠĠĠ
ĠC ritique
Ġdes ign
Ġunivers ality
Ġen ough
Ġgreat est
Th us
Ġintellig ence
Ġobser v
Ġante ced
f e
m ost
Ġt akes
in ion
Ġto ge
ing dom
Ġbe com
ar n
iv ing
ĠI de
qu est
Ġtr anscendent
Ġev il
ĠS uch
ecul ation
Ġpresent s
Ġfac ulties
Ġcategor ical
Ġlike wise
represent ation
Ġsatisf action
Ġsuccess ive
Ġabstr act
synthe tical
Ġcosm ological
Ġsuper sensible
oph ical
Ġdynam ical
Ġtoge ther
S ection
g eneral
n ame
r ow
Ġ 3
re m
is ing
Ġth ird
Ġe t
le g
Ġd on
as k
Ġsu r
ist ic
Ġal together
Ġcom e
Ġcom pre
not hing
ĠA r
Ġpur su
ell ed
Ġprodu ced
Ġconstit ution
Ġbet ter
Ġsupp ose
Ġocc up
TI ON
Ġmean ing
Ġdialect ical
Ġpreced ing
d em
f t
f ollow
i gh
in cl
Ġof ten
en se
Ġp sych
Ġb l
Ġe y
Ġe lectronic
Ġre strict
iv ity
res pect
Ġde l
ab our
Ġk e
ative ly
ca pable
Ġdes tr
pro per
Ġhuman ity
Ġcrit ique
sen se
Ġap odeict
app l
Ġpredic ates
Ġconstru ct
Ġharmon y
Ġintr odu
call ed
I I
p ort
in es
Ġo pposition
it um
at t
ic able
Ġf ore
Ġf ull
ut ing
Ġex act
Ġun less
Ġk ingdom
ud ing
Ġst ates
Ġapp ro
Ġpre cept
Ġar ise
ens ions
com m
sy stem
Ġmanif est
Ġappear ance
Ġref er
Ġadv ance
app ear
Ġele ment
Ġimport ance
Ġaffect ed
ni hil
ogene ous
Ġrequis ite
h as
Ġ *
Ġc he
Ġs ort
se par
Ġl ast
th ought
ve l
Ġr a
Ġv oid
ori z
sp ace
ĠS p
Ġobjective ly
Ġsim ply
Ġdec l
contradict ion
Ġread er
Ġattrib ute
Ġbound s
Ġess ential
Ġcirc um
some thing
Ġcriter ion
peci ally
Ġhel p
b ers
i um
s um
u bl
Ġ 5
Ġ V
Ġa dequate
is on
al one
ct ive
ut onomy
id ance
Ġor gan
cc ording
Ġso on
pr odu
ome tr
Ġle t
Ġle ave
Ġar bitr
Ġmore over
me ans
form ation
Ġact ually
Ġag ree
cons ist
determin ed
Ġconstit ute
Ġadmit ted
Ġappear s
Ġind ividual
Ġconcept s
law s
Ġsign ific
Ġbelie f
Ġabstr action
Ġpost ul
ĠPr inci
Ġaw ay
name ly
I N
l atter
l ove
Ġ J
re ality
re to
at um
Ġin ev
Ġf undamental
Ġe ar
the n
Ġl ine
ception s
em ploy
pl ace
Ġun iverse
ĠB y
un ivers
ict ion
ĠS ection
Ġpos itive
Ġplace d
Ġgreat er
Ġorigin al
oo ks
necess ity
Ġpresu ppose
know n
crib e
Ġfur n
Ġfin ite
Ġconj unction
Ġav oid
Ġvol ition
consid er
Ġinev it
E S
p e
Ġ K
Ġt est
in v
it er
Ġc reat
ot e
ut ive
pt y
ur d
ci proc
qu ant
per fect
con tain
ol ly
Ġca re
Ġr o
Ġse par
sp eculative
ag es
ici p
aly tic
phenomen on
Ġphilosopher s
Ġident ical
Ġvari ous
dist ingu
ech an
R O
T here
f reedom
m etaphys
o ol
it le
Ġof f
Ġw it
pt er
ter ly
ci ence
sib ility
ul a
con stit
ff ort
Ġev ents
Ġdis p
mat hemat
Ġuse ful
Ġfound ed
com p
Ġexam ination
mit ted
ĠR E
Ġdedu ced
Ġmot ives
wor th
Ġclear ly
EN T
Ġdistingu ished
Ġindic ates
Ġimport ant
synthe sis
Ġbr ought
happ iness
categor ies
RA N
Ġet c
u pon
Ġt ask
he tic
re n
Ġw is
Ġc arr
Ġs cept
Ġf a
ure s
Ġun able
Ġsp eculation
Ġper ceive
ph ist
Ġst atement
our selves
Ġle arn
Ġle ft
Ġact ing
Ġsci ences
Ġpossess ion
Ġatt ention
Ġconsider ation
Ġhypothe tical
Ġresult s
Ġac cept
Ġac qu
Ġcopy right
gr ound
Ġspe ak
ĠeB ook
Ġclaim s
Ġey es
E very
T H
c ogit
d iv
e termin
f ac
h im
i p
o pt
Ġ 4
Ġthe ology
Ġc re
Ġp ut
Ġwh om
Ġwh olly
Ġsu ffici
ib er
Ġg e
Ġg en
ur s
end s
Ġdetermin able
pos sess
Ġad opt
Ġmoral s
Ġpos ition
Ġinterest s
Ġpresu pposes
Ġdirect ed
Ġstand s
Ġconsequ ences
Ġant inomy
connect ion
Ġbecom es
ubl ic
h is
l ict
m y
v en
in s
Ġo pp
is hing
at a
Ġm ental
Ġf avour
ar ch
ar ks
Ġfor ce
Ġg ain
con f
ch ange
end ing
Ġem pty
Ġst ep
un conditioned
ĠS t
Ġlimit ation
Ġdes ires
Ġexam ples
Ġen able
Ġsim ilar
Ġconc reto
Ġmot ion
osm ological
Ġproble matical
Ġgu idance
Ġindic ate
Ġattempt s
mis sion
Ġbod ies
Ġlegisl ation
Ġdraw n
absolute ly
Ġes pecially
Ġapodeict ic
Ġcircum st
Ġsignific ance
? âĢĿ
C E
c re
g g
l t
m ore
p ic
p ress
t ot
v al
Ġ ens
Ġo pposed
at ives
Ġs c
Ġf ig
st ood
Ġl ight
Ġsu re
th ink
Ġde finite
nder standing
um e
ous ly
pos ite
Ġacc om
sp eci
Ġdes er
Ġpur poses
Ġjust ified
ser ies
pend ence
Ġocc asion
crib ed
Ġconcern s
Ġcommand s
Ġdog mat
Ġinst ead
Ġoblig ed
Ġdepend s
ĠY ou
philos ophy
Ġjud ge
pres u
Ġsch ool
Ġins ight
quest ion
Ġarbitr ary
W hen
s atisf
t un
x i
Ġ ed
in ction
in to
Ġre ach
Ġwh y
Ġh igh
Ġfor th
ure d
ain t
us ed
Ġsy llogism
Ġphenomen al
int erest
ĠW hen
are nt
Ġcomm unity
Ġphilos ophical
Ġhapp en
av oid
man ence
Ġsubjective ly
Ġmod es
Ġassert ions
contradict ory
Ġeas y
Ġbelie ve
ache d
Ġcho ice
Ġdestr oy
iter ary
Ġwis dom
Ġge ometr
G utenberg
T o
e ither
f ree
k ind
o ly
s ame
y ing
Ġt a
Ġt imes
is pens
Ġs ought
ic ense
Ġin ter
an gement
Ġe ffort
Ġcon ver
Ġpr ior
im ent
im possible
ci pl
if ies
ate ly
ch ive
ud es
ppos ing
Ġsub tle
iz ing
Ġrespect ing
Ġunivers ally
Ġfind s
Ġwhere by
Ġref lection
Ġextend ed
EN D
Ġder ive
go od
Ġident ity
Ġconstru ction
Ġgener ally
Ġop inion
dif ferent
sh ould
bel ong
caus ality
Ġke ep
Ġinevit ably
fac ulty
lt imate
cipl ine
c ould
g ed
m s
s ens
Ġ Ã
Ġa utonomy
Ġo ld
Ġw ise
Ġc ol
Ġc oun
al so
Ġin capable
Ġb esides
or igin
Ġm aking
Ġm echan
ce de
an aly
Ġd om
as ing
Ġpr imal
Ġan nihil
Ġl ay
ĠĠĠĠ ĠĠĠ
th an
th ose
em ark
con form
Ġexist ed
Ġreg ion
wh ole
ca se
Ġpractical ly
Ġevery one
Ġsub ordin
Ġma g
pre dic
Ġprodu ces
edu ction
Ġcomp elled
Ġassum ed
Ġconcl usions
Ġmetaphys ic
Ġconting ency
Ġfin ally
Ġindependent ly
Ġut terly
ĠAn alytic
Ġinquir y
Ġcompar ison
intellig ible
pur pose
etermin ed
I C
I T
P roject
l ike
m ort
p ath
r op
s c
Ġt able
in ternal
Ġthe ory
re al
it able
Ġp e
Ġre du
Ġd own
ar ge
Ġh on
Ġex per
Ġl abour
Ġnot ions
id ing
ive ly
ch aracter
us ory
Ġun condition
ide a
Ġtr ansc
Ġhe ter
Ġim pl
su ccess
ant ed
ĠA N
feren ces
str atum
Ġdut ies
sen sibility
ful ly
Ġpoint s
Ġcontradict ory
contr ary
stru ction
Ġattain ed
Ġconf lict
Ġarr ive
cont ent
Ġmem bers
Ġcosm ical
Ġfunction s
Ġinfin ity
subst ance
Ġful ly
Ġdon ations
dem onstr
ENT AL
S C
U T
a ight
c ess
f ar
g u
g reg
i ang
j ud
m atter
s cience
w w
er it
er iori
Ġs ake
Ġto wards
Ġf ill
ing s
ly ing
Ġd ire
om ogeneous
ar s
im in
ib ility
ist s
Ġcan on
Ġde f
Ġde pendent
act ions
hen sible
Ġthere in
Ġme et
pir icism
Ġmor ally
Ġgiv ing
Ġacc ess
ac y
Ġad m
be en
ĠW ith
ĠW hat
ither to
form er
ĠH ow
oun ce
Ġsec ure
ang er
necess arily
Ġkind s
ĠL iterary
Ġpresu pposed
ene tr
Ġarr angement
Ġspeci al
ĠPr actical
Ġdialect ic
ĠII I
Ġoper ations
ck on
Ġsuffici ently
Ġdire ction
H ow
c rit
f irst
g reat
h ig
l ight
n on
r u
t imes
w hen
Ġt al
re t
is ible
Ġb or
Ġf an
Ġn one
Ġre ciproc
as h
Ġpr iv
Ġpr ud
im mediate
Ġex position
Ġl os
ur ally
Ġpro b
con ce
ore tic
us iness
ab str
Ġcom posite
Ġr ise
Ġper ceived
Ġse qu
ex pl
ex ternal
Ġev idence
Ġacc ident
so ci
Ġar t
ie f
el f
Ġma j
Ġpl ain
pro v
Ġpur ity
Ġfe ar
Ġprodu ct
determin ing
Ġwhere as
Ġstr aight
Ġtot al
Ġcl ass
Ġequ al
ĠThere fore
Ġden y
Ġoblig ation
ĠeB ooks
cor respond
disc over
Ġanal ogy
Ġpret ensions
limit ed
Ġignor ance
Ġspontane ity
Ġcompre hend
ĠAr chive
Ġpsych ology
ĠPrinci ples
univers al
Ġcarr y
O R
R e
W hat
e em
e ffect
i an
o in
p oint
s ide
s ince
Ġ 9
Ġs ever
or g
Ġf ail
Ġre ceived
Ġd ivers
Ġas soci
Ġu ltimate
Ġl ove
if ice
Ġreason ing
Ġde fect
Ġun ited
Ġso phist
ad v
ant e
ĠA ccording
sp here
Ġsub stratum
Ġcontain ing
com pre
exist ent
Th at
Ġfeeling s
ĠCon ceptions
Ġimper atives
Ġobser ve
sub sist
Ġsign ification
Ġattrib utes
Ġprev ent
Ġprov ided
Ġop en
ix ed
Ġanal og
Ġnoumen on
inv estig
xi om
mort ality
iang le
A S
c ceed
d en
e ib
h and
p ower
v ious
Ġt itle
it es
it ude
at or
Ġs k
Ġs he
Ġp ublic
Ġb ack
Ġf our
st hetic
as ant
ut y
ĠI m
Ġde t
am ed
ĠF rom
ĠP ro
Ġpl an
Ġcont em
ĠG eneral
Ġass ign
with standing
Ġpres ence
ĠU nderstanding
Ġstand ard
certain ty
mis sible
Ġassert ion
Ġlong er
Ġspeci es
Ġdemonstr ate
ob ser
Ġlegisl ative
Ġund etermined
proposition s
Ġthorough ly
Ġabs urd
Ġce ase
Ġpar agraph
Ġnoumen a
nit z
Ġprevious ly
ĠSp ace
ren g
Ġopp on
Ġcircumst ances
Ġschool s
avoid able
ispens able
Ġsever al
eib nitz
) âĢĶ
N D
O U
S u
a pt
i ld
i ally
l at
o cc
u ous
Ġ ir
it ing
at tain
Ġw rit
Ġs ight
Ġp ast
Ġin du
Ġin formation
Ġm ention
Ġre c
Ġre ce
Ġcon fin
Ġh um
Ġh itherto
Ġpr act
Ġas c
ir med
th rough
Ġpro cess
Ġun known
ol ution
Ġv ent
ound ed
Ġform ula
Ġnat urally
ad emark
Ġus ed
Ġqu ality
Ġrel atively
ire d
ĠA t
Ġpart ly
Ġch ain
cl aim
op ular
ĠO R
iz ation
ign ity
uth oriz
Ġen lar
ha pter
Ġjust ice
Ġmind s
ang u
Ġproceed s
Ġdec ide
stru ct
Ġdefin ed
Ġworth y
Ġmetaphys ical
part icular
Ġprov ide
Ġdemand s
Ġintu ited
ĠUn ited
Ġdiscus s
Ġobserv ation
vel op
Ġfurn ish
iber ty
val id
W h
a ir
a dequate
j oy
m ot
t urn
u it
Ġ =
Ġt urn
is sim
en ess
at er
Ġs a
Ġs ent
Ġin separ
Ġb ene
Ġb usiness
Ġf irm
Ġd ata
the oretical
Ġwe ight
Ġsu cceed
con c
Ġcom position
tr uth
Ġhe ld
Ġper manence
Ġst ud
ĠS o
ĠS y
ĠO ur
iz es
Ġcontr ib
Ġob st
Ġob sc
pro ceed
Ġdisc ern
âĢĿ ;
we ll
man if
Ġadmit ting
Ġquant ities
Ġaff ord
Ġele v
Ġsatisf ied
rel ate
nat ural
crib es
Ġconcern ed
Ġwant s
Ġdemonstr ation
Ġhold s
Ġproblem s
Ġden ied
Ġvari ety
** *
every thing
Ġspring s
ache s
Ġignor ant
Ġauthor ity
exam ple
Ġdiscus sion
Ġanteced ent
Ġfore ign
Ġexact ly
quant ity
Ġscept icism
Ġdom ain
Ġbor row
Ġmaj or
B y
P r
l ook
n ex
o ple
p ost
s ay
u g
Ġa xiom
in f
re es
re st
it led
Ġp un
al s
Ġm ist
le ast
Ġd est
Ġd anger
ent ific
Ġl ost
Ġl ower
cept ivity
th rop
ur ing
sel ess
ust r
pl ay
ĠĠĠĠĠĠĠĠ Ġ
ol iness
Ġpossib ly
Ġunder stood
Ġim mortality
Ġper form
Ġapp arent
ĠP h
ag ed
be fore
Ġsci entific
Ġpres er
Ġprodu ction
Ġappl ies
ĠD e
Ġimp ul
Ġconstit utive
Ġadmit s
Ġind if
Ġpresu pposition
Ġill usory
ma xim
ialect ic
Ġafter wards
TI C
cont in
Ġant it
Ġinst ance
Ġexpect ed
Ġ2 00
connect ed
Ġadd ed
Ġspe aking
Ġinquir ies
Ġabs ence
Ġear th
distingu ish
RAN SC
Ġeffort s
END ENTAL
issim um
RANSC ENDENTAL
E D
O n
a fter
d raw
p sych
t ion
v ere
Ġp ay
ic o
Ġin ference
Ġm ark
ed ience
Ġe th
Ġre ckon
Ġd ignity
st ant
ut ation
Ġan g
Ġg l
ur ity
ci es
Ġpro ves
Ġpro port
Ġint ention
act ory
Ġca p
ig ion
min d
Ġtr y
Ġtr iangle
Ġnecess it
Ġim age
Ġse en
Ġqu al
Ġst reng
one y
ĠN ay
Ġsub sum
ĠC osmological
are r
Ġrem o
Ġexam ine
Ġen g
Ġappl icable
phys ical
Ġorigin ate
Ġdiv ided
Ġind irect
Ġdedu ce
Ġconcl ude
Ġsecond ly
oub ted
being s
cont ing
Ġdemonstr ated
Ġequ ally
Ġrender s
Ġsmall est
Ġendeavour s
complete ly
Ġconv iction
Ġexhib it
att empt
Ġra ised
mathemat ics
worth y
Ġlearn ed
Ġdivers ity
, "
. )
A s
J EC
T ranscendental
_ .
a ff
g es
g ress
g utenberg
l ies
o very
t ake
Ġa uthoriz
in asmuch
Ġc r
Ġb est
Ġm erit
Ġm oney
Ġf it
an other
Ġre ceive
Ġan ci
Ġfor ces
ir it
th us
con sequ
Ġde velop
Ġsp irit
Ġem piricism
ori ous
ind ic
ex pect
ex press
ĠP U
ĠP RO
Ġrepresent s
ĠĠĠĠĠĠĠĠĠĠĠĠĠĠĠĠ ĠĠ
ĠN o
Ġsub l
imit ive
ag ain
Ġdifferen ces
ĠH ere
Ġag greg
Ġest im
Ġproceed ing
Ġanaly tic
Ġref lect
Ġbegin s
Ġexpress ions
Ġhypothe ses
cise ly
Ġdeg rees
Ġinvestig ations
subject ive
go ing
Ġpost eriori
Ġerror s
Ġes ca
ne g
inde pendent
Ġinvol ves
Ġinfer red
nit ude
Ġprof ess
Ġpostul ate
him self
ĠSt ates
gg est
Ġfig ure
Ġpriv ate
Ġlos s
subsist ent
angu age
manif old
Ġproport ion
B ER
H ence
a e
a res
j un
o ined
t wo
v ice
y ou
Ġo m
Ġthe oretic
Ġw ishes
Ġp opular
Ġin cre
ou ble
Ġre turn
st ep
ent ially
as ed
Ġh oliness
Ġas cribe
Ġu su
Ġan imal
Ġex c
Ġon es
Ġnot withstanding
ain s
ul ate
Ġobject ions
ĠT ime
Ġha bit
Ġcom es
not ion
ide as
Ġany one
Ġform ing
Ġform ed
pr i
su per
Ġsh ort
wh ile
Ġsubject s
Ġdis appear
tern ally
Ġser ves
Ġpl aces
Ġfollow ed
pro of
ici ans
Ġrem arks
ĠH ume
Ġfe w
Ġext ensive
Ġact ivity
Ġthink s
Ġreal issimum
Ġincl uded
determin e
Ġent er
Ġshow s
Ġrequire ment
Ġappear ances
Ġind ispensable
Ġproof s
app re
reg ress
fic ial
Ġexpress es
Ġconsist ent
Ġsatisf y
Ġobser ved
Ġgu ard
Ġneg ation
Ġco existence
Ġcontin ue
Ġinqu ire
Ġpreced es
Ġprom ise
Ġallow ed
ĠY OU
Ġinvol ved
Ġlead s
fe el
ĠIde as
leg isl
Ġche ck
employ ment
cogit ate
Ġaccom p
ĠÃ ¦
Ġpe ople
Re ason
BER G
. "
F rom
S T
b id
e le
g l
h uman
h ypothe
i k
o per
p or
t il
t ological
it imate
Ġw ays
er c
Ġc al
Ġs ays
Ġb ad
Ġb old
Ġm o
Ġm ult
se ly
Ġre n
le ase
Ġbe h
ar gum
as ser
Ġh omogeneous
Ġpr os
im p
Ġex ception
Ġex ec
Ġex tr
Ġl iberty
ist ance
ain ed
and on
âĢ Ļ
em ber
con d
Ġde v
pl ic
um er
Ġv iz
Ġim manent
Ġper su
Ġper mission
ever theless
Ġse arch
Ġdis cipline
Ġdis play
Ġpre cede
fin itum
Ġcaus al
ĠG UT
Ġend less
ĠC h
Ġob edience
ish ment
Ġrespect s
Ġdisc overy
Ġfe e
Ġen joy
ĠE m
Ġatt end
ĠD o
ĠD iv
cons cious
determin es
Ġent itled
Ġconsider ations
Ġstr ong
Ġref und
Ġcommon ly
Ġassum ption
ĠL eibnitz
Ġocc ur
EN BERG
Ġperson s
Ġgu ide
Ġcop ies
mor ality
Ġco existent
Ġprom ot
regard s
Ġav ail
Ġcho ose
Ġcontinu ous
Ġinfin itum
Ġful f
incl ination
Ġbl ind
Ġconstruct ed
Ġintrodu ce
Ġprecept s
consist ent
Ġcreat ure
Ġsepar ate
Ġstatement s
Ġgen u
Ġsc hemat
Ġgeometr y
Ġuncondition al
conce it
Ġassoci ated
Ġsophist ical
Ġoppon ent
JEC T
ĠGUT ENBERG
C on
S E
a ves
f ound
f oundation
l ine
s ign
v ol
w ere
Ġ 6
Ġ 7
Ġt w
he sis
in ct
in ary
in finite
re f
it ect
at io
Ġw ond
er ted
Ġc ult
Ġc ost
Ġp aid
Ġin ferences
Ġb u
an k
Ġre ceptivity
le ological
Ġcon stant
Ġh ist
Ġh oly
Ġpr im
iv al
im ag
ow ed
Ġsu ggest
Ġreason s
ust om
ple asure
Ġun avoidable
de fin
de pend
Ġhe av
Ġim possibility
Ġrel igion
ord er
Ġacc ur
Ġacc ord
for tun
nthe tical
un te
Ġknow s
Ġpart y
str aint
ĠS olution
sol ution
Ġpl ay
Ġgo es
ici an
ach ing
ĠE pic
exist s
ang ed
Ġconstit uted
ĠM or
Ġcommon est
Ġassum ing
ĠL icense
Ġattain ment
acc ordance
Ġdefin e
Ġder iv
Ġimag ine
cognition s
Ġcorrespond s
Ġspeci f
Ġideal ism
ob lig
Ġremark able
Ġfall s
regard ed
Ġut ility
dif fic
judgement s
Ġmed iate
Ġmed ium
AR T
never theless
follow s
appl ication
Ġadvance d
metaphys ics
urs ive
tot ality
Ġta x
Ġmechan ism
Ġmag nitude
IT Y
Ġhon est
Ġexper iment
Ġimpl ies
correspond ing
investig ation
Ġsa fe
conc ern
Ġstud y
inf luence
Ġantit hesis
Ġang les
conting ent
plic ity
I R
O G
P L
P R
d og
f ind
i ent
i ol
l ogical
l lectual
n or
p ass
s cept
t t
v ation
v iew
in qu
in ions
al t
al ogism
nd ered
or s
Ġm in
se cond
ou red
le br
Ġas ide
im er
Ġon tological
Ġl ist
Ġl anguage
Ġwe ak
Ġfor ward
Ġpro posed
Ġreason able
ĠT O
con cept
con ci
Ġun til
ĠĠĠĠĠĠĠĠ ĠĠĠĠ
de g
Ġdo ctr
Ġtr ademark
Ġhe ad
Ġper mit
ad dition
Ġus ing
present ed
Ġapp e
Ġad apt
et ent
Ġch arge
Ġle aves
Ġsome times
Ġar ising
ĠN O
ĠN at
ĠN ot
Ġsub sist
pre t
Ġfre qu
be yond
Ġgr ad
The se
Ġlimit ations
Ġsay ing
pro ble
Ġhapp y
Ġact s
Ġen abl
ĠE very
ĠE ven
Ġatt ached
ĠD eduction
Ġsec ret
Ġest eem
Ġstr u
Ġconcl uded
Ġphys ics
Ġill ustr
Ġconf ess
Ġaff irmed
Ġdesire d
Ġfin al
Ġdiffic ult
Ġess entially
Ġmaterial s
Ġprom ote
Ġaw are
inte llectual
Ġcirc le
Ġconv in
consid ered
Ġdistrib ution
subst ances
Ġtrans gress
Ġcomb ination
Ġoccup ied
system atic
div ision
satisf action
Ġsyllogism s
Ġsubordin ate
hig hest
immediate ly
Ġrec ourse
Ġvent ure
Ġinsepar ably
Ġaxiom s
Ġeng aged
jun ctive
ĠÃ¦ sthetic
lebr ated
E M
O f
d edu
d uty
e qu
f act
f undamental
g ive
l ing
p ot
r ong
r ule
s how
t al
y et
in st
in ity
in ter
Ġo be
re am
it as
en ed
Ġw ide
Ġs ac
Ġin sufficient
ce asing
ing ly
Ġre p
Ġh ind
Ġpr ot
Ġpr imitive
Ġas cribed
Ġl ines
Ġfor tun
Ġsu itable
ur ious
ĠI V
con v
il i
il st
Ġun limited
ol og
Ġcom pl
est abl
Ġme asure
Ġv an
Ġhe art
Ġim it
Ġim poses
Ġper i
pos itive
su pp
ac ity
Ġad du
Ġpre p
ment ion
ĠS EC
oy al
pre ced
ĠIn t
Ġcomple x
ĠIt s
ĠW h
ĠW hether
Ġgo al
Ġgo ver
Ġemploy ing
com mon
ĠH is
Ġpres cribes
Ġjust ify
Ġsubst ant
ĠD I
ĠD is
Ġincl uding
determin ations
Ġcharacter istic
Ġdec lar
Ġ1 5
Ġconf irm
Ġdiscover ing
OO F
Ġsign s
Ġmod er
Ġwant ing
Ġinvestig ate
part s
Ġant icip
Ġexplain ed
Ġ2 0
Ġgener a
Ġfall a
dist inction
Ġpath ological
Ġaffirm ative
Ġaddition al
Ġdefinition s
philos opher
inde ed
Ġobtain ed
exam ination
requ ire
requ ires
Ġsch ol
Ġprof ound
Ġanteced es
Ġpsych ological
proper ly
appl ied
Ġrefer red
oriz on
Ġdecl ared
Ġorgan ized
ĠK ant
Ġcare fully
Ġro ot
Ġcre ation
tot al
Ġreciproc al
Ġprud ence
Ġdefect ive
compre hensible
AS ON
Ġsk ill
Ġcontem pl
lat o
Ġpract ice
ĠPRO JECT
appre hension
Ġgenu ine
ival ent
unte ers
PR OOF
/ /
: //
A nd
A ccording
A CE
I L
I M
P RE
d irect
d oubt
f all
g ing
i ences
l abour
m ain
m ode
o pposition
s ing
u el
Ġt re
Ġt ill
re ally
re me
re strict
it ious
at trib
Ġw ar
er y
Ġs ound
Ġp at
Ġin j
Ġin struction
or ical
Ġe fficient
se t
Ġre ject
Ġd ur
ent ire
Ġwh ilst
ar ies
Ġh yp
the ology
im per
im ents
im port
Ġfor bid
Ġsu ff
Ġg et
ver s
ve y
ch itect
am ong
Ġat tr
Ġsp aces
tr anscendent
tr odu
Ġtr ouble
ĠB esides
Ġper mitted
Ġab andon
Ġsy m
su ffici
ant s
ant ages
ex cept
Ġrel ated
Ġst art
Ġev id
wh o
ac ing
ĠP henomen
so ever
Ġpre jud
Ġch a
ĠĠĠĠĠĠĠĠĠĠĠĠĠĠĠĠ ĠĠĠ
be gin
Ġthen ce
Ġwhen ce
Ġgr anted
ĠC ON
Ġconnect s
Ġob vious
Ġdes c
Ġcomm ence
Ġcomm un
Ġrem ove
other wise
Ġinde pendence
ĠE go
exist ing
ĠD ialectic
Ġincl ude
Ġimp ress
cogn ize
Ġsens ations
Ġrequire ments
Ġdiv ine
Ġcontradict ions
Ġexpress ed
intuition s
Ġconf idence
Ġconf used
ma de
Ġcl ose
ĠOn ly
wor k
Ġac ute
Ġattrib uted
Ġdiffic ulties
Ġher self
Ġdoubt s
Ġaffirm ation
objective ly
Ġsmall er
ix t
Ġoper ation
Ġte leological
Ġce lebrated
AR K
Ġcomb ined
Ġfr uit
ĠIde a
Ġoccup ies
follow ing
Ġra ise
ĠJ udgement
perfect ly
ĠRE M
ĠRE ASON
Every thing
Ġgen us
change able
Ġaccom pl
speci es
Ġdeser ves
Ġconver sely
analy tical
conform ity
Ġsubordin ated
Ġredu ce
Ġheter onomy
Ġadm ir
ĠWith out
ru pt
abstr action
Ġsequ ence
adv antage
ĠSy nthetical
Ġdest ination
Ġimpul ses
Ġaggreg ate
Ġesca pe
Ġom ni
Ġones elf
Ġschemat a
Ġmin or
Ġperi od
A M
A n
A TION
C T
W ith
a en
a ps
b ig
b od
b oth
c ul
d ec
e e
e ach
f ace
i able
i ance
m ake
o x
Ġ 0
Ġ lying
Ġt ast
Ġt yp
it io
is able
is ibility
at us
Ġw rong
Ġc le
Ġc ur
Ġs ection
Ġs ides
Ġs light
ic k
Ġf ive
ou se
Ġis ol
Ġre ndered
le ad
Ġd ict
st ate
st atement
ut ions
ect ed
Ġh y
the ological
ition s
Ġex posed
Ġl ed
Ġl ose
Ġl oc
Ġsu sp
ur ality
ĠI N
qu ite
Ġor d
ec ond
if t
per son
Ġpro pose
Ġobject ion
Ġde ep
ple asant
Ġal ter
Ġal ong
Ġun ceasing
ab ove
um ber
um ption
Ġsp ect
tr ans
tr ue
Ġr id
Ġr ank
Ġme ant
Ġtr ib
Ġim posed
pos ing
su pposition
Ġse at
ex ercise
Ġrel ating
Ġst ated
Ġmor tal
ac her
Ġad missible
ĠP lato
Ġdis junctive
un al
Ġpre mis
Ġpre cisely
Ġpart ies
Ġch imer
ĠS ince
ĠN e
ĠN evertheless
ĠO bject
Ġser vice
Ġpresent ing
ort ion
ĠC om
ast ic
Ġass erted
Ġgood ness
Ġout side
Ġpossess ed
oun ces
Ġimp art
ĠM at
ĠM etaphys
Ġcomp are
Ġadv antages
Ġ1 0
Ġill usions
Ġsatisf actory
rel ations
ialect ical
Ġright ly
Ġextend ing
Ġconcern ing
Ġleg itimate
certain ly
Ġsign ifies
Ġmod ality
Ġequ ivalent
comple teness
Ġut most
sim ple
sim ilar
Ġharmon ize
Ġconj oined
Ġund oubted
Ġtreat s
Ġdistrib ute
Ġdistrib uting
Ġcriter ia
Ġstrict ly
Ġexhib its
Ġexcl uded
Ġpursu e
Ġbl ame
Ġdel usion
Ġfore going
Ġappro xim
ĠSp eculative
sum mum
ĠPrinci ple
consider ation
contain s
contain ed
ground s
Ġadopt ed
think ing
Ġed ifice
belong ing
sens ation
Ġcoun ter
Ġannihil ated
predic ates
success ion
abstr act
Ġsequ el
expl anation
ante ced
ĠAccording ly
Ġconfin e
Ġobst ac
Ġborrow ed
ug ment
Ġpreser ve
Ġstreng th
hypothe sis
Ġbeh ind
Ġcult iv
tt p
deg ree
Ġgover n
main tain
Ġdur ation
ixt ure
aen omen
8 0
C hapter
E x
G od
H ere
L et
R I
V E
a f
a uthor
c ks
c lear
d eduction
d ialectical
f it
g er
g ain
i er
m ight
n ce
n ay
o ot
s our
Ġt end
Ġt ell
Ġt aking
Ġa ir
Ġthe sis
re ference
it ate
Ġp enetr
al og
ic ion
Ġin ward
Ġb re
or m
Ġf ict
an throp
Ġre sol
Ġre comm
Ġre place
Ġcon straint
Ġd r
Ġd im
Ġd ream
Ġbe ar
ot t
ut able
Ġh id
Ġh ard
Ġex ert
Ġl ink
Ġl aid
ib ly
if orm
Ġpro p
ĠT RANSCENDENTAL
con cl
con ceived
con struction
Ġde pr
Ġint ended
us ive
ill usion
Ġun ion
Ġun worthy
Ġthere to
of old
Ġunder t
Ġwill s
Ġany where
Ġform at
pr ight
pr ogress
Ġab ility
Ġst op
ĠA uthor
Ġsubject ed
ĠP er
Ġdis claim
un condition
un less
so le
Ġpre fer
tern ity
Ġar chitect
Ġwhat soever
ĠS to
op e
Ġne arer
Ġcomple tion
Ġgr ant
Ġthought s
ĠC ategor
ĠC hapter
Ġconsid ers
ĠE BOOK
Ġam big
ser ve
av oured
man ner
man uel
Ġorigin ated
Ġcogit ating
ĠM y
Ġcomp ly
Ġcomp ared
app ro
ev ident
ĠL ogic
Ġattain ing
Ġbefore hand
empirical ly
ĠCon ception
Ġset s
Ġple asant
Ġdistingu ishing
Ġperson al
Ġnum er
Ġattempt ed
ane ous
ane ously
any thing
ail ed
Ġexpect ation
Ġappre hend
Ġprom ises
Ġallow able
Ġdepend ence
Ġop inions
regard ing
Ġmaintain ed
ext ension
dif ference
cor rect
Ġbring ing
Ġte ach
Ġte aches
Ġcorrect ness
limit s
ogene ity
Ġask ed
AR RAN
Ġseek ing
Ġrecogn ize
Ġrecogn ized
Ġspontane ous
ĠĠĠĠĠĠĠĠĠĠĠĠĠĠĠĠĠĠĠĠ ĠĠĠ
ĠIde al
incl uding
comm and
ĠJ ust
Ġro om
distingu ished
mathemat ical
ins ic
presu pposes
Ġannihil ate
predic ate
Ġhon our
Ġtransc end
Ġheter ogeneous
ash ion
Ġprob ably
Ġanalog ies
ĠIm manuel
occ up
Ġmention ed
Ġrece iving
valid ity
draw n
Ġeth ics
Ġremo ved
Ġindirect ly
aff irm
expect ed
ĠPU RE
again st
asser t
Ġfulf il
depend s
inqu ir
Ġdoctr ines
Ġadapt ed
Ġenabl es
Ġcha pter
ĠJudgement s
Ġtast e
Ġhy per
Ġsusp icion
F ACE
Q U
R IN
c o
c ol
c osmological
e lectronic
f ers
g ener
i us
i ating
i ology
l ong
l ied
m od
m ember
n umber
o pposite
p rom
r i
r ist
u ity
w as
Ġ ver
he d
Ġa ugment
in c
Ġthe ological
re nder
re ciproc
is ions
en lar
at ur
at icism
er able
Ġc ent
al th
Ġin adequate
or ph
Ġm on
Ġf ashion
an ations
Ġe ternity
se c
se e
Ġre ve
Ġre pro
Ġre ached
Ġd am
Ġd ays
Ġd imin
ar bitr
Ġh orizon
Ġpr a
iv able
im ity
Ġan n
Ġex erc
Ġl arge
Ġwe lf
Ġfor ced
ir ing
ur ther
ur us
res ult
ist ics
Ġpro ving
Ġpro pri
ĠT r
Ġde ath
Ġde part
ore over
il is
Ġal most
Ġal leg
ill ed
Ġun certain
ab s
ans w
Ġsp ite
est y
Ġem br
Ġdo ll
ĠB oth
ori ly
pr op
ad missible
Ġsh ap
ĠF irst
ĠF reedom
Ġide ality
Ġrel ative
Ġj oin
Ġch ance
cl os
Ġsome what
el s
el se
ĠO r
me thod
Ġass ured
Ġemploy s
com b
com par
Ġdisc ursive
Ġinde termin
Ġinde finite
ĠH im
Ġext reme
Ġact ive
under stood
Ġen ounce
Ġout ward
Ġprodu cing
Ġsynthetical ly
Ġincl udes
Ġview ed
Ġcor relate
Ġpower ful
Ġest imate
Ġsee ks
ĠL et
Ġdec ided
und red
ĠU se
Ġset t
Ġclear ness
Ġright s
crib ing
Ġextend s
Ġansw ered
che d
Ġcommand ed
Ġread y
Ġread ily
Ġvirt uous
ĠTH IS
Ġerr one
Ġover step
Ġhold ing
Ġdoubt ful
ob tain
pure ly
Ġpass es
Ġpreced ed
Ġprogress ion
dist rib
Ġpeculiar ity
Ġdraw ing
oc k
Ġanalytical ly
ne ed
ne ither
categor ical
disc overed
Ġte acher
inde pendence
Ġpar alogism
Ġmoment a
ĠEx perience
Ġestablish ment
caus es
ĠĠĠĠĠĠĠĠĠĠĠĠĠĠĠĠĠĠĠĠ Ġ
ĠĠĠĠĠĠĠĠĠĠĠĠĠĠĠĠĠĠĠĠ ĠĠ
Ġcompre hensible
Ġdestr u
Ġche cks
Ġdecl ares
ĠV II
Ġorgan on
metaphys ic
constit ute
constit utive
Ġdisp ute
Ġdisp utes
Ġscept ical
Ġfa ith
Ġcre ated
my self
Ġgain ed
speci al
Ġdeser ve
Ġdogmat ic
Ġhigh ly
sens es
Ġcol our
Ġmag n
Ġredu ced
Ġuncondition ally
ĠAN Y
ĠHow ever
crit ical
hig her
Ġtal ent
Ġaccident al
obser vation
Su preme
Ġfirm ly
Ġobsc urity
nex ion
Ġindif ference
Ġindif ferent
psych ology
neg ative
Ġdisappear s
legisl ation
Ġaccomp an
Ġenjoy ment
Ġavail able
Ġwond er
Ġbu ild
Ġhist ory
defin ition
ĠNat ure
Ġfortun e
mention ed
According ly
PRE FACE
Ġtre ated
Ġwar ning
imper ative
import ant
ĠPhenomen a
ĠREM ARK
Ġslight est
Ġtrib unal
aenomen on
Ġwelf are
" ;
7 8
? "
A B
A N
C I
O M
P H
Q u
S I
T RANSCENDENTAL
U C
a u
a ffect
c op
c oun
c ases
f lu
h omogeneous
i ality
m o
n ed
n oumen
o ad
o ice
p ore
s mall
v iz
v ari
w ay
w ord
Ġ -
in ally
en g
Ġw a
Ġw id
Ġw ater
Ġc red
al f
Ġin c
Ġin here
Ġin stit
Ġin ner
Ġin struct
Ġb ase
Ġth y
Ġth reat
Ġm ut
Ġm und
ce ll
Ġf l
Ġf ile
Ġf oot
Ġn ull
Ġe rect
se arch
Ġre pe
Ġcon ject
Ġd ay
st ill
ent ia
ar ante
as is
Ġh undred
Ġpr ide
Ġu seless
Ġu pright
im ental
Ġan throp
Ġex pose
Ġsu scept
ter m
Ġg ift
ci ation
ain ted
Ġpro pens
ĠT ot
con duct
con struct
Ġint ensive
il ities
Ġun b
Ġun necessary
Ġun iform
ab led
Ġprinci p
est eem
Ġr ation
Ġr ange
Ġexist ences
Ġv iol
Ġhe ar
Ġim prov
su preme
ind ividual
ant icip
ĠF OR
Ġqu ar
now ledge
ĠA l
ĠA pp
ac ks
Ġy ear
et ween
Ġsynthe tic
Ġar che
ĠS elf
Ġsub mit
ĠO N
mat erial
ag ree
Ġpl urality
ort unity
Ġend owed
ost at
pro ved
pro cedure
Ġrem ote
Ġsystem s
Ġexam ined
under stand
Ġyou th
Ġen abled
Ġatt ack
lect ive
Ġent ered
cogn ized
Ġorigin ally
Ġshow ing
Ġquant um
ĠM e
Ġconsider ing
Ġdiv isible
Ġmatter s
Ġadv isable
Ġconce al
Ġremain ing
Ġdec om
Ġdec ision
lu ences
Ġpresu pposing
Ġsupp ly
ert itude
Ġconf usion
Ġaff inity
Ġconform s
Ġset ting
Ġple ase
Ġimper fect
Ġregress ive
Ġarr anged
Ġchange able
Ġel aps
Ġperson ality
Ġseem ed
irt ue
Ġindic ating
do ctrine
Ġconduct ed
Ġess ence
Ġfall acy
Ġsuper ior
gr ad
Ġchang ed
ĠAn t
happ ens
Ġsing ular
Ġvol unteers
Ġtreat ise
Ġbring s
Ġdistrib uted
limit ation
Ġintu itive
peci al
Ġcontinu ed
ĠUn ity
ap perception
Ġexhib ited
ĠEx position
intellig ence
ordin ated
Ġdesign ate
Ġobserv ations
Ġbecom ing
quest ions
synthetical ly
Ġsur face
dem and
Ġsort s
Ġ5 0
Ġpostul ates
ĠK nowledge
Ġro ad
Ġoff ice
Ġacqu ainted
cogit ated
Ġgeometr ical
ĠÃ Ĩ
Ġcol lection
Ġmechan ical
path ological
Ġpe ace
success ive
demonstr ation
ww w
Ġdirection s
Ġprud ent
Ġaccident s
Ġproduct s
Ġanalog ous
ĠPro of
ĠPro ble
Ġcontem por
Ġassign ed
Ġhum ili
Ġobst in
Ġpun ishment
ĠPh ilos
ĠPh ys
vere ign
Ġcap acity
Ġanci ent
Ġanci ents
consequ ences
Ġdevelop ment
Ġsubl ime
Ġusu al
super sensible
feel ing
Ġmult itude
argum ents
Ġpros pect
ĠDiv ision
Ġtw ofold
imag ination
Ġheav en
ĠEpic urus
oblig ation
IR ST
ĠĠĠĠĠĠĠĠĠĠĠĠ Ġ
Ġappe al
Ġgrad ually
proble matical
Ġsac r
Ġcompl iance
Ġvan ity
ĠInt uition
ĠDis cipline
entire ly
Ġhyp ostat
suffici ency
Ġadmir ation
bod y
Ġisol ated
econd ly
Ġdoll ars
Ġsett led
pore al
Ġarche ty
Ġelaps ed
, [
6 8
; _
A G
B e
B ook
B eing
C L
O ur
T Y
U L
a el
b arr
b ased
b asis
c id
c our
e avoured
f ig
g ives
j unction
l imin
o res
o pp
o ast
p o
p et
v irtue
w ish
Ġt ech
Ġa f
Ġa ge
in al
at iv
Ġs ite
al id
ic ated
Ġin consistent
Ġb ott
es pect
or ies
Ġm id
Ġm ov
Ġf ix
Ġf latter
Ġf iction
se m
Ġre conci
Ġd ue
Ġd atur
Ġbe a
om p
om ogeneity
om orph
ot le
ar mon
ich ael
Ġh ouse
Ġpr int
Ġu r
os en
Ġon line
ow ers
Ġsu pposing
ter s
ur y
ver se
ist ence
ist inction
per haps
ul g
Ġde al
ple x
Ġun changeable
ab or
âĢĶ âĢľ
ĠĠĠĠĠĠĠĠ ĠĠĠ
ĠĠĠĠĠĠĠĠ ĠĠĠĠĠĠĠ
Ġ( Â§
Ġthere with
tr y
Ġr ad
Ġr ash
Ġr oyal
Ġso vereign
Ġwill ing
Ġv is
ĠB e
Ġno ble
pr of
ad d
ad mit
ad istinction
Ġsh ar
Ġsh are
ement s
Ġad mission
ĠP ossib
so phist
Ġworld s
et ch
fere d
Ġch ar
Ġch osen
ĠĠĠĠĠĠĠĠĠĠĠĠĠĠĠĠ ĠĠĠĠĠĠĠĠĠĠĠĠĠĠĠĠ
sp eculation
sol u
Ġma ch
Ġfar ther
Ġcomple ted
Ġbel ow
Ġcont act
ĠG ree
ĠW ARRAN
Ġgr ow
Ġgr and
Ġcontr ast
Ġdes p
form al
are st
Ġpos ited
ĠH art
Ġfe es
Ġag ent
Ġground ed
Ġen umer
ĠE X
Ġmaxim um
Ġpossess ing
Ġprodu ctive
sy llogism
Ġam ount
av ing
Ġsim plicity
Ġatt ended
lect ed
ang es
Ġimp ly
determin ate
Ġself ish
Ġfeel s
there by
Ġmode l
Ġinf all
Ġcogit able
Ġexpl anations
ĠM an
Ġwhere in
Ġproceed ed
Ġcomp ut
Ġcomp ens
Ġsee ing
Ġfree ly
ev ol
reg ulative
Ġ1 2
Ġsupp lied
Ġphys ico
Ġdirect s
acc ount
Ġcl os
wor ks
Ġset tle
Ġarr ange
Ġarr iving
Ġocc urs
perception s
Ġansw ers
Ġimag inary
che s
Ġparticular ly
ON D
Ġgu arante
Ġindic ated
Ġmethod s
contradict ions
Ġbelie ves
Ġover look
Ġequ ip
Ġtheoretical ly
Ġpost ed
Ġbound aries
Ġexplain ing
Ġapply ing
Ġmis understanding
Ġlook ing
Ġlook ed
Ġmaintain s
Ġaddition s
Ġfalse ly
ne w
philos ophical
00 0
Ġdisposition s
Ġobtain ing
br ought
ap odeict
des ire
Ġtrans ition
Ġrecogn izes
Ġexcl ude
Ġ3 0
rem ains
Ġpursu it
Ġpursu es
Ġrestrict ed
appl icable
Ġadvance ment
produ ce
produ ced
Ġpostul ated
IN G
univers ality
Ġpositive ly
perfect ion
Ġwit ness
Ġfa ult
Ġaccept ed
possess es
conf idence
Ġcircumst ance
Ġdogmat ism
Ġhappen ed
Ġkeep ing
IT ED
path y
Ġlabour s
Ġconflict ing
enetr ability
Ġtal ents
Ġfan aticism
Ġreciproc ally
effect s
point s
Ġir re
Ġasc ending
Wh ile
mot ive
ĠSy stem
Ġobsc ure
Ġafford s
Ġelev ated
Ġdanger ous
Ġmark ed
Ġeth ical
Ġsubl imity
independent ly
Ġincre ase
Ġusu ally
Ġexec ution
Ġpersu asion
ĠCh rist
ĠEm pirical
Con sequently
ustom ed
Ġaccur ately
diffic ulties
OG Y
Ġfrequ ent
Ġstru gg
Ġconvin ced
Ġfalla cious
Ġschol astic
IL ITY
IM ITED
Ġevid ently
Ġcommence ment
Ġimpress ions
Ġomni pot
AM AG
Ġspect ator
Ġpremis ses
ĠNe w
Ġundoubted ly
anteced ent
Ġbre ak
Ġhid den
Ġrepro ach
Ġshap e
clos ed
Ġindetermin ate
Ġerrone ous
flu ous
ĠTot ality
Ġquar ter
Ġcontempor aneously
barr ass
Ġtech n
Ġbott om
A C
L I
N o
O D
O L
O RE
S IS
U nderstanding
W hether
] ,
a per
a ult
a pon
b ound
c irc
c ritique
d on
f urn
h ood
h ope
i hil
k en
m ist
m ong
m echan
p perception
p ublic
p gl
p owers
r og
r ust
r ance
r ather
s us
u ct
u ly
w ant
y right
Ġ 8
Ġ z
on ically
in om
in separ
re pt
re nt
it ation
it ative
it les
Ġof ficial
is en
at ory
Ġw ww
er ci
Ġc our
Ġp o
Ġp ress
Ġp aper
ic ial
ic ability
Ġin complete
Ġin comp
Ġb ook
Ġb oast
Ġto uch
Ġm arks
Ġm ixed
an im
an cing
Ġn ext
Ġn amed
Ġe ternal
Ġe go
se en
Ġre tain
le x
Ġcon nexion
Ġd ate
st on
st ead
ot ed
Ġas certain
im press
Ġan nex
Ġex empt
Ġex ceptions
Ġex cell
Ġl ic
Ġl ur
Ġl iving
Ġl ater
Ġnot ice
ĠĠĠĠ ĠĠ
Ġsu n
Ġsu it
ir th
th ics
th row
og icians
res ist
ain ing
ul ation
ul ates
em pl
em onstr
em br
Ġde tr
act ing
Ġal tern
us ively
am ent
Ġun f
ab out
ol f
Ġour s
Ġsp o
not ions
Ġr un
Ġso ph
ide al
Ġtr ied
Ġv ac
Ġv ice
ge t
Ġform ation
pr act
ad ed
su ppose
Ġcogn izing
Ġse es
ex per
Ġqu a
Ġman kind
ca p
Ġsubject ing
ĠP RIN
un t
un avoidable
Ġevery where
ĠĠĠĠĠĠĠĠĠĠĠĠĠĠĠĠ Ġ
ĠS T
ĠS ome
ie ve
Ġph aenomenon
ĠN or
ens es
Ġsub stit
int u
ag greg
ĠIn formation
Ġpresent ly
Ġcont empt
Ġlimit ing
Ġrequ iring
Ġass ent
Ġass ure
form s
form ed
form ula
Ġown er
Ġphilos oph
with in
other s
Ġinde finitum
âĢĿ âĢĶ
Ġext inction
Ġformer ly
Ġground less
Ġen ounces
Ġeffect ed
Ġpres umption
ĠE ither
Ġreal ization
Ġjust ly
av id
man y
phys ico
edu c
ass um
Ġent ertain
Ġent itle
Ġorigin ating
ĠWe b
Ġinv alid
ful ness
Ġinf luences
Ġcogit ates
ĠM oreover
ys s
abl eness
phenomen al
ra se
Ġdiv ide
Ġdiv isibility
Ġind is
Ġcomp etent
app ly
Ġ1 9
Ġpredic ated
acc ident
Ġconform ed
Ġconform ably
Ġregress us
Ġarr ived
dis position
Ġinfinite ly
Ġel abor
TI TH
Ġneed s
Ġmod ern
Ġresult ing
Ġindic ation
HA T
Ġread ers
bec ome
Ġant inom
Ġspeci fic
arr ow
Ġhold er
Ġsol ic
Ġsol id
Ġsol ve
AL EC
Ġco inc
Ġinst inct
Ġhar m
Ġprov ince
Ġpass ing
Ġelse where
Ġden om
Ġgener ated
up il
Ġmaintain ing
ĠTHE SIS
Ġpath s
ext ent
Ġadd s
Ġconj oin
categor y
Ġtreat ing
Ġtreat ment
Ġjud ged
Ġjud ging
Ġoper ating
Ġintr insic
Ġconv en
Ġcorrect ly
Ġpret ended
Ġamong st
Ġintu ite
Ġcontinu ity
Ġmoment um
Ġcompar ative
Ġsupport ed
requ ired
just ice
Ġexcl udes
Ġexcl usively
Ġcomb at
Ġspontane ously
ole m
incl inations
Ġke y
Ġapodeict ically
appear s
appear ance
Ġelement ary
consist ency
Ġear ly
employ ed
Ġavoid ed
Ġinevit able
ES IS
Ġsepar ated
Ġacqu ired
Ġopp ortunity
ĠSt ill
Ġdogmat ist
presu pposed
satisf actory
Ġta ught
analy sis
Ġexper iences
Ġimpl ied
ĠAN AL
Ġdef end
crit icism
great er
Ġ9 0
Ġassoci ation
Ġfour th
attain able
Ġwrit ing
Ġrece ives
Ġconfin ed
Ġformula e
Ġenlar gement
Ġdiscuss ions
mot ion
post eriori
rest s
Ġimpul se
maxim s
TIC AL
contin u
psych ological
Ġreckon ed
Ġsubsum ption
Ġauthoriz e
Ġauthoriz ed
Ġspirit ual
indic ate
Ġaccomp any
ele ments
ik es
Ġcal cul
Ġmo on
Ġmo ving
Ġmult i
argum ent
ĠDiv ine
sign ification
Ġcost s
Ġconstant ly
Ġprim ary
Ġaccur ate
ĠMor ality
Ġderiv ative
Ġmediate ly
concern ed
dog mat
ĠNot hing
dedu ced
olog ia
Ġprep are
ĠSEC TION
preced ing
Ġsubstant ial
ĠDI ALEC
Ġconfirm ation
Ġmoder ate
philosopher s
Ġinj urious
vey ed
begin ning
Ġtyp e
Ġloc ated
ĠMat hemat
sour ce
Ġreplace ment
Ġlink s
sole ly
ĠCategor ies
assert ions
Ġwonder ful
eng th
Ġfl ow
Ġration is
Ġdecom position
ĠÃĨ sthetic
ĠPhilos ophy
Ġheaven ly
Ġsacr ifice
limin ary
solu ble
ĠGree k
Ġequip ment
ĠChrist ian
apon s
pgl af
Ġsoph ism
TITH ESIS
! "
4 1
D UC
E AS
L eibnitz
M etaphys
P er
P ure
P lease
P ART
S p
S t
S uch
S EC
S econdly
T RO
U ND
a de
a seless
c ame
c ult
f urther
h armon
i i
i ability
l ogic
l ife
m akes
p ute
r y
r ules
s ed
s oul
s chema
t reat
u ality
y m
Ã ¦
Ġ ve
Ġ ***
Ġt en
Ġt itles
he s
he res
on y
in fin
Ġo mit
Ġo ppose
re ction
re ement
re ceive
it ates
Ġof fer
en evol
Ġs il
Ġs alt
Ġp ortion
Ġp upil
Ġin ex
Ġin ability
Ġin ternally
Ġin admissible
Ġin soluble
Ġb and
Ġb ind
Ġb irth
es pecially
Ġto pic
Ġf at
Ġf ixed
an ing
an cy
an nihil
Ġn arrow
Ġe lectr
Ġre action
le t
Ġbe tr
Ġbe ars
Ġbe came
st one
ut ic
ut ility
ut terly
Ġh ttp
Ġh alf
Ġh omogeneity
Ġpr ime
the oretic
im possibility
os es
Ġex ternally
Ġex posing
Ġl ot
Ġl ab
Ġl icense
Ġl ength
ess ential
Ġwe al
ter med
ure an
Ġg ave
th ree
ur a
ci l
ĠI s
qu al
ist otle
if ferent
per manent
Ġpro poses
em per
ĠT ake
Ġde ce
end er
us es
Ġun fortun
de v
de fect
de finite
ig ination
tain s
tain ing
Ġthere from
Ġsp urious
tr oy
tr ademark
ecess ity
her ing
Ġtr ust
Ġtr ack
Ġtr ying
Ġv oice
Ġhe s
Ġhe ight
Ġim pose
Ġper plex
Ġab ide
ad ly
ad mitted
ad ox
su al
ĠF IRST
ex position
ex cl
Ġst ead
Ġst atus
wh ose
ĠA b
Ġacc ustomed
ult aneous
ĠP art
Ġdis pens
Ġdis similar
un iverse
Ġknow ing
Ġpre liminary
Ġpart icip
Ġch ild
cl ass
Ġrepresent ing
Ġar isen
Ġmy st
fin ally
pre vious
Ġser ved
Ġdif fer
Ġgo ing
me ll
me aning
Ġlimit ative
Ġass ist
Ġass istance
Ġconnect ing
Ġdist ance
com position
pro ve
Ġrational is
ine v
ĠH uman
Ġfe ll
less ness
Ġen closed
Ġpres cribed
ha ust
Ġthink er
Ġthink ers
aly tical
Ġreal ized
oun ced
Ġgreat ly
ĠD IS
ĠD AMAG
ĠD avid
Ġimp ed
Ġview s
Ġconstit uting
Ġinv isible
there of
Ġshow ed
Ġintellig ent
Ġintellig ences
ĠM OR
ĠM ichael
Ġcharacter istics
Ġconsider able
Ġstr ange
Ġdedu cing
Ġcomp ass
Ġadv ancing
ev il
Ġres ide
Ġattain s
Ġphys iology
Ġcontent ment
Ġdirect ing
acc omp
ĠCon cl
Ġconform able
Ġestabl ishes
Ġleg al
Ġdistingu ishes
Ġmod ific
Ġnum bers
Ġread able
Ġdemonstr ations
Ġsol ved
Ġprov iding
Ġpass ed
Ġ2 5
Ġrender ing
Ġchang ing
Ġlegisl ating
Ġaw aken
oc r
sim ply
Ġagre es
bl es
Ġinfer ring
Ġintu iting
exam ples
Ġstrict est
Ġmed iating
Ġcompar ing
des er
des troy
ĠEx istence
ify ing
bel ief
pur su
Ġfr ame
Ġfr amed
Ġobserv ance
Ġanteced ently
Ġabstract ed
rem ark
ĠAr istotle
Ġpursu ed
Ġey e
Ġrestrict ion
Ġrestrict ions
Ġdel iber
proper ty
Ġintrodu ction
Ġintrodu cing
comm un
Ġdecl are
ĠV I
produ ction
Ġfurn ished
consider ations
inv ol
metaphys ical
Ġoff ers
Ġfa ir
Ġsuffici ency
Ġfavour able
Ġstep s
Ġfig ures
Ġdeser ving
presu pposition
interest s
free ly
belong s
Ġcoun try
origin al
IC T
like wise
Ġtransc ends
Ġadm ixture
How ever
Ġfan cy
Ġprob ability
expl ain
Ġclass es
correspond s
Ġcomprehend s
compre hend
power ful
Ġsk etch
obser ved
Ġparagraph s
Ġoppon ents
Ġir resist
Ġwrit ten
Ġindu bit
Ġasc end
Ġenlar ge
Wh atever
Ġinsepar able
Ġbene fit
Ġcontrib ute
Ġcontrib utes
ĠDe ity
Ġ200 2
distinguish able
Ġpay ing
Ġnecessit ated
Ġqual ities
Ġqual itative
Ġsubsum ed
Ġdevelop ed
express ion
ik ing
Ġren ounce
Ġexec uted
Ġdisplay ing
ĠDo ctrine
PL ES
dog matical
pret ensions
Ġfrequ ently
Ġtransgress ion
show n
inst ead
Ġobe y
conv in
establ ished
Ġaddu ced
ĠSEC OND
Ġpat ient
Ġforbid s
Ġsuff er
Ġattr action
Ġsym pathy
Ġclose ly
ATION S
lead s
Ġrid ic
Ġapproxim ate
Ġobstac le
Ġcultiv ation
Ġdream s
Ġarchitect onic
ĠSto ics
ri ption
sec ure
Ġpropri ety
Ġalleg ed
Ġembr ace
Ġdestru ction
Ġbuild ing
CI PLES
Ġconject ure
Ġgift s
Ġpropens ity
Ġimprov ement
Ġyear s
Ġhumili ation
fig ure
ores aid
ativ um
Ġmov ements
Ġrad ical
Ġclos er
apodeict ic
Ġtechn ical
DUC TION
TRO DUCTION
Ġelectr onically
Ġbetr ay
ĠDAMAG ES
ĠMOR AL
Ġmodific ations
. .
1 5
1 6
A r
C TICAL
D e
E TH
G r
G RE
H e
M ETH
N ot
S o
S ince
T r
U D
Y ou
a x
a ccess
a utonomy
b al
b ol
b its
b onum
c osm
c ision
c ourse
d id
d ay
d one
d ated
d ialectic
e ed
e ffort
g ulative
h on
h ab
h ttp
i pp
i ans
l iberty
m oment
m erit
m ixed
n a
p eculiar
s pon
s ight
s aid
t on
t ext
u ary
u ge
v olution
y llogism
ĉ ĉ
Ġ id
Ġ Qu
Ġt ext
he ter
Ġa ston
on ations
in cre
in finitum
in trodu
Ġthe ories
re fer
re ckon
it ful
en ing
en cies
at i
Ġw ished
er o
er ity
Ġc at
Ġs ize
Ġp olem
al e
al ed
al le
al ready
ic es
ic ate
Ġin n
Ġin cor
Ġin sist
Ġin comprehensible
Ġin consistency
nd eed
Ġb on
Ġb urd
Ġth ou
or gan
Ġm ine
ct ory
Ġf ate
Ġf il
an ci
Ġn ihil
Ġe ase
Ġe lective
se ct
se em
se ction
Ġre str
Ġre view
Ġd ark
Ġbe gan
om ents
ar ise
Ġpr ag
iv il
os s
Ġan im
Ġex ag
Ġl ate
Ġl est
ject ed
Ġwe b
Ġsu st
Ġsu pposes
th orough
ur ies
ci ent
ci ated
ĠI ll
og ant
ist rib
if ference
per ceive
ul er
em piricism
ĠT hen
Ġare na
con ceive
con junction
ch ain
Ġde ceived
end eavour
act ive
act ual
us h
us ing
ill ion
aw ay
am es
Ġun it
Ġun expected
um b
de utic
Ġca st
Ġcom pr
Ġcom posed
tr ansc
of t
Ġr u
Ġr ound
Ġr ace
Ġr atio
Ġr uler
Ġem ail
Ġem barrass
Ġso ever
Ġdetermin ative
Ġdo ing
Ġtr ace
Ġv it
Ġv ict
Ġv ag
Ġcondition al
Ġcondition ally
ary ing
ge ometr
Ġhe alth
Ġper ce
Ġab yss
ad m
Ġsy non
pos it
ind ispensable
Ġus er
ant ly
ĠF undamental
Ġse ven
Ġse vere
ex c
ex ception
ex hib
Ġst e
present ation
wh atever
ĠA fter
ĠA SC
ĠA pperception
ĠA GRE
for th
pon ed
pon ent
ĠP RA
Ġdis gu
un able
un known
un ciation
Ġy ield
et s
et ary
here nce
Ġch ief
Ġle aving
sp e
Ġar ound
Ġar ose
ie ce
Ġph rase
ress ed
el t
Ġsub ter
Ġma st
op ing
op inion
pre v
Ġne ar
ag reement
ĠIn trodu
Ġpl acing
ort ions
ĠG r
ĠG er
ĠG ood
ĠW ill
ĠW here
Ġend eavoured
Ġgr at
Ġcontr over
rit ical
ĠC RI
Ġrequ est
Ġdes cribe
Ġdist ant
Ġdist ress
ari um
com posite
Ġcall s
Ġcall ing
pro b
ici ous
Ġen cour
ĠR ational
Ġpres cribe
ĠE nd
Ġsensib ly
Ġreal ize
Ġjust ifies
ser ves
Ġcrit ic
Ġatt ach
Ġatt acks
ĠD es
Ġsensuous ly
ass ign
Ġent ity
Ġcor poreal
Ġquant a
ĠRe gulative
ĠM is
Ġstr ike
Ġstr ives
Ġanaly sing
Ġref use
Ġref ers
Ġdiv erse
Ġcomp lying
Ġcomp els
Ġadv ances
Ġcontradict s
Ġconcl uding
Ġconce iving
Ġconce ivable
ĠL ogical
ĠL OG
ĠL IMITED
Ġremain ed
Ġdec ides
lu cid
Ġ1 78
Ġres istance
Ġlogical ly
Ġconsist ency
Ġdiscover able
acc ur
Ġsatisf ies
know s
Ġworth iness
practical ly
EN CE
Ġobser ving
TI ES
TI QU
Ġseem ingly
Ġmod est
Ġac knowledge
ĠĠĠĠĠĠĠĠĠĠĠĠĠĠĠĠĠĠĠĠĠĠĠĠ ĠĠ
ĠĠĠĠĠĠĠĠĠĠĠĠĠĠĠĠĠĠĠĠĠĠĠĠ ĠĠĠĠĠĠĠ
Ġattempt ing
Ġneg lect
cont empl
subject ively
aim s
Ġbelie ved
bec om
Ġspeci ally
ane ity
arr ant
Ġequ ality
Ġideal s
ĠPr int
Ġtoo k
Ġcontin ually
Ġinst ances
Ġexpect ations
Ġpass ive
Ġess ay
Ġden ies
Ġaffect s
Ġmis sion
Ġallow s
Ġsuper fluous
Ġcopy ing
Ġut ter
ext ensive
** ***
ĠAn alytical
oc ation
oc ke
Ġes pecial
Ġyour self
giv ing
Ġbr an
according ly
Ġinquir ing
disc us
Ġthorough ness
Ġconv ince
Ġpret end
Ġobtain s
Ġinvol ve
Ġinvol ving
sh all
des ign
proc ess
just ified
Ġrecogn ise
pur poses
Ġfr i
Ġabstract o
rem ain
Ġdon ate
Ġsur pr
Ġoccup ation
Ġdel usive
Ġconstruct ing
att ention
Ġappro ach
Ġmanifest ations
separ ate
Ġdecl ine
Ġadequate ly
Ġorgan ization
produ ctive
Ġlet ter
consist s
Ġcreat or
Ġcreat ing
Ġcreat ures
There fore
constit ution
comp elled
Ġacqu ire
Ġacqu aint
ground ed
TH E
ins ight
Ġproblematical ly
CE P
more over
Ġfig ur
Ġdefinite ly
speci f
Ġed ition
Ġed itions
ispens ably
Ġcoun sel
real ization
gu idance
Ġfill ing
Ġfill ed
Ġdef ence
Ġdef ici
Ġmeet s
Ġsecure ly
great est
Ġtal k
Ġfan cies
Ġprob able
Ġfail ed
Ġultimate ly
adv ance
ator s
ĠIm possibility
Ġdet ected
Ġdet ailed
Su ppose
attain ed
Ġwrit ings
Ġindu ce
Ġasc ent
Ġsent iment
Ġsent iments
Ġbene ficial
Ġsucceed ed
Pr odu
Ġpun ct
Ġmist akes
Ġmist aken
Ġperform s
Ġ200 1
Ġpay ments
Ġstreng then
Ġmerit orious
Ġfit ness
consequ ence
Ġestim ated
Ġestim ating
Ġesca p
ele ment
oper ation
imp enetrability
Ġdev oted
Ġdisplay ed
Ġpromot ion
Ġpromot ing
Ġfulf illed
ref lection
Ġhist orical
Ġprim arily
Ġheav y
Ġaccord s
fortun e
Ġderiv ation
Ġspecif ied
diffic ulty
Ġweak ness
concept s
ĠNO T
Ġsubsist s
Ġesteem ed
Ġconvin cing
EM ENT
Ġobe ying
Ġwide ly
Ġhind er
Ġhind rance
establ ish
Ġimit ated
supp ly
supp ort
preced es
Ġanticip ate
Ġfalla cies
Ġcontempl ation
attrib ute
Ġfruit ful
Ġaccompl ish
Ġaccompl ished
rupt ed
An alytic
With out
dec lar
ick ed
statement s
Ġdeep ly
Ġalter ation
trans ition
ĠObject s
Ġservice able
Ġimpart ial
ĠMetaphys ic
Ġobstac les
Ġgovern ment
author ity
Ġtend ency
Ġfict ions
Ġfict itious
Ġdim ensions
Ġexert ions
Ġdepr ive
Ġundert aking
uncondition al
uncondition ally
Ġambig uity
occup ied
inquir y
inquir ies
gener ally
Ġpra ise
abs urd
answ er
prop ortion
Ġaccompan ied
AB ILITY
PH Y
au sible
Ġwid est
Ġmund us
Ġrepe ated
Ġupright ness
Ġsuscept ible
Ġprincip al
ĠAl though
ĠMe thod
ĠAnt inomy
Be fore
Ġaf oresaid
Ġur ged
ĠĠĠĠĠĠĠĠĠĠĠĠĠĠĠĠĠĠĠĠĠĠĠĠĠĠĠĠĠĠĠĠ ĠĠĠĠĠĠĠĠĠĠĠĠĠĠĠĠĠĠ
ĠWARRAN TY
Ġcomput er
OD OL
mechan ism
rog ative
insepar ably
Ġincomp etent
Ġexcell ent
embr acing
exper iences
ĠPRIN CIPLES
aggreg ate
Ġantinom ies
Ġdenom in
Ġmulti plicity
ĠDIALEC TIC
Ġsophism s
Metaphys ic
Ã¦ deutic
infin ity
enevol ence
Ġfat al
accomp an
Ġirresist ible
METH ODOL
spon t
Ġpolem ic
Ġexag ger
ĠASC II
ĠPRA CTICAL
ĠCRI TIQU
ĠLOG IC
METHODOL OGY
ĠCRITIQU E
2 2
5 0
7 1
? âĢĶ
A t
A PHY
B oth
E T
E m
F L
G eneral
I de
I ON
I ES
N evertheless
O S
O SE
P h
P RO
R espect
S ome
S mall
S IC
S ee
T RA
T RI
U n
V IS
_ âĢĶ
a cious
b ed
b ar
b ation
b ring
b etween
c reat
c ertitude
d le
d ut
e al
e es
e go
f und
f avour
f ield
f ounded
f uge
h ad
j oined
l ain
l able
l ast
l ittle
l ines
l oad
m et
m ag
m aking
n g
n is
n et
o e
o ose
o ved
p opular
r am
r ies
r own
s ur
s ch
s pr
s ort
s let
t ent
t est
u x
u ent
u um
v oid
v arying
w are
x is
y our
y ield
Ġ educ
Ġa ut
Ġa str
Ġa xis
in ing
in tr
in ently
in sufficient
Ġthe ore
re cogn
re ceptivity
it iz
it ory
is k
is ive
en ough
en able
en cing
en joy
at ir
Ġw arn
Ġw icked
er ms
Ġc ens
Ġc ertitude
Ġs l
Ġs w
Ġs aw
Ġs ave
Ġp ol
Ġp ubl
Ġp arent
al together
Ġin sp
Ġb enevolence
Ġto l
Ġm al
Ġm ar
Ġm ass
ct ible
Ġf elt
an c
an ill
an alog
ou d
Ġis su
Ġre d
Ġre fin
Ġre ply
Ġre vel
Ġre ferences
Ġre lease
Ġre serve
Ġre distrib
Ġre volution
Ġd as
Ġd atum
ent ity
ar m
as ions
Ġas pect
os ing
Ġan xi
Ġl ow
Ġl ime
Ġl ays
Ġl ogicians
Ġl iability
pt ions
ow s
Ġwe aken
Ġwe apons
ib oly
ib ilis
ld om
ir able
Ġwith draw
Ġg ot
th ird
ĠI D
ĠI F
ĠI ND
ĠI ndeed
ver sion
qu e
og ram
res h
ist ered
Ġor igination
if ul
per mitted
per manence
ul ous
ul ated
ul sion
Ġpro hib
Ġpro long
pp ing
ch anges
Ġde ad
act ually
act orily
am p
am ples
Ġun ite
Ġun its
Ġun avoid
Ġun success
Ġun certainty
Ġun pleasant
Ġun attainable
de l
de t
de pendent
de pendence
ans ition
min is
Ġsp ecul
tr iangle
est im
Ġr ic
Ġr ig
Ġr are
Ġr ati
Ġunder take
Ġdetermin ability
Ġtr uly
Ġv ision
Ġv isible
ĠB E
ĠB RE
Ġhe at
Ġper pet
pr ud
pr iate
pr imitive
ad ing
pir ic
Ġreg ular
Ġreg istered
su asion
ant inomy
ph iboly
Ġcogn itive
art es
Ġse lect
Ġse ldom
Ġqu oad
Ġrel uct
Ġst ake
Ġst age
present s
Ġcons ult
ĠA gain
ĠA mong
ac ities
Ġapp ell
Ġsubject ion
ĠP sych
Ġdis app
Ġdis satisfaction
to o
), âĢĿ
so on
Ġpre par
Ġpre cise
Ġpre cision
Ġpre rogative
Ġpart ial
te llig
te aches
Ġle vel
cl ose
Ġar ms
ĠS e
ĠS cience
ĠN either
Ġsub div
Ġsub division
pre cept
pre cisely
mat ic
ag on
ag ogic
du c
ĠIn stead
Ġpresent ation
ĠW olf
Ġgr oping
Ġcontr ol
Ġcontr adistinction
ĠC an
ĠC ogn
ivers al
Ġdes ert
Ġpos it
Ġcomm erci
Ġown s
fect s
ish ments
ro ken
der ived
Ġfe et
Ġcategor ically
Ġval u
Ġyou ng
Ġfind ing
ĠR el
ĠR oyal
ell ing
Ġpres cribing
object ions
ĠE ach
ĠE ND
Ġexp ense
Ġexp enses
ile ge
reason s
ke ep
Ġreal ities
Ġreal izing
Ġjust ification
sy m
av ed
av ity
av ag
Ġsim pl
Ġsim ultaneous
phys ics
ĠD etermin
ĠD onations
Ġsec uring
Ġsec urity
ang ing
Ġthrough out
Ġorigin ates
Ġview ing
Ġinv ent
there in
Ġhere after
Ġinf ring
ĠM on
ĠM ET
Ġap agogic
Ġstr ikes
Ġanaly se
Ġcomp ares
Ġconce it
Ġconce de
ev idence
ĠL aw
Ġdec iding
Ġdec isive
ten ance
Ġ1 3
Ġres pon
und etermined
Ġsupp lies
ĠU ltimate
ĠU SE
Ġnow here
Ġtot ally
Ġmathemat icians
Ġmathemat ician
ma j
ma il
acc ord
Ġcl ue
Ġsatisf ying
rel atively
Ġsuccess ful
Ġdefin es
Ġple ases
Ġarr ives
Ġestabl ishing
Ġder ives
Ġleg ality
Ġsign ify
Ġconsequ ent
TI VE
Ġseem ing
Ġmod i
Ġmod ification
Ġconting ently
err or
Ġfin ality
cont est
mis understanding
Ġcorrespond ence
ific es
part y
Ġdemonstr ating
Ġsoul s
Ġpost poned
ĠSu bject
Ġconduct s
Ġexplain s
comple ted
Ġhop es
Ġmis conception
Ġmis understood
Ġprogress us
Ġgener ation
ĠĠĠĠĠĠĠĠĠĠĠĠĠĠĠĠĠĠĠĠĠĠĠĠĠĠĠĠĠĠĠĠĠĠĠĠĠĠĠĠ ĠĠ
Ġoblig e
Ġremark ed
Ġdepend ing
Ġfall en
gr anted
ext end
Ġaffirm ations
oc in
Ġadd ress
Ġharmon ious
bl ing
Ġfalse hood
giv er
happ y
Ġdemand ing
Ġdemand ed
Ġnegative ly
RE CT
Ġjud ges
disc ursive
Ġte aching
Ġthorough going
Ġabs ent
Ġpret ension
Ġcho oses
ird ly
Ġce asing
Ġpar adox
where as
Ġlead ing
Ġstrict ness
des c
des ires
Ġtrans itory
Ġdistinguish able
Ġprof it
Ġrequis ites
Ġsupposition s
Ġhel ps
Ġdesign ation
Ġobserv able
Ġ3 5
leg itimate
Ġpursu ing
Ġoccup y
Ġrestrict ing
Ġrestrict ive
proper ties
Ġintrodu ces
Ġintrodu ced
II I
Ġexact ness
Ġappro pri
Ġmanifest s
appear ances
Ġche m
Ġlast ing
Ġlast ly
Ġsoon er
produ ces
Ġarbitr arily
Ġfurn ishes
quant ities
Ġoff ender
constit utes
Ġdisp ense
comp ared
ren ce
Ġfa cil
Ġaccept ing
TH ER
ip se
Ġ4 5
Ġput ting
conf irm
Ġsimilar ity
pic ion
presu ppose
satisf ied
interest ed
Ġta ut
Ġdom inion
Ġdown load
Ġconflict s
demonstr ated
gu ard
Ġfill s
Ġaccess ion
ounce ment
Ġarrangement s
Ġlos ing
conce ivable
prov ided
discover able
Ġprevent ed
investig ations
Ġdet ach
obser v
occ ur
occ asion
Ġir rational
Ġhum bles
claim s
Ġenlar ged
Ġdiscuss ing
Ġdiscuss ed
Wh y
mot ives
Ġsent ence
Ġbene fic
theoretical ly
conc reto
Ġcontrib utions
proceed s
proceed ing
Ġdiscern ed
Ġelev ation
Pr inci
Pr actical
post ulates
Ġperform ing
Ġantit hetic
Ġearth s
Ġgl adly
Ġcap acities
Ġnecessit ation
Ġremo ving
attempt s
Ġcr ime
Ġcr ude
indic ates
Ġestim ation
Ġprofess ed
Ġom nis
Ġincre ased
Ġexc ite
feel ings
legisl ative
hypothe tical
asser tion
Ġpromot ive
vol ition
Ġ6 0
ĠEpic urean
ĠMor al
Ġspecif ication
Ġspecif ically
oblig ed
Ġsafe ly
IR D
pass ing
ĠNat ural
Ġgrad ual
proble ms
Ġstru ct
Ġsac red
Ġprot ected
conv iction
Ġaddu ce
Ġprep ared
ĠDI VIS
Ġdeclar ing
Ġdeclar ation
Ġdeclar ations
Ġconfirm s
Ġmoder ation
require ments
Ġforbid den
Ġprejud ice
Ġprejud icial
Ġobvious ly
Ġdesc ending
Ġimpress ion
Ġfruit less
Ġcur rent
Ġunceasing ly
Ġchimer a
ĠObject ive
Ġpenetr ation
Ġpenetr ate
anthrop omorph
Ġrecomm end
ĠSto ic
Ġnumer ous
Ġhyper physical
reciproc al
Ġcent uries
Ġreve als
Ġdam ages
Ġdimin ish
Ġdimin ished
arbitr ary
Ġexerc ises
Ġexerc ised
Ġdepart ment
method s
comb ination
comb ined
Ġextreme ly
obtain ed
Ġteacher s
ĠVII I
Ġaccompan ies
AN TITHESIS
affect ed
coun ter
noumen a
noumen on
Ġwa ver
Ġcred it
Ġmut ually
Ġunb ounded
demand ed
Ġarchety p
Ġarchety pe
sem ble
Ġreconci led
Ġbea uty
Ġprint ed
ulg ence
Ġrash ly
prof ess
add ed
ĠPossib ility
sophist ical
Ġmach ine
Ġinfall ibly
Ġoverlook ed
Ġstrugg le
Ġomnipot ent
AC H
ORE M
don ate
sus picion
Ġz ero
impress ions
Ġannex ed
emonstr able
Ġ19 9
Ġsolic it
St ates
harmon y
ym ous
Ġsalt us
Ġbind ing
Ġunfortun ately
Ġdispens ed
Ġchild ren
haust ed
convin ced
ĠMORAL S
Ġcat alog
alle l
Ġburd en
Ġsubter fuge
prev ent
Ġcontrover sy
becom es
discus sion
Ġacquaint ance
APHY SIC
TRI B
dut ies
anill a
Ġunavoid ably
Ġunsuccess ful
Ġrati ocin
ĠBRE ACH
tellig ence
ĠMET APHYSIC
ĠDIVIS ION
' t
) (
) :
- -
. âĢĶ
1 3
1 7
1 8
2 80
4 0
A D
A l
A ct
A uthor
A VE
A gain
B L
B S
B esides
C a
C ritique
E G
F oundation
F inally
G H
H app
H ume
I V
I s
I TION
M at
N I
N AL
N ITY
N OM
N ecessity
O F
O BS
P END
P lain
S y
T ime
U M
V I
V EN
V ATIONS
Y TIC
a gement
a ught
a ordin
a uthoriz
b or
b an
b st
b our
b et
b ered
b ra
b ene
b usiness
c r
c est
c ern
c oin
c ulate
d ict
d ivers
d anger
e y
e ous
e ared
e thics
f l
f r
f al
f ut
f il
f ill
f old
f its
f unction
f ety
f ixed
g ue
h oly
h orizon
i pt
i ant
i ps
i atus
k ing
l p
l est
l ie
l ated
l ication
l icense
l ier
l osing
m em
m ast
m utable
n gl
n umer
p at
p one
p ite
p un
p el
p ared
p arent
p dated
r s
r ation
r ain
r un
s k
s ent
s ation
s ciousness
s cribe
s mell
t a
t ou
t ow
t empt
t akes
t aken
u b
u ating
v an
v ention
w it
w rit
x ious
Ġ rom
Ġ ign
Ġt one
Ġt emper
he ld
he tical
he lp
Ġa ught
on ce
on ical
in ner
in fer
in capable
in ferences
in consistent
in comprehensible
Ġo st
Ġo mitted
re te
re vol
re conci
it im
it ute
it ted
it hetic
is s
is y
is ition
at eness
Ġw ings
Ġw oe
er al
er ably
Ġc ut
Ġc ard
Ġc ustom
Ġc ivil
Ġs or
Ġs an
Ġs ine
Ġs edu
Ġs mo
Ġs oft
Ġs aved
Ġp ot
Ġp et
Ġp ays
Ġp age
Ġp ages
Ġp air
Ġp iece
Ġp ortions
al ogy
al most
ic a
Ġin sufficiency
Ġin cap
Ġin hering
Ġin contest
Ġb es
Ġb all
Ġb ooks
Ġb aseless
Ġth rown
or ic
Ġm il
Ġm oun
Ġm ixture
Ġm oments
ce ly
Ġf ed
Ġf ire
Ġf lu
Ġf lat
an qu
an while
an uary
ed istrib
Ġe p
Ġe ll
Ġe con
Ġe lucid
Ġre ver
Ġre ception
Ġre port
Ġre vere
Ġre vol
Ġre straint
Ġre solution
Ġre verse
le ments
Ġd i
Ġd read
Ġd rop
Ġd well
Ġd uring
Ġd oubted
Ġbe g
st reng
ent itled
ot ion
ar um
ar les
ar ched
ar cely
as us
ut iful
Ġh it
Ġh ollow
ll og
iv en
iv er
im b
Ġan cest
Ġl ar
Ġl ib
Ġl ive
Ġl of
Ġl ives
Ġl ooks
Ġl ively
Ġl oose
Ġl imb
Ġnot e
ĠĠĠĠ Ġ
Ġwe alth
Ġfor get
ib us
cept ive
ter able
ter ior
ter ms
Ġwith drawn
ur is
ur istic
ci ences
ĠI M
ver ted
qu ality
qu ire
og mat
ec ided
and er
per ity
per form
ul ating
ĠT HAT
ĠT erms
ch ief
ch anged
Ġde ed
Ġde ceive
Ġint end
ple teness
il t
il ed
il ty
act ed
Ġal ge
Ġal ike
hen s
us ality
us ual
Ġha st
Ġha bits
ill usions
ill iant
am ents
pl ain
Ġun law
Ġun ites
Ġun iting
Ġun conscious
Ġun inter
Ġun answ
Ġun observed
Ġun mixed
Ġun varying
ab andon
um mum
um bling
Ġ( _
Ġthere on
Ġlaw giver
Ġsp are
Ġcom pos
Ġcom for
Ġcom ponent
not withstanding
of ten
est ed
Ġr ises
Ġr ob
Ġr ising
Ġr isk
Ġso ci
Ġunder min
stand s
Ġtr ad
Ġtr oub
Ġsen sual
ĠB el
ĠB OOK
ĠB UT
Ġhe uristic
Ġim pract
Ġper sist
ori al
pr iv
all en
all ow
ad s
pos ited
Ġreg ulate
Ġexperience d
ind u
ind ifferent
Ġsh ad
Ġsh ip
ant om
ĠF inally
ĠF UL
ĠF UND
art ic
ex erc
Ġqu it
Ġqu id
Ġst ability
Ġst opp
ord ination
Ġcons ent
ĠA ct
our th
ac le
Ġapp et
ca ution
Ġad here
Ġad vers
for ce
pon der
ĠP G
ĠP ers
ĠP ost
Ġdis regard
un ited
Ġy e
ict ions
ĠTh ought
Ġpart e
Ġpart iality
str um
str ained
te aching
Ġch aract
Ġle ap
ĠĠĠĠĠĠĠĠĠĠĠĠĠĠĠĠ ĠĠĠĠĠĠĠĠĠĠĠĠĠĠĠĠĠĠĠĠĠĠĠ
Ġar tic
Ġar gu
ĠS c
ĠS en
ĠS ee
el ve
ppos ites
Ġsub mitted
Ġsub rept
op yright
pre ted
pre cede
ĠO p
int ention
possib ly
Ġser ious
Ġser ving
Ġdif fers
Ġdif fered
ĠIn ternal
iz able
Ġpl ane
Ġpl ausible
Ġnothing ness
ĠG os
reat or
Ġgr ate
Ġgr oss
ĠC a
ĠC ertain
ĠC osm
ĠC ritical
Ġow ing
Ġdes cribed
Ġdes irable
Ġemploy ees
com ing
Ġfirst ly
pro ving
Ġrem ed
ĠH AVE
Ġbelong ed
Ġact ed
Ġag o
over t
over ty
med i
ĠR espect
ĠR edistrib
Ġpres um
ha ving
ĠE VEN
ĠE ngl
Ġout set
Ġpossess ions
Ġappl icability
ear ance
Ġam id
Ġam phiboly
av ail
Ġatt aching
Ġmat ured
oun cing
ĠD O
ĠD ate
ĠD uty
ĠD ifference
ĠD ogmat
ang les
Ġimp elled
ass ume
ass umption
Ġinv iol
there to
Ġhere by
Ġintellig ibilis
Ġlike ly
Ġhand s
abl es
Ġconc rete
Ġrest ing
ra de
Ġref uted
Ġref utation
Ġdiv isions
Ġind ul
Ġind ivid
Ġind ispensably
Ġind emonstrable
Ġproof read
Ġcomp el
Ġcontradict orily
Ġassum ptions
Ġconcl udes
ev ent
ĠL IC
ĠL ocke
Ġtruth s
ER VATIONS
contr adistinction
Ġ1 00
und ity
Ġsupp lying
Ġattain able
Ġconsist ing
Ġcontent ed
ĠU ND
Ġconf ound
Ġconf irmed
Ġconf ounded
Ġmathemat ically
Ġdiscover s
represent ed
Ġmot ions
Ġaff air
Ġconcept us
In telligence
Ġsatisf actorily
know led
rel ates
Ġstand ing
Ġstand point
Ġarr ogant
dis posed
dis pute
EN SE
Ġimag in
Ġimag es
sub ordinated
Ġleg ally
Ġsign al
TI NOM
Ġneed ed
Ġneed less
Ġgu ess
Ġgu ides
Ġgu ided
Ġgu iding
ĠĠĠĠĠĠĠĠĠĠĠĠĠĠĠĠĠĠĠĠĠĠĠĠ Ġ
ĠĠĠĠĠĠĠĠĠĠĠĠĠĠĠĠĠĠĠĠĠĠĠĠ ĠĠĠĠĠĠ
Ġneg ativum
Ġinvestig ated
Ġinvestig ating
subject ed
mis s
Ġassert s
Ġassert or
Ġassert ing
Ġassert orical
ific ent
do ctr
ov al
part ly
part icip
ĠTH IRD
TER NAL
Ġant iqu
Ġattrib uting
mor ally
Ġco al
ĠSu ppose
Ġprev ents
comple tion
Ġher o
Ġdistinction s
ob sc
Ġpass ages
Ġdeduction s
Ġmaterial ism
Ġaffect ion
Ġmis s
Ġmis led
Ġmis conceptions
Ġvari ance
Ġfall ing
dist inct
gr at
ĠTHE OREM
Ġfal s
Ġes se
Ġadd ing
Ġagre ed
Ġcirc ular
Ġspe cious
ont ological
Ġintel lect
every one
Ġbr ain
Ġbr illiant
ĠY et
Ġund en
happ en
moral s
Ġvol unt
cor rupt
ignor ance
Ġadvantage ous
disc ern
inde finitum
Ġce ases
Ġpar allel
Ġauthor s
where by
Ġcontinu es
Ġcontinu um
Ġante cede
Ġcompar atively
ĠUn less
ĠUn iversal
pres cribes
subst ant
requ is
Ġtrans fer
Ġtrans formed
ĠEx cept
just ify
Ġexcl usion
Ġprof its
Ġcomb ine
Ġdogmatical ly
bel ieve
Ġins cr
Ġdesign s
Ġtranscendent ally
Ġevil s
row d
Ġsur vey
Ġcompre hension
ĠAr gum
igh bour
Ġbl amed
Ġbl iss
Ġrestrict s
Ġappro priate
comm unity
Ġra ising
Ġ5 68
ĠV anilla
IN D
IN TRODUCTION
ĠJ anuary
Ġear lier
employ ing
Ġtest s
contain ing
Ġcare ful
Ġsepar ation
Ġhypothetical ly
Ġacqu isition
TH ING
div isibility
fac ulties
Ġ4 0
Ġput s
possess ion
Ġadopt ing
ins ically
conf ess
conf lict
Ġsc arcely
think s
Ġreach ing
Ġhappen ing
Ġdestroy ed
kind s
Ġconver t
Ġconver sion
Ġsubtle ty
sens ations
Ġcol lected
analy se
Ġannihil ates
Ġlay ing
conform able
conform ably
character istic
character istics
Ġimpl anted
ĠAN TINOM
content ment
demonstr ative
jud ge
Ġdef ault
Ġadm ire
enetr able
crit ic
light ened
ru ption
Ġfan ci
Ġmaj esty
Ġplain ly
prov ince
subsist ing
Ġopen ed
xiom s
Ġplan ets
Ġassign s
Ġabsurd ity
Su pposing
Ġindu ction
Ġindu ced
Ġrece ipt
particular ly
Ġsa fety
Ġsucceed ing
Ġdiscern ment
Ġelev ating
Ġborrow ing
Ġmist ake
Ġperform ed
Ġapparent ly
contin ue
contin uous
On ly
after wards
Ġang le
Ġnecessit ate
Ġsubsum e
Ġremo ves
Ġcr y
Ġfit ted
Ġfit ting
Ġaggreg ation
Ġreflect ing
Ġproportion ed
Ġpopular ity
Ġreturn s
Ġanimal s
Ġexc used
proof s
Ġenter ing
Ġcal m
Ġcal culate
Ġren unciation
Ġpros perity
imp ul
Ġextr avag
Ġextr aordin
Ġpersu aded
Ġpersu ade
ĠCh arles
ĠEm pty
Ġschemat ism
sign ific
Ġtw elve
Ġwond ered
Ġcult ure
Ġbu ilt
Ġsuggest ed
defin ed
ĠMor als
Ġhonest y
Ġhonest ly
influence d
scept icism
Ġdoctr inal
Ġappe ared
Ġsubsist ing
Ġsubsist ence
pret ation
Ġenabl ing
Ġsecret ly
Ġillustr ation
Ġillustr ate
Ġconfess ion
dedu ce
Ġrep ay
Ġprot ect
Ġcompl aint
Ġimit ation
ĠInt erest
ĠWh o
ĠWh atever
common est
Ġanticip ation
Ġpathological ly
Ġcontempl ated
restrict ion
restrict ed
Ġpat tern
Ġabandon s
suffici ently
ĠCON FL
Ġcommun icated
Ġperiod s
Ġperiod ic
AM ENTAL
Ġcle arer
Ġdict ate
Ġdict ates
Ġord ains
Ġord inary
Ġchimer as
Ġchimer ical
ĠCom pleteness
ĠMetaphys ical
maintain ed
clear ness
anthrop ology
Ġresol ve
Ġresol ved
Ġrecomm ended
Ġdr y
Ġhard ly
Ġprop Ã¦deutic
Ġundert aken
Ġformat s
Ġdisclaim er
Ġdisclaim ers
Ġarchitect onical
Ġgrant ing
Ġambig uous
Ġnumer ical
ĠIdeal ism
command ed
Ġfulfil ment
Ġhyper text
co existence
reciproc ally
Ġmon th
Ġreve al
Ġpra ised
Ġpropri etary
ĠTr ansition
abs ence
Ġembr aces
compar ison
Ġparalogism s
Ġdestru ctive
Ġmagn anim
Ġmagn ificent
Ġwarning s
SI TION
cop yright
small est
vari ous
word s
Ġcred ential
Ġinhere nt
Ġinstit ute
Ġinstit uted
Ġthreat en
Ġmut ual
Ġfoot ing
Ġanthrop ology
Ġanthrop omorph
Ġsuscept ibility
Ġunb roken
Ġhear ing
anticip ation
ĠApp lication
ĠApp earance
Ġimperfect ion
ĠProble m
ĠProble ms
Ġobstin ate
Ġobstin ately
Ġhypostat izing
CL UD
Ġmid dle
Ġbea utiful
Ġroyal ty
Ġroyal ties
Ġvis it
Ġshar p
ĠPossib le
Ġgrow th
Ġenumer ation
syllogism s
Ġselfish ness
Ġinfall ible
Ġcompens ate
Ġguarante ed
Ġomnipot ence
circ le
circ um
Ġcour age
Ġpo ison
Ġlur ks
Ġsuit ably
Ġunf air
Ġvac ant
ĠST ART
intu ite
assum ed
Ġinvalid ity
Ġelabor ation
Ġcoinc ide
Ġharm less
Ġconjoin ing
Ġconven ience
Ġcombat ants
ĠANAL YTIC
Ġcalcul ated
ĠMathemat ical
ĠMathemat ics
cult iv
annihil ated
Ġlab orious
Ġdece itful
Ġhes itate
Ġparticip ation
inev itable
ĠDIS TRIB
Ġimped iments
ĠConcl usions
ocr isy
Ġdeliber ate
Ġfair ly
Ġindubit able
Ġridic ulous
Ar chive
Not hing
effort s
hab it
heter onomy
Ġaston ishment
refer red
reckon ed
Ġbon i
Ġfil es
Ġrestr ain
Ġprag matical
ĠIll usory
Ġvict ory
Ġvag ue
Ġsynon ymous
Ġste pping
ĠAGRE E
spe aking
Ġmast er
ĠIntrodu ctory
ĠGr ound
assign ed
accur ate
Ġbran ches
Ġsurpr ising
CEP TION
Ġfigur ative
specif ication
Produ ced
declar ing
Ġdenomin ate
accompan ied
spont aneity
Ġexagger ated
Em pirical
Ide al
Ph ilos
spr ing
slet ter
intr insic
atir ae
Ġissu e
Ġanxi ety
ĠID EAS
Ġprohib ition
prud ence
Ġappell ation
ĠPsych ology
duc ive
ĠRel ation
ĠRoyal ty
ĠMon ad
Princi ple
Ġomnis cient
Ġstruct ure
Ġcatalog ue
GH T
Happ iness
Mat hemat
OBS ERVATIONS
bet ter
coin c
fut ure
tow ard
Ġost ensive
Ġfed eral
Ġrevere nce
llog istic
Ġancest ors
Ġalge bra
Ġunlaw ful
Ġcompos itum
ĠBel ief
ĠFUL L
ĠFUND AMENTAL
Ġcharact ers
ĠDogmat ism
ĠLIC ENSE
ĠUND ER
Ġinscr utable
ĠANTINOM Y
Ġextraordin ary
ĠCONFL ICT
Ġmagnanim ous
CLUD ING
ĠDISTRIB UT
! )
" .
* ]
. :
. ;
1 0
1 1
2 0
3 9
4 5
5 5
5 7
5 68
6 22
7 5
7 9
A fter
A IM
A mong
B ooks
B ILITY
C h
C ont
D ENTAL
D ED
E pic
E Book
F irst
F urther
F IRST
F ORE
F ourth
G ENCE
I X
I ED
I VE
I RECT
L E
L iterary
L icense
L anguage
L IMITED
M or
M ost
M oreover
N T
N ES
O P
P OSE
P PEND
R ight
R ational
R emark
R ICT
R POSE
S S
S to
T itle
U RE
V ery
W ARRAN
W olf
a z
a ple
a part
a ired
a cies
b re
b ly
c al
c ur
c arr
c ustom
c artes
d ent
d est
d ash
d den
d ignity
e g
e as
e fficient
e ase
e Book
e Books
f a
f am
f ast
f ici
f irm
f ail
f ailed
f ault
g en
g ust
g ance
h n
h o
h um
h ort
h igh
h ip
i os
i our
i ological
j oin
k al
l o
l and
l ab
m er
m as
m ise
m ber
m other
m dash
n ic
n ify
o ke
o pposed
p ut
p us
p ire
p so
p ium
p enetr
p utation
r or
r ought
r ied
s id
s ure
s akes
s ipp
t x
t es
t able
t ered
t aking
u c
u ation
u ated
u ously
u cid
v ity
v ive
v ain
v erest
v iour
w is
w art
w ishes
w arrant
y le
z ip
Ġ #
Ġ $
Ġ '
Ġ +
Ġ 80
Ġt or
Ġt ed
Ġt ant
Ġt ear
Ġt empt
he t
he it
Ġa ch
Ġa dequ
Ġa ux
on om
in o
in y
in ent
in ference
in formation
in struction
in struct
in eness
Ġo pposing
Ġo pposites
Ġthe olog
re w
re ndered
re cognized
re verse
re productive
it atis
it ably
it eness
Ġof fered
en es
en umer
at on
at ch
at ible
at ically
Ġw ont
Ġw arrant
Ġw ander
er ion
er ce
er ke
er its
er vice
Ġc and
Ġc ame
Ġc old
Ġc urs
Ġc ush
Ġc itiz
Ġs it
Ġs em
Ġs ag
Ġs ending
Ġs mell
Ġp overty
al ong
al ogical
ic ited
Ġin contr
Ġin compre
Ġin correct
Ġin justice
Ġin secure
Ġin strum
Ġin accurate
Ġb ar
Ġb ro
Ġb inary
es the
es sel
es tr
Ġth ir
Ġth read
Ġth row
Ġth wart
or ous
Ġm ing
Ġm ove
Ġm ock
Ġm illion
Ġm erits
ce ase
ce mber
Ġf ing
Ġf am
Ġf ant
Ġf und
Ġf aint
Ġf avoured
Ġf resh
an n
an imal
an alogy
ed ifice
ed ient
ed itions
Ġn om
Ġn ought
Ġn ames
Ġn aught
Ġe cl
Ġe arn
Ġe po
ou th
Ġre cognition
Ġre press
Ġre aches
Ġre mind
Ġre search
Ġre semble
le y
le ment
le ave
Ġd ouble
Ġbe ha
st ition
st hetical
om aton
ent ions
Ġwh it
ot es
ot yp
ar alogism
as c
as m
as certain
ut or
ut um
ut ious
Ġh our
Ġh int
Ġh iatus
Ġpr ince
Ġas ks
Ġas cribing
ll ous
the w
the ory
the ologia
iv oc
iv ae
im id
im pl
im age
im ilar
im ony
Ġex hausted
Ġl at
Ġl and
Ġl iqu
Ġl angu
Ġl ament
Ġl ikes
Ġl iking
ess or
Ġwe ar
ith met
id er
id ge
id ently
Ġsu ppos
Ġsu its
Ġsu dden
ir us
Ġg ene
th y
th reat
ur ance
ur bed
ĠI X
ver t
qu id
res istance
ive red
ist urbed
sib ilities
Ġpro c
Ġpro ject
em arks
em por
em barrass
em bered
em nify
Ġreason ers
Ġobject ed
ĠT RAN
ve llous
con ject
con fin
con ven
con stant
con nexion
ch imer
ch oice
Ġde ar
Ġde ist
Ġde posit
Ġde ceptive
end i
end eavoured
Ġint entions
ple ases
il iar
il ia
ther wise
act s
act ly
Ġal kal
Ġal tered
hen tic
hen sibility
us io
ill usory
aw are
am ing
am ount
pl an
Ġun sol
Ġun question
Ġun connected
Ġun important
Ġun anim
Ġun satisfactory
ab ilis
âĢĶ (
ĠĠĠĠĠĠĠĠ ĠĠ
ol unteers
de pr
ig ious
ig hed
Ġthere upon
Ġlaw less
ies t
Ġsp ent
Ġsp heres
Ġsp run
Ġcom ing
tr ies
tr ace
tr icable
of essor
Ġpossib ilities
est ic
Ġr ap
Ġem be
Ġem piric
ous and
Ġso ar
ide ality
Ġtr ave
Ġtr ium
Ġtr aining
Ġwill ed
ĠThe ology
ĠThe oretical
Ġv ulg
Ġv icious
Ġv ocation
Ġv essel
Ġv irus
od es
od ality
ĠB ec
ĠB onum
ĠB etween
ound s
Ġhe arer
Ġim posing
Ġim mutable
Ġim medi
Ġper taining
Ġno vel
Ġno body
pr ot
pr im
pr os
all owed
Ġab ut
Ġab ode
ad em
ad apt
pir it
Ġsy llogistic
Ġreg ulating
su pposes
su ggest
Ġus age
Ġsh alt
ant ity
ĠF ac
ĠF RO
ĠF IT
ĠF OU
ph old
ph aenomenon
Ġcogn izes
Ġse arched
ome ter
Ġqu ick
Ġrel igious
Ġst ay
Ġst aff
Ġst ream
Ġst umbling
Ġst yle
present ing
wh y
wh om
Ġcons cience
now here
ĠA d
ĠA utonomy
ĠA ug
ĠA xioms
ĠA esthe
Ġj uris
Ġacc us
ac ent
ac quire
Ġapp end
ca st
Ġad or
for ces
ĠFor m
ĠP re
ĠP ref
ĠP ART
ĠP aralogism
Ġdis k
Ġdis s
Ġdis par
Ġdis posed
Ġdis pleasure
Ġdis sect
Ġdis section
Ġdis interested
Ġdis gust
un ion
un gl
un attainable
et c
et ic
et ition
et ies
et ext
ment al
ĠTh ose
ĠTh rough
Ġpart ially
te en
te leological
Ġch apt
Ġch allen
Ġle ar
Ġsome one
Ġmoral ists
ĠĠĠĠĠĠĠĠĠĠĠĠĠĠĠĠ ĠĠĠĠĠĠĠĠĠĠĠĠĠĠĠĠĠĠĠ
sp ecul
sp read
tern ational
Ġar gue
sis sipp
ĠS h
ĠS oul
ĠS UC
ĠS pecial
ĠS econdly
ĠS ummum
ĠS atirae
ĠS ervice
ĠS outh
Ġph antom
sol ve
Ġwho ever
el ess
ĠN ecessity
ĠN EG
ens ed
Ġsub mission
Ġsub species
Ġsub ordination
op inions
pre fer
Ġthan k
ĠO THER
int ended
int ensive
int uit
Ġfre ed
imit ation
Ġne arest
Ġne ighbour
ag ing
ĠIn te
ĠIn finite
ĠIn asmuch
Ġcaus a
Ġpl ans
Ġcont est
Ġcont ents
ĠG re
ĠG IVE
ĠW is
ĠW est
ĠW hence
ĠW HAT
Ġend ed
reat ing
Ġgr own
Ġgr avity
The y
ign ific
ĠC l
ĠC HA
ĠC ause
ĠC oper
ĠC opyright
ĠC reator
me ant
Ġass ures
Ġass uring
Ġass urance
Ġob l
Ġfound s
Ġpos iting
Ġcomm itted
com es
pro hib
pro pri
pro jected
Ġrem oval
Ġdisc ret
Ġsystem atically
ĠH ist
ĠH ypothe
Ġhapp ily
Ġext inct
Ġact uality
we ight
we apons
Ġag ents
less ed
Ġen v
Ġen ig
Ġen ounced
Ġen joined
Ġen close
stit ution
Ġeffect ing
Ġeffect ive
ĠR emark
ĠR emarks
Ġthink able
ĠE v
ĠE IN
ĠE Book
ĠE thics
ĠE lements
Ġout line
Ġout lines
Ġsensib ilis
Ġter t
reason ing
ear ly
ser vice
uten ess
oint ment
sen sual
phys iology
Ġgreat ness
ĠD r
Ġbas ing
Ġfact a
Ġfact o
Ġfact s
Ġsec ures
Ġincl ined
ang led
Ġimp ot
Ġimp utation
Ġimp enetrability
Ġshall ow
Ġent ers
Ġent ium
Ġent rust
princi pium
Ġorigin ator
rib e
Ġcor rupt
Ġcor rection
Ġcor ruption
Th ou
Th ose
Th irdly
Ġinv ention
Ġinf lex
Ġexpl ore
Ġpower less
Ġinterest ed
Ġintellig ibility
experience d
ĠRe ality
ĠRe place
ĠRe presentation
ĠRe fund
ĠM ay
ĠM ER
ĠM any
ĠM otion
Ġap per
Ġwhere fore
Ġcharacter ized
Ġcharacter izes
Ġrest ed
Ġanaly st
ra id
ra ise
ra ising
Ġref uses
Ġsum mon
Ġind ulgence
Ġind estr
Ġind emnify
Ġcomp ounded
Ġadv ice
Ġconcl usive
Ġconce ives
ĠL at
Ġsince re
Ġdec re
ER AL
Ġmet al
Ġ1 6
Ġ1 7
Ġ1 8
Ġres ist
Ġres ides
stru ctive
und oubted
Ġsupp lement
lear ned
Ġconsist ently
ĠU T
ĠU nder
ĠU pon
Ġill um
Ġaim ed
represent s
represent ing
In formation
In stead
In ternational
Ġ[ *]
Ġele gance
ĠOn e
ĠCon sciousness
Ġdeg r
rel ated
rel igion
Ġsuccess fully
Ġdefin ing
nat urally
nat ura
Ġworth lessness
Ġple a
Ġple asing
Ġup wards
Ġarr anging
Ġocc asions
dis cipline
EN TI
EN ERAL
red it
Ġobser ver
Ġobser ves
Ġobser vers
sub tle
sub stratum
Ġleg itim
Ġel imin
Ġconsequ entia
TI CE
Ġneed ful
mon ition
Ġmod us
Ġmod ified
Ġmod esty
Ġresult ed
Ġac uteness
Ġgu ilty
ĠĠĠĠĠĠĠĠĠĠĠĠĠĠĠĠĠĠĠĠĠĠĠĠ ĠĠĠĠ
Ġcop ied
Ġcop ula
Ġneg ations
Ġmain tenance
cont empt
subject s
Ġnew sletter
Ġbod ily
Ġmethod ology
Ġeas ier
Ġread ing
ov ember
Ġdog mas
Ġnon sense
Ġdemonstr ates
Ġover come
arr ive
arr angement
synthe tic
Ġanswer ing
AL ITY
Ġco herence
Ġpost erity
Ġpost pone
Ġexcept ed
CHA NT
Ġmem ory
Ġcontin ual
Ġinqu ires
Ġcosm ology
ob vious
ob edience
Ġident ify
Ġinst ant
Ġhop ing
Ġhop ed
Ġhop eless
Ġprov ision
Ġprov ides
Ġprov isions
Ġexpect s
Ġden ote
Ġappre ciation
Ġ2 2
Ġaffect ing
Ġaffect ions
Ġmis lead
Ġmis erable
Ġprogress ing
Ġgener ality
Ġgener ations
Ġoblig es
Ġremark ably
Ġvari able
Ġsuper stition
gr ant
Ġaid s
Ġi pso
Ġdraw s
ext ended
Ġaffirm s
ĠAn y
dif ferences
oc ent
connect s
sim ony
Ġharmon izes
bl ance
Ġyour selves
some times
Ġbr ief
ĠY es
Ġund isturbed
haps od
ia e
Ġvol ume
Ġfut ility
Ġjud icial
Ġdistinct ive
Ġoper ate
Ġintr insically
Ġcorrect ive
Ġlie u
Ġabs or
Ġpret ence
limit ations
inde finite
Ġce aseless
Ġintu ites
Ġlead en
Ġcontinu ance
Ġdynam ically
ĠUn iverse
pres ence
Ġsupport s
Ġsupport ing
Ġexhib ition
Ġtrans fers
ĠEx t
intellig ent
intellig ibility
just ification
Ġrecogn ises
Ġrecogn ised
Ġcomb ines
ordin ate
Ġins ignific
Ġdesign ated
Ġabstract ing
rem oved
leg al
Ġdon ation
Ġdon ors
ask a
Ġsur r
Ġsur pass
Ġsur render
Ġsur rept
Ġsur veyed
Ġsur vive
Ġoccup ying
Ġdel ight
Ġke pt
att ered
att ack
Ġappro ve
comm erci
Ġrefer ring
Ġcircum ference
Ġorgan ism
produ ct
Ġagree able
Ġagree ableness
Ġsignific ations
ĠJ uly
Ġear lies
place d
Ġfurn ishing
consider ing
consider able
pe ople
ĠK ey
ĠK IND
Ġtest ed
Ġtest imony
inv ent
quant itas
Ġsepar ately
distingu ishing
Ġdisp uting
Ġdisp utation
comp are
ĠRE AD
worth iness
Ġcarr ies
Ġcarr ied
Ġcarr ying
Ġaccept s
Ġaccept ation
Ġspeak s
div ided
Ġcre ate
Ġcre ations
iber um
Ġposition s
my st
ata e
arch itect
Ġgain s
Ġgain ing
conf usion
conf irmed
ĠSt ate
ĠSt aple
Ġsimilar ly
cre t
cre ated
val ue
Ġsc attered
Ġinter fere
Ġinter mediate
Ġinter vention
Ġinter preted
Ġconver sation
Ġwise ly
Ġcol lective
origin ally
origin ates
conform ability
mort al
real itas
Ġtransc ending
Ġtransc ription
Ġtransc ribe
Ġheter ogeneity
ĠAN TITHESIS
demonstr ate
jud ged
crit erion
great ness
Ġbor ne
Ġreciproc ity
Ġpriv ativum
Ġpriv ilege
conce aled
expl ained
Ġart s
prov iding
Ġequal s
discover ing
Ġcomprehend ing
Re lease
Ġ9 5
Ġ9 9
Ġfail ing
Ġsophist ries
ante cede
Ġanalog on
den ial
Ġback wards
ĠIm per
Ġdet ect
Ġdet ail
Ġindu ces
Ġhum ility
Ġhum ble
Ġpract icability
Ġprocess ing
Ġvent ures
Ġvent ured
velop ed
air ban
uit ous
Ġturn s
Ġweight y
Ġstud ies
Ġcontrib uting
Ġdiscern ing
manif est
Ġelev ates
Ġantecedent ia
look ed
nex us
post ed
post ulate
Ġpun ished
Ġpun ishments
Ġmist rust
Ġdest ined
Ġdest itute
Ġpreser ved
ĠDe fect
ĠDe pendence
ĠDe cember
contin ually
Ġ200 0
Ġ200 4
ED IES
Ġmark et
Ġgl ance
Ġgl ass
Ġgl orious
Ġintention ally
Ġcap ability
Ġnecessit ates
Ġqual ification
conting ency
attempt ed
gress ion
Ġcr own
consequ entia
indic ating
express es
express ed
express ions
ĠPU NI
ĠPU RPOSE
neg ation
Ġprofess ion
Ġprofess es
Ġproportion ate
jun ct
Ġincre asing
step s
Ġexc ites
super fluous
Ġshort est
Ġguard s
Ġguard ing
legisl ating
ĠÃ¦ sthetical
ST ART
bid den
ele v
oper ations
por ated
Ġbold ly
Ġpros yllogism
Ġextr icate
Ġdev i
Ġdev ote
ĠCh ange
ĠDo es
Ġstrong er
Ġoccur red
Ġoccur rence
Ġblind ly
Ġgenu ineness
Con cl
SE QU
sign ifies
Ġ6 4
Ġprim acy
Ġtax es
concern s
concern ing
PL EAS
PL IED
find s
pass ages
Ġlist en
conci lable
ĠĠĠĠĠĠĠĠĠĠĠĠ ĠĠ
Ġhead s
addition al
ĠNO TICE
ĠEvery thing
Ġillustr ating
Ġconfess ed
EM NITY
dedu ctible
equ al
equ ality
inter mediate
Ġprot otyp
ili ary
Ġmeasure d
Ġmeasure ment
ĠWh y
Ġsubstant ia
ĠDis c
Ġ15 00
Ġanticip ations
Ġroot s
Ġcontempl ates
PRE SS
direct ly
doubt ful
fall s
fall acies
sing le
Ġtre asure
restrict ing
attrib utes
attrib uted
Ġreject ing
Ġreject ed
Ġhyp ocrisy
imper atives
import ance
vers a
Ġattr act
transcendent ally
Ġevid ences
ĠPhenomen al
Ġprejud ices
ĠCON TRA
ĠCON CEPTION
ĠCON SEQU
Ġdesc ent
Ġdesc end
Ġdesc ription
Ġcommence d
Ġcommun ication
ĠREM EDIES
Ġadmir able
CT RIN
bod ies
dec ided
Ġtyp es
Ġcle arest
Ġcur ved
Ġisol ate
Ġloc ations
ĠIN TRODUCTION
ĠIN CLUDING
Ġord ered
pleasant ness
Ġpremis s
ĠNe g
ĠMat thew
ĠMetaphys ics
Ġapproxim ation
Ġcounter po
Ġcultiv ate
Ex perience
clear ly
sour ces
Ġdr iven
Ġdim ension
concl usion
concl usions
progress ion
ĠEBOOK S
appro ach
appro bation
Ġapprehend ed
Ġhonour able
occup y
affirm ative
col our
mod es
prom inently
enlar gement
enlar ged
Ġcent re
see k
Ġdam age
Ġdam aged
arbitr arily
arbitr ium
Ġann ouncement
result ing
ĠOr igin
Ġindefinite ly
ĠHim self
ĠANY THING
AB LE
CI DENTAL
SI BILITY
mo ving
vari ety
Ġinc ite
Ġinstruct ed
Ġmund o
Ġerect ing
Ġerect ed
search able
Ġrepe at
conduct ed
Ġuniform ity
Ġviol ence
Ġviol ates
anticip ate
Ġsubmit s
agree ableness
Ġattack ing
Ġconceal ed
Ġsuperior ity
grad ually
ĠAnt ithetic
demand s
Ġhumili ating
ĠPhys ical
ĠPhys ico
problematical ly
ĠIntuition s
CL AIM
Ġaf raid
Ġmid st
Ġflatter ing
ĠBe fore
ĠBe yond
Ġshar ing
Ġchar m
Ġchar ges
ĠWARRAN TIES
Ġdesp ise
Ġenumer ate
ĠEX PRESS
Ġcomput ers
Ġcompens ation
Ġguarante e
Ġwitness es
Ġirre concilable
LI GENCE
bound s
bound aries
furn ish
furn ishes
mist ake
uct ible
want ing
Ġz eal
Ġpress es
Ġpaper work
Ġtouch ing
Ġtouch stone
impress ion
Ġlic ensed
Ġlur king
Ġdetr iment
Ġdetr imental
Ġspo il
Ġspo ken
ideal ism
Ġvac uum
pract ised
ĠST RICT
ĠSome times
ĠNor th
Ġsubstit uted
intu ited
formula e
Ġphilosoph ize
assum ing
Ġentertain ed
Ġindis cern
accident al
accident ally
Ġcoinc ides
Ġconven ient
ĠANAL OGY
continu ation
Ġaccompany ing
dogmat ism
Sp ace
Sp eculative
cult ure
Ġoffer ing
Ġsil ence
Ġinex tricable
annihil ation
qual ities
dev iate
defect ive
Ġperplex ity
excl uding
Ġstead ily
Ġstead fast
ĠAb b
ĠPart icular
Ġdissimilar ity
Ġparticip ating
class ification
previous ly
inev itably
ĠDIS CLAIM
Ġawaken ing
Ġawaken ed
deser ving
Ġdeliber ation
commun icated
invol ves
invol ved
Ġindubit ably
Ġembrace d
De fects
Gr anted
cosm ical
ipp ed
merit orious
peculiar ity
sight ed
Ġid le
incre asing
introdu ced
Ġinn ocent
Ġincor porated
seem s
Ġdark ness
thorough ly
endeavour s
Ġcast s
Ġcompr ises
transc end
Ġru in
Ġvit al
geometr y
geometr ical
Ġperce ives
Ġperce iving
exhib ited
Ġdisgu ise
Ġdisgu ised
Ġnear ly
ĠGer man
prob ability
ĠDes pite
ĠDes cartes
ĠMis sissipp
Ġ178 7
Ġfri end
Ġfri ends
Ġcounsel s
Ġdefici ent
Ġescap ing
Ġescap ed
support ed
proportion ed
OS SIBILITY
PRO JECT
mag nitude
sch ol
yield ing
Ġaut hentic
Ġastr onom
Ġtheore m
Ġwarn s
Ġcens ure
Ġinsp ire
anc endent
Ġrefin ed
Ġrevel ation
Ġlow est
ĠIND IRECT
Ġspecul ations
estim ation
Ġric hes
Ġrig orous
Ġrare ly
Ġperpet ually
Ġreluct ant
Ġprepar ation
Ġcommerci al
Ġinfring ement
accord ant
desc ending
Ġappropri ated
Ġchem ical
Ġfacil itate
confirm s
Ġtaut ology
Ġdownload ing
guard ed
observ ations
Ġbenefic ent
anthropomorph ism
Ġrecommend ation
profess ing
Al though
Again st
Sy nthetical
VI DED
danger ous
fal se
ips es
mem bers
smell ing
tou ch
writ ten
Ġrom ance
Ġtemper ament
Ġsor row
Ġpet ty
Ġincontest ably
Ġbes ide
Ġell ipse
Ġecon om
Ġlof ty
ĠIM PLIED
hens ions
Ġuninter rupted
Ġunansw erable
Ġsoci ety
Ġtrad es
Ġtroub ling
Ġimpract icable
Ġstopp ed
ĠPers on
ĠSen suous
ĠOp inion
ĠGos pel
Ġgrate fully
Ġremed y
ĠEngl ish
Ġamid st
ĠDO CTRIN
Ġinviol able
Ġindul ge
Ġaffair s
Ġassertor ically
Ġantiqu ity
Ġcoal ition
Ġunden iable
Ġvolunt ary
ĠArgum ents
Ġfanci ed
Ġextravag ant
signific ance
Ġcomplaint s
Ġanthropomorph ic
circum st
ĠMonad ists
Mathemat ics
toward s
622 15
Fourth ly
NES S
PPEND IX
WARRAN TIES
ios ity
tx t
Ġted ious
Ġtant amount
Ġach ieve
Ġaux iliary
Ġcurs ory
Ġcush ion
Ġsem blance
Ġincontr overt
Ġfing ers
Ġearn est
Ġepo ch
Ġbeha viour
ivoc al
imilar ly
Ġgene alogical
ĠTRAN SITION
Ġunanim ously
Ġsprun g
Ġrap id
Ġembe ll
Ġtrave l
Ġtrium ph
Ġvulg ar
ĠFRO M
ĠFIT NESS
ĠAug ust
ĠAesthe tic
ĠPref ace
Ġchapt ers
ĠSUC H
ĠNEG LIGENCE
intuit us
ĠCHA PTER
ĠCoper nic
ĠReplace ment
ĠMER CHANT
Ġindestr uctible
ENTI AL
Ġlegitim acy
Ġinsignific ant
Ġsurrept itious
commerci um
Ġearlies t
ĠStaple ton
airban ks
ĠPUNI TIVE
Ġprototyp e
ĠCONTRA CT
ĠCONCEPTION S
ĠCONSEQU ENTIAL
Ġcounterpo ise
ĠDISCLAIM ER
ĠMississipp i
ĠDOCTRIN E
ĠMERCHANT ABILITY
" ),
( $
) -
) ?
* (
. ]
. ),
0 2
0 4
1 2
1 4
1 9
1 78
2 1
2 3
2 4
2 5
2 6
2 7
2 8
2 9
3 0
3 1
3 2
3 3
3 4
3 5
3 6
3 7
3 8
4 2
4 3
4 4
4 6
4 7
4 8
4 9
4 280
5 1
5 2
5 3
5 4
5 6
5 8
5 9
6 0
6 1
6 2
6 3
6 4
6 5
6 6
6 7
6 9
7 0
7 2
7 3
7 4
7 6
7 7
8 1
8 7
9 6
; [
A F
A T
A Y
A RA
A IN
A rist
A pperception
A PPENDIX
B C
B JEC
B etween
C he
C om
C ertain
C ategor
C rit
C osmological
C ritical
C reating
D IC
D ialectic
D EM
D AMAG
D ifferent
D ITION
D URE
E I
E nd
F UND
G RA
G EMENT
G ENERAL
H is
H uman
H ave
H IL
I m
I TH
I GHT
J u
L L
L ogical
L ast
L ove
L ogic
L ocke
L EMENT
L AF
M e
M AL
M ENT
M ichael
N O
N on
N ER
O r
O RO
P le
P ossib
P art
P lato
R S
R even
R TH
S THE
T hing
T wo
U S
U pon
U AL
U nt
U SI
U pdated
V II
V olunteers
W NER
Y es
Y ST
] .
_ [
a h
a ut
a ud
a str
a dequ
a ugment
b i
b at
b es
b us
b all
b ser
b ack
b esides
b new
b ungl
c s
c ence
c her
c over
c ible
c ert
c ob
c overed
c ivil
c itiz
c asus
c rowd
d ur
d am
d oll
d ile
d ata
d rop
d imin
d itio
e w
e in
e per
e gr
e br
e ometr
e veloped
f an
f ence
f ict
f ull
f ix
f lection
f aces
f ru
f illed
f ancy
f anci
g n
g y
g est
g one
g over
g ained
h ic
h ist
h ind
h art
h op
h old
h yp
h io
h itherto
h oliness
h omogeneity
i og
i ary
i ently
j acent
k ingdom
l or
l ose
l ink
l lect
l aid
l come
l oc
l io
l ix
l urality
l iability
m n
m al
m ill
m our
m oun
m ark
m und
m ov
m unity
m acy
m ock
m oments
n ight
n ull
n icious
o h
o qu
o ca
o ber
p ict
p ast
p utes
p ob
p utable
p iece
r d
r al
r os
r um
r ary
r ible
r ances
r ont
r ium
r ash
r hapsod
s in
s pl
s ies
s ound
s ought
s ake
s ided
s cribed
s ciences
t w
t re
t act
t ort
t ology
t ask
t emper
t lest
u gg
u seless
u pright
u phold
v ous
v ict
v ered
v oc
v ocation
w ond
w ished
w elf
w ater
w rong
w ants
y pon
y ers
z er
z ism
Ġ &
Ġ q
Ġ er
Ġ il
Ġ vel
Ġ QU
Ġ *****
Ġt ib
Ġt ur
Ġt rem
Ġt ends
Ġt utor
he art
Ġa the
Ġa pt
Ġa ver
Ġa we
Ġa equ
Ġa version
on es
on ent
in a
in j
in able
in ated
in ward
in ning
in ability
in comp
in ternally
in ery
in heres
in conceivable
Ġo pt
Ġo mission
Ġthe e
Ġthe ist
re ject
re ve
re du
re ach
re lu
re ceived
re hension
re ption
re comm
re pe
re cognize
re sem
re pute
re putation
it al
it ial
it ating
it udes
it itious
is i
is se
is ter
is ol
is yllogism
is covered
en n
en cour
en force
at s
at en
at ical
at ure
at tr
at urn
Ġw al
Ġw ent
Ġw ound
Ġw arr
Ġw ret
Ġw ild
Ġw rest
Ġw rought
Ġw atch
er m
er v
er on
er ation
er ate
er um
er ring
er ving
Ġc ou
Ġc un
Ġc ert
Ġc ath
Ġc ount
Ġc ub
Ġc asus
Ġc rowd
Ġc odes
Ġs i
Ġs al
Ġs end
Ġs ink
Ġs ap
Ġs ites
Ġs adly
Ġp u
Ġp al
Ġp us
Ġp ill
Ġp ause
Ġp oly
Ġp omp
Ġp ush
al ar
al tern
al leg
al terable
ic ing
ic an
ic ed
ic ros
Ġin an
Ġin form
Ġin sen
Ġin ane
Ġin expl
Ġin compar
Ġin estim
Ġin conceivable
Ġin habit
Ġin structive
Ġin equality
Ġb an
Ġb ow
Ġb are
Ġb lessed
es ult
es ca
Ġth ine
Ġth resh
Ġth ousand
or ter
or ably
or igination
Ġto u
Ġto ld
Ġm ir
Ġm us
Ġm ill
Ġm over
ce lebrated
ct yp
ct ification
ct antly
ct ober
Ġf ain
Ġf if
Ġf ame
Ġf ight
Ġf ra
Ġf atum
Ġf light
Ġf ier
an alytic
an imity
Ġn es
Ġn ations
Ġn et
Ġn isi
Ġe b
Ġe ul
Ġe ff
Ġe lect
Ġe ctyp
se ver
se tt
se verest
se cret
ou p
ou re
Ġre ly
Ġre ign
Ġre ward
Ġre call
Ġre ap
Ġre new
Ġre cap
Ġre production
Ġre trace
Ġre rum
Ġre tort
le ge
le ology
le ft
Ġcon e
Ġcon qu
Ġcon ced
Ġcon dem
Ġcon vey
Ġcon veyed
Ġcon ducive
Ġcon ditio
Ġd il
Ġd ie
Ġd ress
Ġd ates
Ġd ial
Ġd ull
Ġd iction
Ġd umb
Ġd uc
Ġd rew
Ġbe ad
Ġbe que
Ġbe fits
st ain
st art
st ac
st ates
st arr
st ability
st atus
om as
om ain
om pl
om aly
om ni
om nit
ent ities
Ġwh ol
ot ot
ar ing
ar ol
ar ond
ar ities
as p
as ur
as cribed
as ibility
ut che
ut most
ect ions
ect yp
Ġh ide
Ġh ost
Ġh over
Ġh ole
Ġpr ize
Ġpr ae
Ġpr oud
Ġpr ogram
Ġas pir
ll ing
ll ed
the ore
the ning
Ġu m
iv ial
iv isible
iv eness
iv oca
im m
im pose
im poses
im prov
im mortality
im material
os sess
os oph
Ġan xious
Ġan terior
Ġan omaly
Ġex ceed
Ġex change
Ġex cess
Ġex erted
Ġex empl
Ġex hort
Ġl end
Ġl ust
Ġl oth
Ġl ack
Ġl iable
Ġl au
Ġl ux
Ġl ucid
Ġl iberum
Ġnot ifies
pt uously
ject ive
Ġwe ari
Ġwe ighed
Ġwe lcome
ith ful
Ġfor t
Ġfor be
Ġfor cing
Ġfor fe
Ġfor sakes
id ity
id ens
id ger
id night
Ġsu pre
Ġsu spect
Ġsu ited
Ġsu nt
ib ib
ib les
ib rium
cept ation
cept ical
cept ible
ter onomy
ure ans
ld arond
ir ation
ir gin
Ġwith stand
Ġg out
Ġg aps
Ġg bnew
Ġg erm
ur p
ur red
ci ate
ĠI RS
ver sely
qu i
qu erable
og ue
res ides
ist ences
Ġor ator
Ġor bits
ere r
ere ct
Ġcan st
ain drop
ec um
ec utive
ec undity
if ling
and i
and o
and al
and ed
and om
sel s
per mit
per ceived
per sist
per mission
per pet
per plex
per tains
per suasion
sib ly
Ġall ot
Ġall ure
Ġall ied
rom ise
ul zer
Ġpro lix
em y
em in
em piric
Ġreason ably
ve il
ate ful
con sol
con dem
con veyed
con verted
con ducive
con junct
con versely
con querable
ch ie
ch arge
ch asm
ch arities
Ġde ter
Ġde fe
Ġde arest
Ġde let
Ġde eper
Ġde pict
end ations
end our
end els
ore d
Ġint act
Ġint imate
Ġint imid
Ġint egr
il ation
il anthrop
il ibrium
act ivity
Ġal arm
Ġal lege
us able
us iveness
Ġha ph
ill ain
ill ustr
am pl
am ination
am ps
am orph
pl ies
pl ays
pl anation
pl aces
pl acing
pl iance
pl ausible
Ġun w
Ġun re
Ġun tr
Ġun sh
Ġun just
Ġun real
Ġun necessarily
Ġun qual
Ġun belief
Ġun exception
Ġun satisfied
Ġun changed
Ġun usual
Ġun influenced
Ġun restricted
Ġun bidden
Ġun yielding
Ġun guarded
Ġun link
Ġun erring
Ġun alterable
Ġun sett
Ġun conquerable
dition s
dition al
ab ol
ab ile
ab iding
ab ilities
ab yss
self ish
ol ence
ol ens
ol ved
ol lection
de tr
de pre
de part
de ceived
de istic
de fence
Ġca el
Ġca ution
Ġca utious
Ġ( "
Ġ( *
ig ence
ig our
ans as
min or
ies tle
Ġsp ur
Ġsp her
Ġsp ort
Ġcom ets
tr od
tr ied
tr ack
tr anqu
of f
of fer
est ing
Ġr ot
Ġr ich
Ġr ose
Ġr ude
Ġr aces
Ġr iver
Ġr het
Ġr aindrop
Ġem pire
Ġwor se
Ġexist ent
Ġexist ential
Ġme l
Ġme lt
her self
Ġtr ies
Ġtr ial
Ġtr aces
Ġtr iang
Ġtr anqu
Ġtr ivial
Ġtr ifling
ction s
Ġwill ingly
fore ign
fore seen
Ġv a
Ġv ast
Ġv igour
ĠB erke
use ment
use ful
ak ed
Ġim pre
Ġim material
Ġim proved
Ġim mortal
Ġper ish
Ġper man
Ġper tains
Ġper vert
Ġper nicious
ori ally
Ġform arum
Ġnat ive
Ġnat ura
Ġno bl
pr on
pr ag
Ġab sol
Ġab und
ame ter
pos its
pos itio
Ġreg ions
Ġreg ret
Ġreg ulated
su ppos
su pposed
su pposing
su itable
su cceed
Ġk at
Ġk new
ind ifference
ind ispensably
ind ulgence
Ġus urp
Ġsh ame
Ġsh ake
Ġsh ine
Ġsh aken
Ġsh ield
Ġsh ared
Ġsh orter
ant agon
ĠF unction
ĠF ull
ĠF AC
ĠF airbanks
ĠF ebr
out side
out set
ph il
ph rase
Ġcogn ise
Ġcogn iz
Ġcogn itio
Ġcogn isable
Ġse a
Ġse yn
ex ec
ex to
ex ert
ex ternally
ex cell
ex hausted
ex terior
ex actly
ud o
Ġqu ib
Ġide ally
Ġrel iable
Ġst at
Ġst one
Ġst ory
Ġst ars
Ġst ored
Ġev ade
wh olly
ance d
ĠA K
ĠA S
ĠA re
ĠA ff
ĠA CT
ĠA ldarond
Ġj ugg
Ġj esting
our ce
Ġacc um
Ġacc used
Ġacc ru
Ġacc redit
ac id
ac knowled
ac ceptation
Ġman hood
ult imate
ult aneity
Ġunderstanding s
sequ ence
ca re
Ġad just
Ġad jacent
Ġad jective
for ward
ĠP O
ĠP ER
ĠP ublic
ĠP lease
ĠP olem
ĠP OSSIBILITY
ĠP ARA
ĠP HIL
ĠP lurality
Ġdis mis
Ġdis advantage
Ġdis posing
Ġdis appro
Ġdis continu
Ġdis continue
Ġdis pleases
Ġdis repute
un ite
un ted
un its
un certain
un necessary
un ities
un limited
un certainty
un iting
un til
un fortun
un ceasing
un changeable
un true
un iform
un ciated
un searchable
position s
), [
so hn
Ġy aw
Ġy oke
Ġknow able
et us
et ting
et ched
Ġpre cl
Ġpre ference
Ġpre fers
Ġpre posited
Ġpre caution
Ġpre ponder
Ġpre mise
Ġpre monition
ĠTh ough
ĠTh irdly
ĠTh omas
str ong
str ings
str iking
Ġch amp
ener ation
ener ally
Ġrepresent ative
Ġsome where
Ġevery day
sp aces
Ġsynthe ses
Ġar ouse
Ġar dent
Ġar mour
ĠS U
ĠS ing
ĠS ense
ĠS END
ĠS alt
ĠS econd
ĠS enses
ĠS ciences
ĠS pirit
ĠS imilarly
ĠS MAL
ĠS aturn
ĠS ceptical
Ġph ilanthrop
sol ved
ĠN ame
ĠN oumen
ĠN ihil
ĠN early
ĠN ovember
ens ity
ens ome
oy ing
oy ed
ness es
Ġsub du
Ġsub sid
pre par
pre determined
pre hensible
pre pared
pre ponder
ĠO therwise
ĠO WNER
ĠO ctober
possib ilities
Ġfre es
imit able
condition al
ĠIn cl
be ho
Ġcertain ties
Ġcomple ting
Ġpl un
Ġpl ays
Ġcont ending
ort ing
ort unities
ĠG over
ĠG enerally
ĠW ould
ĠW ell
ĠW OR
ĠW IL
ĠW ITH
ĠW idger
Ġend ing
Ġend uring
Ġwhen ever
ploy ment
Ġgr oup
Ġgr asp
gor y
Ġcontr ari
Ġgo ld
The ological
The oretical
ĠC ity
ĠC AN
ĠC OM
ĠC artes
ĠC ORO
ĠC arol
ast ically
me et
me asur
Ġow e
Ġow ed
Ġconnect ions
Ġob no
Ġob sole
Ġdes ist
Ġdes cribes
Ġdes pot
Ġfound ing
form ing
Ġdist rust
Ġcomm end
Ġcomm ences
Ġcomm encing
Ġcomm erce
old est
Ġfollow ers
ari us
Ġemploy ee
Ġwas hed
com pl
com men
pro ves
pro posed
Ġrational ist
Ġrational ism
ish able
Ġrespect ive
Ġpur ified
ici um
with drawn
Ġrem ember
Ġrem embered
Ġdisc ord
ĠH as
ĠH ad
ĠH itherto
ĠH armon
âĢĿ .
âĢĿ ),
Ġext ol
Ġext ingu
Ġact or
Ġact uating
we b
we ak
we aken
Ġval uel
Ġag es
Ġag ency
over look
over step
over throw
Ġground ing
under taking
par alogism
par adox
med ium
med iable
Ġen unciation
Ġen lightened
Ġen emy
ĠR eci
ĠR IGHT
Ġpres ume
Ġpres iding
ĠE s
ĠE qu
ĠE dition
ĠE lucid
ĠE mail
ĠE BC
ĠE DITION
ĠE LEMENT
Ġout we
Ġout dated
Ġexp end
Ġexp edient
Ġexp orting
wo ven
Ġter minis
Ġter rible
Ġreal e
Ġreal itates
exist ed
exist ences
Ġam ply
Ġperfect ions
ser t
ser ved
oint ed
av a
av en
Ġatt ends
man kind
ogit o
phys ician
phys iological
ĠD E
ĠD est
ĠD irect
ĠD ON
ĠD OM
ĠD omain
Ġfact i
hemat ism
ident ity
ident ical
Ġimp ure
Ġimp ass
Ġimp lying
Ġimp air
Ġimp elling
Ġimp enetrable
Ġimp aired
determin able
ass ion
ass ent
ass istance
Ġent ities
Ġent rance
cogn izing
Ġconstit uent
Ġcor por
Th ought
ful fil
Ġpurpose ly
Ġhere in
necess itate
Ġinf used
Ġinf ancy
can on
Ġexpl ication
Ġinterest ing
Ġkind ness
ĠM ore
ĠM atter
ĠM odality
ĠM AY
ĠM endels
Ġhand le
Ġhand les
ys ms
Ġconc ess
Ġconc ur
Ġdem erit
Ġstr ive
Ġstr ay
Ġstr ain
Ġstr iving
Ġappear ing
Ġrest less
Ġanaly ses
othe ology
ra ised
ra ft
Ġref ute
Ġref used
Ġref using
Ġref rain
empt y
Ġdiv ides
Ġsum m
Ġsum s
Ġind ivisible
Ġind olence
Ġdedu ctible
Ġcomp ound
Ġcomp any
Ġcomp ulsion
Ġcomp elling
Ġcomp etition
Ġcomp romise
Ġcomp ilation
Ġadv ised
Ġcontradict ing
Ġassum es
app eared
ev ents
ĠL I
ĠL est
ĠL ogicians
reg ulate
reg ulated
Ġtruth fulness
Ġdec ay
Ġdec ried
mediate ly
lu de
contr ib
contr ast
Ġmet als
Ġ1 1
Ġ1 4
Ġres iding
stru gg
Ġmight y
und ecided
Ġsupp ress
Ġsupp ressed
Ġpredic ating
Ġpredic aments
Ġpredic ables
Ġexpress ing
Ġexpress ly
Ġwork ing
Ġphys ician
Ġphys ica
ĠU S
ĠU pdated
Ġconf er
Ġconf ident
Ġconf usions
Ġconf using
Ġconf idently
Ġdiscover ies
In asmuch
In trodu
In trod
acc ustomed
acc ompl
Ġcl ock
Ġcl oud
ĠOn tological
ĠCon cept
ĠCon trib
ĠCon junction
ĠCon tent
ĠCon tact
ĠCon ditions
Ġdeg rade
know ing
Ġdefin iteness
Ġclear ing
Ġright eous
Ġimper illed
Ġregress ion
Ġregress ively
Ġarr og
Ġarr anges
dis k
dis play
dis junctive
dis similar
dis appears
dis interested
dis putes
red istrib
tle ment
sub sum
sub scribe
sub stitution
sub ordinate
Ġel oqu
Ġsole mn
Ġperson ified
Ġneed ing
mon ads
Ġac knowled
Ġwant ed
Ġconting encies
err ors
Ġfin ishing
Ġfin anci
cont end
cont act
cont empor
mis conception
mis apprehension
aim ed
Ġmethod ical
Ġassert orial
Ġassert orially
Ġcommand ing
contradict s
contradict orily
Ġmean est
ific ate
ov erer
part e
part ed
Ġdog ma
ĠTH OSE
transcendental ism
go als
Ġnon entity
Ġnon propri
Ġdemonstr able
Ġover throw
Ġover coming
arr ay
arr ived
arr ogant
Ġrelations hip
Ġsol ving
Ġequ ipped
Ġequ ilibrium
Ġideal istic
Ġideal izing
Ġco in
Ġco at
Ġco ar
Ġco ol
Ġco ins
Ġco erc
Ġless on
Ġless er
Ġless ened
bit ably
bit ious
ĠPr imal
ĠPr iestle
ĠSu b
ĠSu pposing
ĠSu bst
Ġbound less
Ġconduct ing
Ġinfluence d
men se
ail ing
ob stac
Ġident ification
Ġhar sh
Ġexpect ing
Ġpass ion
Ġpass ions
Ġargument ative
Ġden ying
Ġden otes
Ġappre ciated
Ġappre hensions
Ġ2 1
Ġ2 3
Ġmis use
Ġmis ology
Ġmis representation
Ġmis inter
Ġmis applied
Ġmis sed
Ġmis leads
Ġmis fortune
Ġmis erably
Ġmis chief
Ġgener ates
Ġgener atio
Ġoblig atory
Ġremark ing
Ġprom ising
Ġprom inent
Ġop ens
Ġsuper ficial
ĠBeing s
Ġconscious ly
gr ace
Ġpeculiar ities
Ġlegisl ator
Ġmaintain er
Ġi ii
Ġaw a
Ġaw akes
ext ends
ext reme
Ġaffirm ing
Ġunderstand s
ĠAn alog
dif fer
oc ate
oc ks
connect ing
ave olens
sim plicity
sim ultaneous
bl ind
bl under
bl ances
Ġcirc uit
Ġspe ech
some what
ont al
ne arer
Ġbr utes
Ġbr utum
Ġbr idge
Ġund one
Ġund ecided
Ġund eveloped
Ġund iscovered
right eous
happ ily
happ ened
Ġintellectual ized
cor poreal
cor rection
categor ically
Ġfut ile
Ġdistinct ly
Ġdistinct ness
Ġoper ative
Ġoper ates
Ġendeavour ing
Ġclaim ing
yn ics
Ġte leology
Ġthree fold
Ġconv ict
Ġconv ictions
Ġcorrect ing
Ġanal ogical
Ġpret ext
Ġdistrib utive
sensuous ly
fer ing
Ġce ased
Ġpar simony
Ġpar abol
Ġinvol unt
br ain
exam ine
exam ined
exam ining
no ble
no isse
sh ort
sh ip
Ġmed itation
Ġdynam ics
ĠUn philosophical
ap se
pres cribed
Ġask ing
AR Y
des cribe
des ired
requ est
requ iring
Ġtrans port
Ġtrans lated
proc ure
ĠEx ternal
ĠEx tent
ĠEx amples
ĠEx istences
ĠEx ecutive
ĠEx amination
just ifies
Ġpain s
Ġpain ful
Ġexcl uding
Ġexcl usive
Ġprof undity
Ġvain ly
bel ie
Ġfr ustr
Ġfr ank
Ġfr ames
caus al
caus ed
Ġdesign ed
Ġdesign ates
Ġdesign ating
fe es
Ġsuccessive ly
rem o
rem ove
rem ote
rem arks
rem ained
rem aining
Ġthird ly
leg ality
ask ed
ĠAr chitect
Ġmeaning s
Ġmeaning less
ft p
incl ined
incl udes
respect s
respect ing
respect ive
Ġdel ivers
Ġdel ine
Ġdel usions
Ġdel icate
Ġdel ivered
appl ies
att ached
att acks
Ġappro ved
Ġappro val
Ġappro bation
Ġrefer able
Ġelement al
Ġ* (
Ġche er
Ġche mist
thought s
Ġra ises
oriz ontal
ĠSp here
Ġdecl ined
Ġ5 5
Ġ5 96
ĠV ery
Ġorgan ic
Ġlet ters
Ġarbitr ium
Ġagree ably
consist ing
Ġsignific ancy
IN CIDENTAL
ĠJ UD
then ed
univers ally
ĠK ings
ĠK NO
iter ated
quant a
Ġcare lessness
Ġsepar ates
Ġsepar ating
icip ations
metaphys icians
Ġoff ence
constit uted
constit uent
mathemat ician
comp ut
comp ound
comp ressed
ĠRE PL
ĠRE FUND
worth less
Ġwis er
Ġwis est
Ġscept ic
Ġfa ulty
Ġaccept ance
cogit able
cogit ating
div isible
ip id
ip ate
Ġ4 000
Ġ4 280
Ġcre ative
Ġge ometer
Ġgen ius
urs ively
possess ions
ven al
ins ipid
Ġfavour ite
conf ounded
conf utation
change ably
CE DURE
Ġens ure
Ġens ures
Ġens uring
Ġsc ale
Ġsc andal
Ġsure ly
think er
think ers
speci fic
Ġoccasion ing
Ġoccasion ed
Ġoccasion ally
Ġdogmat a
Ġdogmat ists
satisf y
Ġed iting
Ġed ifices
Ġhigh way
Ġgeometr icians
Ġgeometr ician
Ġinter ference
Ġinter ior
Ġinter rog
Ġinter pretation
Ġinter woven
Ġinter fering
Ġconver ted
Ġconver ting
sens atio
Ġcol lect
Ġcoun tenance
Ġcoun tries
origin ated
origin ator
origin arium
Ġmechan ically
analy sed
predic ated
predic aments
IC AL
real ized
real issimum
Ġredu cing
Ġexper iments
Ġexper imental
ĠAN D
demonstr ations
demonstr atively
gu ides
jud ges
jud ging
jud icium
matter s
imin ished
Ġcanon s
Ġaccess ed
Ġaccess ible
first ly
ru in
Ġprud ential
Ġlos es
expl anations
Ġaccident ally
Ġart ifice
Ġclass ed
discover s
Ġcomprehend ed
ian a
Ġ9 2
Ġdivers ities
Ġdefect s
adv ances
investig ating
Ġsk etched
ĠIm mortality
Ġdet ection
obser ve
ND ATION
Su bst
Ġir respective
attain ing
Ġwrit er
Ġrec ent
Ġrec ord
Ġrec ollection
Ġconfin ing
Ġhum our
Ġpract ised
Ġpract icable
Ġasc ends
Ġvent uring
Ġenlar ges
Ġenlar ging
adequate ly
Ġsent imental
Ġbene f
Ġbene fits
Ġfirm ness
Ġsucceed s
Ġstud ent
Ġobsc ured
Pr ofessor
Pr otot
say ing
inf luences
Ġmist aking
Ġdest iny
Ġlower ing
ĠPh alar
Ġpreser ves
Ġpreser vation
maxim um
contin ual
Ġ200 3
draw ing
psych ologia
Ġreckon s
Ġgl im
Ġgl ory
Ġcap ital
Ġqual ified
Ġstreng thening
Ġeng raft
attempt ing
aff inity
Ġauthoriz es
Ġauthoriz ing
Ġbest owed
Ġspirit uality
ĠPU BL
ĠPRO BL
ĠPRO CEDURE
ĠHere in
Ġestim ates
Ġreflect ed
neg ations
neg lect
Ġprofess ions
Ġincre ases
Ġexc use
Ġexc ited
Ġexc usable
Ġhabit ation
super ior
appre hend
regress ive
regress us
Ġguard ed
Ġguard ian
gl orious
human ity
oper ate
oper ative
oper ating
Ġmo ves
Ġren amed
Ġren ounces
Ġren ounced
Ġbeh old
Ġbeh alf
imp enetrable
Ġextr act
cond itio
Ġdev iate
Ġsearch ing
ĠCh ief
Ġenjoy ing
ĠEm piricism
ĠEm ployment
Ġstrong ly
Ġstrong est
ĠLeibnitz ian
Ġoccur ring
Ġblind ness
Con ceptions
vol unteers
Ġ6 5
Ġ7 0
Ġ7 5
Ġtw ist
infinite ly
imag ine
imag ined
Ġsuggest s
Ġsuggest ion
Ġsuggest ions
defin e
depend ing
Ġaccord ant
unte er
ĠEpic ureans
Ġderiv able
oblig atory
diffic ult
inqu ire
alt ered
second ly
concept us
deg rees
Ġhead er
Ġpermit s
addition s
Ġappe als
Ġadapt ation
pret ext
ĠEvery one
Ġsecret s
Ġstru ck
Ġillustr ations
Ġtransgress es
Ġtransgress ing
equ ally
equ ivalent
pot ence
show ing
inst ance
inst ances
Ġobe ys
Ġrep ul
Ġrep utation
Ġhind ers
Ġfortun ate
ili ates
Ġvan ish
Ġvan ishes
Ġimit ate
Ġimit ating
supp lied
Ġaddu cing
Ġprep ares
ĠWh ole
Ġgover nor
Ġsubstant ive
ĠDI RECT
Ġmoder ately
require ment
Ġschol ar
Ġschol ars
Ġschol astically
Ġroot ed
Ġcontempl ate
ACE MENT
direct s
direct ing
direct ed
labour s
sing ular
attrib uting
Ġinj uring
Ġinj ury
set tlement
Ġreject s
Ġreject ion
Ġsuff ers
Ġsuff ices
vers ed
Ġattr actions
Ġabandon ed
Ġsym path
Ġsym bol
Ġsym pat
Ġstart ed
Ġevid encing
Ġcha os
begin s
Ġcommun ic
Ġconfused ly
Ġaccompl ishes
analytical ly
advantage ous
Ġomni present
Ġomni presence
cul ation
ox ysms
Ġtyp ic
Ġcle ared
Ġcur iosity
Ġdict ation
Ġdict ated
Ġloc ale
ĠIN TERNAL
person s
person al
person ality
Ġdeep est
Ġalter ing
Ġspect ata
Ġspect acle
trans gression
Ġmeant ime
ĠCom position
ĠCom pliance
Ġimpart ed
Ġimpart iality
ĠMat erial
Ġlegitimate ly
Ġblame less
abstract ed
anteced ently
maintain s
aenomen a
80 1
Ex istence
Ex amples
author s
Ġtend er
Ġtend encies
Ġtell s
Ġresol ves
Ġresol utions
Ġreplace d
Ġdr ives
Ġhard ness
Ġlink ed
Ġprop ension
Ġprop ounded
concl usio
construction s
Ġdepr ives
Ġundert akes
progress us
Ġstop s
ĠPer ception
ĠPer fect
ĠPer haps
ĠPer mitted
Ġprefer able
Ġprefer red
ĠCategor y
ĠCategor ical
Ġambig u
Ġpleasant ness
correct ly
correct ness
Ġteach ings
command s
occup ies
affirm ing
affirm ations
Ġfulfil s
Ġhyper bol
col lect
col lection
col lected
gener ations
mod i
prom ise
prom ote
Ġver sion
Ġver ify
Ġver bal
Ġaugment ative
inc erity
reciproc ity
enlar ges
enlar ging
Ġcent ury
Ġmon ogram
Ġmon ads
sec urity
Ġreve aled
Ġann ounces
Ġann oying
result s
ĠTr anscendent
ĠTr ancendent
Ġalleg ing
Ġjoin ing
compar atively
Ġenounce ment
Ġdecided ly
Ġerrone ously
distrib ute
distrib ution
need ing
Ġcolour ing
Qu od
affect ing
cop y
cop ying
coun try
mo on
small er
Ġwa x
Ġwa it
Ġwid er
Ġinc it
Ġinc umb
Ġinhere nce
Ġinstruct s
Ġthy self
Ġthreat ened
Ġthreat ening
Ġfoot path
Ġfoot steps
Ġnull ity
Ġerect s
Ġconject ures
Ġhundred s
Ġpropens ions
construct s
construct ed
Ġprincip ally
Ġration e
Ġviol ate
individual s
ĠAl aska
material iter
agree able
Ġyouth ful
Ġattack ed
ĠMe anwhile
Ġconceal ment
grad uated
Ġ50 1
Ġroad s
ĠÃĨ STHE
pathological ly
ĠProof s
ĠProble matical
Ġobstin acy
ĠPhilos ophical
ĠPhys ics
Ġprospect s
Ġhypostat ize
Ġhypostat ized
Be yond
CL USI
UL AR
UL TY
fig ur
opp ortunity
opp onent
po seless
Ġmov able
Ġflatter s
Ġreconci le
Ġur ges
Ġsovereign ty
prof itable
sophist ries
Ġchar itable
Ġmach ines
Ġmach inery
Ġdesp ising
ĠEX CEP
ĠEX TERNAL
Ġamount s
Ġsettle ment
apodeict ical
Ġirre mediable
ĠSystem atic
Ġstrugg les
Ġstrugg ling
ĠNew by
Ġbreak s
LI ABILITY
LI ABLE
don ation
Ġ8 5
Ġ8 41
insepar able
Ġcour tes
Ġpo or
Ġpress ure
Ġincomp atible
ston es
Ġascertain ing
Ġannex es
Ġexempt ion
Ġexcell ence
Ġlic ence
Ġlic et
Ġdetr act
Ġaltern ation
Ġaltern ate
Ġaltern atively
Ġrun s
exper iment
ĠPRIN T
Ġsubstit ute
Ġsubstit uting
Ġindis putable
Ġ19 71
disposition s
Ġelabor ate
Ġelabor ating
Ġmodern s
Ġantinom ial
Ġsolic itation
Ġsolid ity
Ġinstinct s
Ġdenom ination
Ġspiritual ism
Ġcalcul ation
ĠDIALEC TICAL
Ġflow ing
Per manence
Per suasion
SEC TION
SEC OND
harmon ize
treat ment
Ġve x
Ġve iled
Ġve hic
Ġsil ver
Ġsalt s
Ġinex haust
Ġinex orably
Ġbind s
Ġprime val
cil ity
Ġdece it
Ġunfortun ate
dev ised
definite ly
Ġtrust worthy
Ġhes itation
Ġheight s
Ġperplex ing
exposition s
ĠAb out
class es
Ġmyst icism
Ġcompass ion
ĠConcl usion
deser ve
pursu it
pursu ed
remark ing
commun io
comprehend ing
comprehend ed
convin cing
Ġsuffer ing
Ġridic ule
Ġbetray ed
De ity
Gr ant
cosm ology
hon oured
hon esty
moment a
ton ian
ĠQu antity
heter ogeneous
Ġaston ishing
incre ase
introdu ction
reckon ing
Ġinn ate
Ġincor poreal
Ġinsist ed
Ġbon us
organ on
anci ents
sect ing
Ġrestr ained
Ġprag matic
Ġsust ain
Ġsust ained
Ġcompr ised
transc ends
Ġru ined
Ġembarrass ments
Ġhealth y
adm ixture
adm iration
exc ite
exc ited
exhib it
ĠAGRE EMENT
forth coming
Ġchief ly
spe ak
ĠIntrodu ction
ĠGr ant
ĠGer many
Ġgrat ification
prob able
Ġencour age
Ġencour ages
Ġcritic ize
ĠMis sion
contempl ated
Ġbran ch
design ate
Ġsurpr ise
specif ically
Ġdefici ency
Ġtalk ed
Produ ce
Ġpunct ual
Ġpunct ually
Ġstrengthen s
declar ations
ĠMethod ology
Ġdenomin ated
Ġfatal ist
50 1
OS O
PRO VIDED
TRA DEM
bar ism
bring ing
creat ure
creat ures
sch ool
test ing
Ġeduc ation
Ġeduc ational
Ġaut omaton
Ġtheore ms
recogn ise
recogn izes
enjoy ment
Ġsl ip
Ġsw amp
Ġpol es
Ġpol ice
Ġpubl ish
Ġpubl ished
Ġparent s
Ġinsp ires
Ġtol erable
Ġtol erate
Ġmal i
Ġmal um
Ġmar vellous
Ġmass es
Ġrefin ement
Ġredistrib ute
Ġredistrib uting
ĠIND EMNITY
Ġprolong ing
Ġprolong ed
del usion
det ect
det ailed
Ġric her
Ġvision ary
ĠBE FORE
Ġperpet ual
Ġconsult ing
ĠAgain st
Ġdisapp eared
Ġdisapp ointment
ĠSe at
Ġsubdiv ided
Ġsubdiv isions
precept s
agon al
ĠWolf ian
ĠCan on
ĠCogn ition
ĠCogn itions
Ġcommerci um
Ġvalu es
Ġvalu ed
sym pathy
sym bol
Ġsimpl est
ĠDetermin e
ĠDetermin ing
Ġrespon sible
Ġrespon sibility
maj or
maj esty
ĠSubject ive
Ġaddress es
Ġparadox ical
desc ent
Ġchem ists
Ġfacil ity
confirm ation
Ġtaut ological
Ġbenefic ence
anthropomorph ic
Ġwaver ing
Ġarchetyp al
Ġarchetyp es
profess es
prevent ing
Ġratiocin ant
18 87
Ca ius
Ca usality
authoriz ed
bene ficial
divers ity
divers ities
fl own
fr amed
function s
mast er
mast ery
parent s
ration e
sk ill
sk etch
sent iments
tempt ation
tempt ations
Ġign ore
reconci led
Ġcard inal
Ġsan ctions
Ġsedu ced
Ġsmo ke
Ġsmo oth
Ġsoft ware
Ġpot ential
Ġincap ac
Ġincap acity
Ġmil itates
Ġmoun tain
Ġmoun tains
Ġflu id
Ġflat ten
Ġep isyllogism
Ġelucid ate
Ġrever ses
Ġreport s
Ġreport ed
Ġdi ameter
Ġdi agonal
Ġdrop s
streng th
streng thened
iver ance
Ġlar ger
Ġlar gest
Ġlib itum
Ġlib rary
Ġlimb s
Ġforget ting
perform ing
Ġhast ily
plain ly
Ġunconscious ly
abandon ing
abandon ed
Ġcomfor t
priv ate
priv ilege
indu bitably
Ġshad ow
Ġshad ows
exerc ising
Ġappet ite
Ġadvers ary
ĠPG LAF
ĠPost ulate
ĠPost ulates
Ġye a
Ġartic ulation
Ġargu ing
ĠSc hematism
Ġsubrept ions
Ġsubrept io
ĠCa uses
ĠCa usality
ĠCertain ly
ĠCosm ical
ĠCosm ology
ĠRedistrib ution
ĠRedistrib uting
Ġpresum ed
avail able
Ġindivid uum
Ġconfound ing
Ġimagin arium
Ġsignal ize
doctr ines
doctr inal
Ġhero es
obsc ure
obsc urity
Ġfals ity
substant ia
requis ite
Ġ568 2
Ġ568 3
Ġadmire rs
impul se
impul ses
ĠWho ever
Ġsharp en
Ġpoison s
cultiv ated
Ideal ism
Philos ophical
ĠDISTRIBUT E
ĠDISTRIBUT OR
568 3
Epic urean
Mor ality
Sto ics
Wolf ian
az ard
cal culation
dest ination
eas ily
fa cility
fam iliar
fici ency
hum iliates
lo ving
lab orious
mother ly
penetr ating
wis dom
warrant ies
Ġtor ment
Ġtear s
Ġadequ acy
ino zism
instruct ed
Ġtheolog ians
enes is
enumer ate
Ġwander ing
Ġcand our
Ġcitiz en
Ġsag acity
Ġincompre hensibility
Ġinstrum ent
Ġbro ke
Ġthir teen
Ġthwart ing
Ġming les
Ġfant astic
animal s
Ġnom inally
Ġecl ipses
Ġlat ent
Ġliqu et
Ġlangu ages
Ġwear iness
ithmet ic
Ġsuppos ititious
Ġsudden ly
threat ens
embarrass ment
conject ured
confin es
conven ience
constant ly
Ġalkal i
Ġunsol icited
Ġunquestion ably
Ġempiric ist
ĠBec ause
Ġimmedi atae
Ġnovel ty
prim ary
adem ical
adapt ed
ĠFac ulty
ĠFOU NDATION
ĠAd ditional
Ġaccus ation
ĠPre cisely
ĠParalogism s
Ġdiss ipate
specul ations
Ġphantom s
ĠInte llect
ĠGre gory
ĠCl ue
Ġobl iterated
Ġdiscret um
ĠHist ory
ĠHypothe sis
Ġenv y
Ġenig ma
ĠEv ents
Ġtert ium
service able
sensual izing
Ġimpot ence
Ġshallow ness
Ġentrust ed
Ġinflex ible
Ġapper taining
ĠLat in
Ġdecre ase
undoubted ly
Ġillum inated
Ġdegr aded
Ġmislead ing
grant ing
Ġsurr ounded
myst icism
architect onic
ĠImper atives
Ġdetail s
consequentia e
elev ated
Ġprosyllogism s
Ġdevi ations
Concl uding
PLEAS E
ĠDisc overy
Ġtreasure s
ĠNeg ation
ĠOrigin ally
Ġzeal ous
Ġindiscern ibles
Ġsilence d
Ġsteadfast ness
ĠAbb ott
schol astic
Ġauthentic ated
Ġastronom ers
Ġeconom ical
Ġtrades man
circumst ances
62215 41
Ġincontrovert ibly
Ġembell ishments
ĠCopernic us
Ġsurreptitious ly
Arist otle
BJEC TIVE
Categor ies
Crit icism
DAMAG E
GRA PH
Ju venal
LL ARY
Me anwhile
Ple asure
Possib ility
Part icular
Reven ue
Thing s
Unt il
YST EM
bus y
bser vation
cover ably
cob web
civil ized
doll ars
eometr y
fan aticism
fict itious
fru itful
gover n
hind rances
hop es
mund us
mov able
pob ox
spl endour
sound ness
tw ofold
vict ory
welf are
Ġil legitimate
Ġtib i
Ġathe istic
Ġaver age
Ġaequ ivoca
Ġopt ical
relu ctantly
recomm endations
repe ated
resem blances
encour agement
enforce ability
Ġwal ks
Ġwret ched
Ġcun ning
Ġcath artic
Ġcub ic
Ġcrowd ed
Ġpus hed
alleg ed
Ġinan imate
Ġinsen sibly
Ġinexpl icable
Ġinestim able
Ġinhabit ants
esca pe
Ġthresh old
Ġnet work
Ġeul og
Ġectyp al
Ġrecap it
Ġdil igence
Ġdial etic
Ġdiction is
Ġduc at
Ġbeque ath
starr y
omni potence
omnit udo
Ġwhol es
utche son
ectyp a
Ġhost ile
Ġaspir ations
theore m
improv ement
ossess ion
Ġlau gh
Ġlux ury
Ġweari ed
Ġforbe ar
Ġsupre macy
ibib lio
irgin ia
Ġgbnew by
persist ed
perpet ually
perplex ity
Ġprolix ity
condem n
conjunct io
chie vous
Ġdelet ions
Ġintimid ation
Ġintegr ity
Ġhaph azard
Ġunsh aken
Ġunqual ified
Ġunexception able
Ġunsett led
detr imental
Ġcael o
Ġraindrop s
Ġmelt s
Ġtriang les
ĠBerke ley
Ġimpre gn
Ġperman ently
Ġnobl est
prag matic
suppos itio
ĠFAC ULTY
ĠFebr uary
Ġcogniz ant
excell ent
ĠACT UAL
ĠAldarond o
ĠPolem ics
ĠPARA GRAPH
ĠPHIL OSO
Ġarmour y
ĠSMAL L
Ġphilanthrop ist
ĠNoumen a
Ġsubdu ed
Ġsubsid iary
beho of
ĠGover nor
ĠWOR K
ĠWIL L
Ġcontrari wise
ĠCartes ian
ĠCORO LLARY
ĠCarol ina
Ġobno xious
Ġobsole te
commen cing
ĠHarmon y
Ġvaluel ess
paradox ical
ĠReci proc
ĠElucid ation
ĠEBC DIC
ĠELEMENT S
ĠDirect or
ĠDOM AIN
Ġimpass able
Ġcorpor ation
ĠMendels sohn
strugg le
ĠContrib utions
Ġeloqu ent
Ġfinanci al
Ġnonpropri etary
Ġcoerc ion
ĠPriestle y
ĠSubst ance
obstac les
Ġmisinter pretation
ĠAnalog ies
Ġparabol a
Ġinvolunt arily
noisse urs
Ġfrank ness
ĠArchitect onic
ĠJUD GEMENT
ĠKings mill
ĠKNO W
ĠREPL ACEMENT
Subst ances
Protot ypon
ĠPhalar is
ĠPUBL IC
ĠPROBL EM
Ġhyperbol ic
ĠTrancendent ale
Ġincumb ent
ĠÃĨSTHE TIC
CLUSI ON
ĠEXCEP T
Ġ841 16
Ġcourtes y
Ġinexhaust ible
TRADEM ARK
! *
! ).
! **
! *****
" :
" ).
' ,
' ll
( #
( Â§
) [
) âĢĿ;
) ?"
) ":
* :
, -
. _
. ).
. )âĢĶ
0 3
0 9
1 00
6 55
7 75
8 3
8 4
8 655
: _
; âĢĿ
? _
A H
A W
A b
A re
A pp
A pr
A str
A part
A nt
A utonomy
A ND
A xioms
B E
B od
B ole
B ST
B OL
B enevolence
C r
C an
C ogn
C ON
C opyright
C reator
C ogito
C ynics
D o
D es
D as
D em
D ak
D et
D el
D ON
D IS
D ES
D eduction
D uty
D avid
D onations
E Y
E dition
E ither
E ach
E AL
E ven
E thics
E lements
F E
F reedom
F IN
F UT
F OR
F OU
F airbanks
F ailing
G E
G S
G ign
G IN
G eneration
G eometry
H art
H old
H ypothe
H amps
H utcheson
I P
I nd
I ll
I RE
I OM
I ndeed
I ENCE
I mag
I UM
I BOL
I GIN
J ust
J udgement
K Ã
L C
L aw
L ake
L ook
L ED
L ATION
L LI
M B
M P
M y
M ich
M and
M ore
M od
M uch
M ast
M ark
M ON
M any
M ont
M OR
M oney
M ARK
M PH
M odality
M idnight
N at
N or
N ay
N ol
N un
N IC
N umer
N UM
N eg
N ovember
N ew
O k
O v
O x
O bject
O ther
O ne
O nt
O UT
O THER
O SITION
O therwise
O bservation
P re
P ain
P henomen
P ers
P un
P ost
P ro
P ER
P AR
P rop
P lat
P ACE
P ortions
P OSSIBILITY
P ossession
P MB
P OSITION
R esult
S h
S im
S cept
S ol
S ach
S END
S olution
S econd
S ocr
S ummum
S atirae
S hort
S imilarly
S ections
S ulzer
S etting
S YSTEM
T M
T O
T U
T e
T ot
T em
T hen
T able
T ell
T ENCE
T ALITY
T ecum
U nder
U TION
U GHT
V er
V ari
V anilla
V irginia
W here
W el
W iz
W ell
W IS
W AN
W HAT
X IOM
Y et
Z en
] -
_ )
_ ),
a i
a ed
a ver
a um
a est
a ign
a ert
a ises
a fe
a ug
a ii
a version
a ithful
a versed
b t
b u
b ent
b ow
b ur
b ul
b end
b tr
b ind
b ations
b led
b ial
b ted
b ases
b ooks
b urd
b vious
b ank
b oast
b irth
b enevol
b roken
b lessed
b oldest
c it
c le
c ent
c ut
c ation
c ate
c ans
c od
c ard
c art
c ens
c ue
c ost
c ro
c ode
c ular
c ited
c ula
c ibly
c ope
c ription
c endi
c odes
d r
d y
d it
d ing
d ich
d ere
d ate
d ecess
d ers
d ise
d ness
d ism
d ro
d read
d own
d atum
d iction
d ouble
d umb
d entity
d abilis
d abile
e en
e ter
e th
e ur
e org
e ternity
e utic
e pping
f at
f le
f as
f ate
f ol
f ide
f ant
f ord
f ear
f usion
f ted
f ert
f oc
f requ
f latter
f ool
f ume
f lying
f air
f als
f utation
f ling
f oot
f ashion
f ri
f elt
f ourth
f ictions
f ecundity
g ical
g em
g ans
g ard
g art
g un
g ated
g old
g ered
g ree
g ner
g ra
g ene
g ave
g les
g izing
g reement
h i
h s
h or
h ur
h us
h all
h ire
h ated
h int
h ollow
h ast
h ode
h tm
h ole
h amed
h ouse
h undred
h alf
h arm
h iatus
h ateful
h orizontal
i is
i as
i ation
i ec
i ogn
i ad
i ers
i ates
i age
i othe
i ably
i ety
i atives
i ased
i ery
i works
i unt
i ocr
i asm
i hi
j o
j u
j ack
j uries
j uris
k o
k ed
k ill
k ak
k ansas
l er
l ity
l ical
l ib
l ay
l ate
l am
l ary
l ant
l ays
l ost
l are
l iness
l ives
l ower
l iving
l iber
l ively
l eness
l anguage
l ery
l aps
l iable
l ogicians
l ength
l oses
l iking
l ax
l oss
l van
l oric
l iberum
l ah
l aud
m r
m ar
m ate
m il
m us
m ans
m est
m able
m el
m ish
m med
m ma
m ount
m ole
m arch
m ists
m ier
m illion
m phiboly
m ometer
m icros
m idnight
n s
n y
n os
n il
n um
n est
n ance
n ers
n arr
n ob
n oc
n amed
n ares
n ament
n arrow
n abilis
n cret
n aked
o at
o al
o il
o of
o ak
o ever
o be
o ble
o existence
o ppose
o pposes
o ins
o osing
o pposites
o ister
o ked
p g
p it
p ing
p ith
p ay
p ain
p ate
p ol
p her
p sis
p ered
p ires
p age
p odeict
p elled
p air
p els
p upil
p ulsion
p ub
p overty
r on
r in
r is
r ic
r an
r ut
r if
r act
r ality
r ous
r ose
r ict
r ise
r ink
r av
r ived
r ang
r ange
r ane
r ises
r up
r ip
r ained
r ival
r oyal
r anc
r ho
r idge
r andom
r mometer
s ic
s ical
s ink
s ine
s we
s edu
s ident
s ize
s aken
s ides
s ential
s io
s ending
s light
s cribes
s alt
s af
s ches
s oft
s pirit
s afe
t i
t s
t is
t ur
t ist
t us
t ol
t ig
t of
t uition
t ener
t ress
t ile
t ful
t ension
t ification
t ified
t itle
t ending
t itles
t ender
t ax
t otheology
u o
u es
u ed
u end
u est
u ers
u ber
u ine
u ided
u ck
u fact
v o
v il
v us
v ig
v est
v ant
v iate
v estig
v idence
v iction
v isible
v ient
v iol
v icious
v ature
v ogue
v illain
w re
w er
w ar
w ide
w ither
w hence
w arn
w arks
w anted
w rought
w atch
w ider
w inning
x es
y om
y ear
y ourselves
y ms
y rin
z es
z ing
z ed
z ard
~ ),
´ ris
Ã ©
Ã Ģ
Ã ´ris
ĉ ĠĠ
Ġ /
Ġ <
Ġ X
Ġ Ċ
Ġ iv
Ġ âĢĶ
Ġ ener
Ġ 00
Ġ xi
Ġ versa
ĸ NI
ĺ _
Ġt as
Ġt em
Ġt il
Ġt ab
Ġt uition
Ġt ac
Ġt ute
Ġt ong
Ġt ort
Ġt ied
Ġt ree
Ġt reason
Ġt ang
Ġt ween
Ġt ending
Ġt aint
Ġt ild
Ġt imid
Ġt empor
he at
he ard
he ad
he ment
he ism
he av
he ma
he alth
he aded
Ġa le
Ġa st
Ġa qu
Ġa de
Ġa ud
Ġa uth
Ġa ward
Ġa vers
Ġa erum
Ġa iothe
on or
on os
on ant
on ens
on ness
on ism
on ted
on ten
on set
on net
in er
in her
in ant
in ex
in sp
in tern
in form
in stit
in ances
in sensible
in sist
in complete
in ctive
in sensibility
in conce
in admissible
in compar
in determinate
in hering
in secure
in hab
in herence
in arium
in uating
in strum
in experienced
in structive
in itial
in determinable
in cogitable
in security
in convenience
in nabilis
Ġo ce
Ġo ption
Ġo cular
Ġthe w
Ġthe at
Ġthe istic
Ġthe ft
Ġthe osoph
Ġthe rmometer
re ce
re tr
re str
re fin
re mit
re action
re ward
re arr
re wards
re ap
re vel
re ached
re vere
re lease
re straint
re aching
re inst
re search
re pet
re taining
re volution
re jected
re miss
re prehensible
re coverably
re pulsion
it a
it at
it ly
it iv
it ical
it ter
it us
it ab
it ant
it atively
it iful
it het
it ivae
it iation
Ġof tener
is ect
is os
is ans
is io
is sed
is que
is cern
is iana
is pered
en em
en ch
en ge
en ame
en ance
en ment
en man
en ni
en ounce
en closed
en ry
en ounced
en ouncement
en ouncing
en ables
en lightened
en unciated
en cro
at om
at ant
at ers
at ag
at ism
at ived
at ern
at red
at tle
at ists
at ient
at iable
at ii
at orial
at heism
Ġw on
Ġw omen
Ġw ard
Ġw ind
Ġw ire
Ġw ast
Ġw ood
Ġw ars
Ġw rests
er or
er ve
er ies
er ious
er mon
er io
er ially
er als
er vation
er iality
er isk
Ġc ure
Ġc ul
Ġc um
Ġc el
Ġc oll
Ġc ree
Ġc over
Ġc ode
Ġc ited
Ġc row
Ġc ru
Ġc ash
Ġc overt
Ġc aring
Ġc itab
ion et
Ġs on
Ġs is
Ġs ic
Ġs ou
Ġs ar
Ġs ect
Ġs qu
Ġs and
Ġs ore
Ġs ad
Ġs can
Ġs atis
Ġs wor
Ġs che
Ġs cor
Ġs ix
Ġs eduction
Ġs well
Ġs ling
Ġs ick
Ġs ieve
Ġs atir
Ġs inner
Ġs incerity
Ġs nares
Ġp iv
Ġp il
Ġp um
Ġp all
Ġp ud
Ġp ict
Ġp op
Ġp ledge
Ġp ates
Ġp ious
Ġp ique
Ġp ick
Ġp ock
Ġp icked
Ġp iec
Ġp onens
Ġp itiful
al d
al es
al ing
al ent
al ter
al ism
al ved
al ities
al anced
al hall
ic it
ic le
ic ut
ic us
ic um
ic ide
ic ations
ic ative
ic ine
ic ule
ic acy
ic uity
ic ero
Ġin im
Ġin con
Ġin ch
Ġin ad
Ġin ca
Ġin op
Ġin ser
Ġin cogn
Ġin action
Ġin ert
Ġin consequently
Ġin ext
Ġin most
Ġin consist
Ġin consider
Ġin cess
Ġin completely
Ġin super
Ġin cul
Ġin completeness
Ġin appro
Ġin co
Ġin verse
Ġin applicable
Ġin formed
Ġin heres
Ġin access
Ġin hab
Ġin organ
Ġin sect
Ġin active
Ġin fects
Ġin efficient
Ġin gen
Ġin experienced
Ġin considerable
Ġin adequ
Ġin itial
Ġin off
Ġin imitable
Ġin cogitable
Ġin convenience
Ġin itiation
nd oubted
Ġb le
Ġb ent
Ġb os
Ġb ul
Ġb end
Ġb ide
Ġb un
Ġb oy
Ġb ast
Ġb read
Ġb ane
Ġb arr
Ġb ull
Ġb urn
Ġb ows
Ġb ungl
Ġb iog
Ġb ias
Ġb oister
Ġb itter
Ġb isect
Ġb attle
Ġb alanced
es is
es ce
es crib
es see
es pecial
es cap
es pun
es cence
es erving
Ġth in
Ġth rif
or k
or ing
or se
or as
or ld
or um
or able
or ses
or phist
or my
or ously
or ifies
or icians
or ned
or ters
or ibus
Ġto p
Ġto ll
Ġto ur
Ġto il
Ġto to
Ġto wer
Ġm ess
Ġm ad
Ġm our
Ġm other
Ġm onstr
Ġm ount
Ġm arr
Ġm ob
Ġm arch
Ġm ild
Ġm utation
Ġm erc
Ġm alle
Ġm icros
Ġm ecum
Ġm ocks
Ġm ihi
ce l
ce les
ce ased
ct ity
ct ify
ct uating
Ġf og
Ġf et
Ġf ought
Ġf ond
Ġf ost
Ġf ast
Ġf are
Ġf oun
Ġf ath
Ġf ather
Ġf ood
Ġf olly
Ġf ool
Ġf ores
Ġf ecundity
Ġf iery
Ġf oil
ing ence
ing enesis
an a
an as
an ch
an um
an ies
an tern
an ating
an arch
an atory
ed o
ed ition
ed icated
Ġn ation
Ġn ig
Ġn our
Ġn ight
Ġn ational
Ġn igh
Ġn ug
Ġn aming
Ġn aked
Ġn Ã´ris
Ġe re
Ġe is
Ġe at
Ġe ur
Ġe min
Ġe uth
Ġe ffici
Ġe get
Ġe rection
Ġe adem
Ġe lude
se a
se ar
se ld
se ated
se ven
se arched
se vered
ou ch
ou isiana
Ġis m
Ġis land
Ġis tis
Ġre i
Ġre ar
Ġre act
Ġre pr
Ġre now
Ġre form
Ġre pose
Ġre posed
Ġre cede
Ġre sem
Ġre minis
Ġre acts
Ġre prim
Ġre ctification
Ġre converted
Ġre plies
Ġre prehensible
Ġre served
Ġre versed
Ġre commencing
Ġre ctify
Ġre sear
le a
le te
le ag
le aving
le ologia
le jo
Ġit em
Ġcon st
Ġcon str
Ġcon gr
Ġcon quest
Ġcon ger
Ġcon strained
Ġcon grat
Ġcon noisseurs
Ġd ar
Ġd aw
Ġd ab
Ġd ig
Ġd ally
Ġd are
Ġd ang
Ġd atis
Ġd ra
Ġd ug
Ġd inner
Ġd edicated
Ġbe at
Ġbe ast
Ġbe ating
Ġbe atis
Ġbe think
Ġbe ckon
Ġbe fit
Ġbe ware
Ġbe held
Ġbe aten
st o
st all
st ud
st ory
st age
st ret
st ains
st ee
st amp
st umbling
st amps
st epping
st ormy
om a
om s
om it
om us
om uch
om istic
om ists
om itted
om inable
om orphist
ent er
ent ive
ent ality
ent ance
ent ers
ent ang
ent ures
ent uring
ent ient
ent angles
ent angled
ent ral
ent uck
ot a
ot o
ot ic
ot ing
ot ently
ot ives
ot omy
ot istic
ar p
ar ther
ar ment
ar ie
ar ice
ar ising
ar gue
ar ithmetic
ar cation
as y
as er
as ive
as ide
as hing
as ible
as cribe
as hed
as ym
as hes
ut a
ut ans
ut ary
ut ations
ut ability
ut ants
ut terable
ut rality
ut sches
Ġh ur
Ġh ate
Ġh anged
Ġh unt
Ġh unted
Ġh orizontal
Ġh atred
Ġh alved
Ġh orses
Ġpr imit
Ġpr ice
Ġpr ating
Ġpr ized
Ġpr ius
Ġpr hole
Ġas cribes
Ġas sem
Ġas semble
Ġas hamed
ll s
ll ess
ll ating
the st
the sis
the me
the ism
the ian
the olog
the sin
the osoph
Ġu phold
Ġu bi
iv ion
iv ation
iv ol
iv ating
iv ized
iv ided
iv ery
iv ocation
iv endi
iv abilities
im en
im us
im ality
im ination
im manent
im posed
im acy
im properly
im perfectly
im ax
im measur
im parted
im mense
ition em
ition ers
ation is
ation ary
os a
os ed
os pect
os ities
os cendi
os itionem
Ġan a
Ġan ch
Ġan gu
Ġan atom
Ġex ul
Ġex pos
Ġex cogitate
Ġex ponent
Ġex cogitating
Ġon us
Ġon wards
Ġon tology
Ġon totheology
Ġl ent
Ġl og
Ġl ad
Ġl ame
Ġl un
Ġl ived
Ġl iar
Ġl iterary
Ġl ik
Ġl ift
Ġl acks
Ġl owers
Ġl ax
Ġl oft
Ġl oved
Ġl oud
Ġl apse
Ġl aug
Ġl antern
Ġnot es
Ġnot ed
Ġnot ation
Ġnot ably
Ġnot io
Ġnot icing
Ġnot iced
pt s
pt ed
pt ure
pt uous
pt ember
pt ians
pt hs
pt oms
pt otic
pt ivating
ow a
ow ner
ess entially
Ġwe ed
Ġwe ary
Ġwe igh
Ġfor ge
Ġfor ty
Ġfor lor
Ġfor cibly
Ġfor saken
id a
id le
id ical
id able
id dy
id icule
Ġsu e
Ġsu pe
Ġsu pel
Ġsu aveolens
Ġsu icide
ib il
ib ule
ib ilia
ence ment
cept s
cept io
cept ibility
cept ivae
ter ing
ter rent
ter ror
ld ier
ir ous
ir mat
ir ks
ir reconci
ir teen
ir pate
ir recoverably
Ġwith al
Ġg ate
Ġg all
Ġg ame
Ġg one
Ġg ather
Ġg erms
Ġg aming
Ġg estic
Ġg onos
Ġg arment
Ġg iddy
th ither
th read
th rown
th irteen
ur b
ur o
ur ate
ur su
ur able
ur ring
ur ities
ur ia
ur ists
ur ope
ur rection
ur mount
ur idical
ci a
ci o
ci an
ci le
ci ples
ci pit
ci llating
ĠI S
ĠI T
ĠI mit
ĠI dent
ĠI dentity
ĠI owa
ver itable
ver bal
ver bial
qu od
qu ired
qu acious
qu ando
qu aest
og ance
og ra
og ony
res pon
res set
res olved
res urrection
ception em
ist ingu
ist inct
ist ration
ist rict
Ġor ation
Ġor gans
Ġor nament
ere t
Ġcan onic
ain e
ec k
ec ub
if old
if ici
if ting
if iable
and a
and eur
per or
per ate
per tain
per ous
per ative
per ty
per man
per forms
per formed
per ceptive
per miss
per versa
per dur
per ceptible
per severed
per ceptio
âĢ ĺ_
Ġall o
Ġall ures
Ġall ured
Ġall oyed
rom ising
ul as
ul ity
ul ary
ul are
ul atio
Ġpro xim
Ġpro ps
Ġpro pter
Ġpro claim
Ġpro posing
Ġpro jected
Ġpro verbial
em bers
em inently
em inent
em anating
pp et
Ġreason er
Ġreason ed
Ġreason ableness
Ġobject or
Ġobject ivized
ĠT od
ĠT ex
ĠT ell
ĠT wo
ĠT yp
ĠT err
ĠT ext
ĠT OR
ĠT ele
ĠT IM
ĠT rade
ĠT ABLE
ĠT enn
ve ill
ve to
ve get
con ca
con du
con joined
con strained
con join
con noisseurs
ch ant
ch ives
ch ild
ch ains
ch oose
ch arm
ch anging
ch allen
ch ican
ch loric
ch oosing
ch aser
Ġde ception
Ġde em
Ġde tain
Ġde pre
Ġde fer
Ġde ceptions
Ġde press
Ġde als
Ġde alt
Ġde parts
Ġde af
Ġde taining
Ġde bar
Ġde bat
Ġde posits
Ġde bt
Ġde lete
Ġde pths
end ure
end um
end less
end ix
end ium
end owed
end ship
ust eron
ore st
Ġint us
Ġint ol
Ġint ends
Ġint emper
ple te
ple asing
ple ading
Ġbut tress
il an
il as
il ate
il ful
il ious
il ater
act ness
act ments
act io
Ġal ive
Ġal get
hen sibilities
us al
us age
us ius
Ġha ir
Ġha zard
ill ing
ill imit
ill ains
aw e
aw ful
aw aken
aw aii
am a
am ur
am ber
am med
am und
am atic
am big
am usement
am bitious
pl ed
pl urality
pl au
Ġun i
Ġun so
Ġun com
Ġun reason
Ġun ass
Ġun wise
Ġun lu
Ġun ten
Ġun read
Ġun will
Ġun gr
Ġun att
Ġun ison
Ġun comp
Ġun think
Ġun satisf
Ġun like
Ġun adv
Ġun common
Ġun true
Ġun fit
Ġun ri
Ġun critical
Ġun mist
Ġun sus
Ġun seen
Ġun educ
Ġun concerned
Ġun hes
Ġun becom
Ġun attained
Ġun popular
Ġun holy
Ġun tou
Ġun intention
Ġun accompanied
Ġun eas
Ġun warrant
Ġun ascertain
Ġun aware
Ġun prot
Ġun worthiness
Ġun searchable
Ġun practised
Ġun supported
Ġun sought
Ġun animity
Ġun perceived
Ġun veil
Ġun prepared
Ġun righteous
Ġun happily
Ġun caused
Ġun changeably
Ġun altered
Ġun convincing
Ġun authorized
Ġun skill
Ġun cultivated
Ġun instructed
Ġun civilized
Ġun enforceability
Ġun named
Ġun instructive
Ġun utterable
Ġun changing
Ġun ilater
ab ond
ab und
ab asis
ab ilia
ab stain
ab ulary
ab ama
âĢĶ _
âĢĶ âĢĺ_
um n
um ans
um mat
um ble
um ni
um ptuously
um mate
um ping
um atism
Ġat omus
ol ve
ol ish
ol ix
ol umb
ol ta
ol aters
de ed
de tain
de ep
de ceive
de light
de velop
de grad
de jected
de posit
de veloped
de ficiency
de aling
de terrent
Ġca res
Ġ( )
Ġ( =
Ġ( ~),
ig an
ig ations
ig ably
ig uous
ig uity
ig enesis
ans ion
ans lated
ans gression
min e
min ation
min ently
min uend
min istration
Ġlaw su
Ġlaw fully
Ġlaw fulness
Ġlaw lessness
Ġlaw giving
Ġlaw yers
ies ce
Ġsp ot
Ġsp end
Ġsp ared
Ġsp acious
Ġsp elling
Ġsp inning
Ġsp aring
Ġsp rang
Ġsp atii
Ġsp eck
Ġcom ment
tr ain
tr ad
tr ays
tr action
tr aces
tr ying
tr ouble
tr ains
tr anged
tr acks
tr avag
not her
of ficial
ecess ary
est ial
est ine
Ġr an
Ġr ust
Ġr aw
Ġr ough
Ġr ous
Ġr out
Ġr ud
Ġr ays
Ġr aking
Ġr ival
Ġr ick
Ġr ouse
Ġr ock
Ġr isen
Ġr hapsod
Ġr andom
Ġr ocks
Ġem ended
Ġem power
Ġwor ms
Ġso ber
Ġso ldier
Ġother where
Ġunder go
Ġunder line
Ġunder too
Ġunder gone
stand ard
Ġdo or
Ġdo st
Ġdo ve
Ġdo cile
Ġtr ail
Ġtr ains
Ġtr ained
Ġtr ick
Ġtr illion
Ġtr amples
Ġtr ah
Ġtr ampl
Ġtr aversed
Ġtr iad
Ġtr uest
Ġsen seless
fore going
fore gone
ĠThe oretic
ĠThe oric
Ġv on
Ġv ary
Ġv ind
Ġv ult
Ġv oy
Ġv ivid
Ġv ote
Ġv indic
Ġv isions
Ġv ii
Ġv arying
Ġv otes
Ġv ider
Ġv ogue
Ġv illain
Ġv eneration
Ġv enge
Ġv ouch
Ġv arie
Ġv ivendi
Ġv illains
od ox
od eration
ĠB ose
ĠB ON
ĠB ru
ĠB ox
ĠB AC
ĠB aum
ĠB onnet
use um
use tt
Ġnecess ities
ak er
ak able
ge tic
ound ing
Ġhe w
Ġhe ard
Ġhe ark
Ġhe ap
Ġhe ars
Ġhe mmed
Ġim moral
Ġim manence
Ġim properly
Ġim prud
Ġim proving
Ġim measur
Ġim mense
Ġim probable
Ġim movable
Ġim minently
Ġper il
Ġper tain
Ġper sp
Ġper pend
Ġper missible
Ġper sec
Ġper version
Ġper verted
Ġper sever
Ġper dere
Ġper fume
Ġper juries
Ġthem e
ori an
Ġform ative
Ġform idable
Ġform ulas
Ġnat isque
Ġno et
Ġno bly
Ġno vo
Ġno ogony
pr it
pr imal
pr ior
pr ising
pr ae
pr avity
pr aises
pr olix
all er
all ation
all ibly
all oyed
Ġab use
Ġab ound
Ġab ort
Ġab ides
Ġab used
Ġab iding
Ġab lest
Ġab ounds
Ġab stain
Ġab hor
Ġab ridge
Ġab stains
Ġab ominable
Ġab olish
ad a
ad ic
ad able
ad ise
ad ays
ad ology
ad vers
ad icated
ad minis
ad orned
pir ing
Ġsy ncret
pos al
pos ses
pos sident
ever al
Ġreg ulation
Ġreg ulates
Ġreg imen
su n
su it
su es
su ff
su pre
su ited
su aveolens
Ġk ill
Ġk not
Ġk ins
Ġk ai
ind irect
ind ivid
ind emonstr
ind emonstrable
ind iscern
ind escrib
ind istingu
Ġus es
Ġus ers
Ġsh ut
Ġsh un
Ġsh ines
Ġsh ift
Ġsh oot
Ġsh rew
Ġsh rink
ant y
ant ities
ant ithetic
ant ibus
ĠF ight
ĠF ollow
ĠF ree
ĠF RE
ĠF requ
ĠF als
ĠF urther
ĠF inal
ĠF lor
ĠF ailing
ĠF ranc
ĠF onten
ĠF arther
ff ing
actical ly
out ly
out ward
ph istic
ph arm
ph antom
ph aenomena
Ġcogn ate
Ġcogn ised
Ġcogn itable
Ġcogn izable
Ġcogn oscendi
art ifices
Ġse as
Ġse ated
Ġse ize
Ġse lected
Ġse verest
Ġse vered
ex pon
ex pose
ex poses
ex ceptions
ex ico
ex ponent
ex actness
ex travag
ud ence
Ġphenomen ized
Ġphenomen ization
Ġqu am
Ġqu od
Ġqu oted
Ġqu ibus
Ġqu ando
Ġqu een
Ġrel ie
Ġrel ish
Ġrel inqu
Ġrel iance
Ġrel ativ
Ġrel ax
Ġrel apse
Ġst ar
Ġst em
Ġst ag
Ġst ating
Ġst atis
Ġst up
Ġst ood
Ġst ret
Ġst ock
Ġst ories
Ġst ationary
Ġst umble
Ġst outly
Ġev asion
Ġev asions
Ġev ading
Ġev olved
Ġev oked
Ġev asive
Ġev olve
ord ain
ord ant
present ly
Ġmor ose
Ġmor tification
wh ilst
wh ispered
Ġcons ole
Ġcons cient
Ġcons erv
Ġcons onant
Ġcons ervation
Ġcons ummate
ĠA ve
ĠA RE
ĠA way
ĠA lex
ĠA PPENDIX
ĠA MPH
ĠA XIOM
ĠA greement
ĠA mphiboly
ĠA podeict
ĠA nother
Ġj oy
Ġj unction
Ġj oc
Ġj oined
Ġj ury
Ġj eal
Ġj ew
Ġj uridical
Ġj umping
our able
our ces
our aging
Ġnature s
Ġacc use
Ġacc oun
Ġacc using
Ġacc idens
ac ute
ac op
ac knowledge
ac erv
ac ademical
ac quired
Ġman ual
Ġman ners
Ġman ufact
one ously
Ġapp ended
Ġapp ointment
Ġapp ositionem
Ġtheir s
sequ ent
ca ptivating
Ġad mis
Ġad verse
Ġad hering
Ġad herence
Ġad minis
Ġad monition
Ġad junct
Ġad ministration
for bid
for get
for sakes
for tified
ĠFor bidden
nthe sis
ĠP ut
ĠP ay
ĠP ha
ĠP oint
ĠP ne
ĠP ower
ĠP ages
ĠP lat
ĠP lain
ĠP OP
ĠP enn
ĠP ossession
ĠP ursu
Ġdis use
Ġdis sol
Ġdis pose
Ġdis arr
Ġdis sim
Ġdis may
Ġdis like
Ġdis content
Ġdis conc
Ġdis solution
Ġdis regarding
Ġdis clos
Ġdis eng
Ġdis proved
Ġdis closed
Ġdis figure
Ġdis hon
Ġdis agreement
Ġdis proportion
Ġdis favour
Ġdis close
Ġdis united
Ġdis proving
Ġdis miss
Ġdis ease
Ġdis join
Ġdis allowed
Ġdis union
Ġdis agreeableness
Ġdis involved
Ġdis qui
Ġdis plays
Ġdis grace
Ġdis agreeable
Ġdis inher
Ġdis ciples
Ġdis posal
to ld
un o
un ary
un cor
un connected
un inter
un pleasant
un fit
un essential
un mixed
un exception
un yield
un recogn
un happy
un fold
un usual
un influenced
un attempted
un pleasantness
un yielding
un animity
un veil
un selfish
un righteous
un changeably
un altered
un profitable
un authorized
un fruitful
un enforceability
un broken
un fair
un safe
un alloyed
un suited
so vereign
Ġworld ly
et e
et ing
et ates
et ites
et uous
et amorph
Ġpre y
Ġpre ception
Ġpre determined
Ġpre conceived
Ġpre posit
Ġpre fixed
Ġpre dile
Ġpre fix
Ġpre lude
Ġpre decess
Ġpre mier
Ġpre cipit
here in
here with
here nt
here after
ment ary
ĠTh ou
ĠTh ree
ĠTh ousand
Ġpart isans
Ġpart icle
Ġpart aker
str ive
str iving
str aight
te acher
te lling
te leologia
te lls
Ġch at
Ġch ose
Ġch art
Ġch ase
Ġch air
Ġch ican
Ġle af
Ġle vity
ener gizing
ener getic
Ġmoral ist
Ġmoral ized
sp it
sp end
sp ite
sp arks
sp oke
tern itas
ces ilas
Ġar med
Ġar bit
Ġar my
Ġar mist
Ġar cs
Ġar chives
sis mus
ĠS he
ĠS ens
ĠS pect
ĠS mall
ĠS oph
ĠS IM
ĠS ocr
ĠS ections
ĠS ulzer
ĠS ource
ĠS etting
ĠS YSTEM
ĠS PACE
ĠS kill
ĠS everal
Ġph this
Ġph aenomena
sol ar
sol ip
ress ing
ress ions
el an
el le
el ater
el abor
el ucid
el ench
ĠN on
ĠN il
ĠN ev
ĠN umber
ĠN ames
ĠN ecessary
ens ate
ens oribus
ens urate
fin e
fin al
fin ished
fin itude
fin itions
fin iteness
fin espun
Ġsub sequently
Ġsub ser
Ġsub serve
Ġsub joined
Ġsub scribe
Ġsub verted
Ġsub tlest
Ġsub reption
Ġsub altern
Ġsub tile
Ġma zes
op oly
op ening
pre condition
pre ference
pre mis
pre formation
pre jud
pre determine
pre conceived
pre limin
pre liminary
pre cision
pre rogative
pre miss
ĠO ut
ĠO ther
ĠO pposition
ĠO reg
ĠO pposed
ĠO hio
ĠO BJECTIVE
ĠO bservation
ĠO UGHT
ĠO bvious
ĠO perative
int ed
int end
int imate
int estine
Ġser ially
Ġser vant
imit s
imit ative
mat ron
mat eriality
solute ly
Ġne fas
Ġne utrality
ag ent
ag ation
ag ination
ag ious
ag matical
ag oras
ag mentary
nect icut
Ġfar thest
ĠIn herence
ĠIn telligence
ĠIn cert
ĠIn vestig
Ġpresent able
be o
be quest
be gun
be trays
iz ations
Ġcaus ed
Ġcaus as
Ġcomple tes
Ġcomple mental
Ġpl ate
Ġpl ant
Ġpl ast
Ġpl ants
Ġbel oved
Ġcont ext
Ġcont ested
Ġcont iguous
Ġcont agious
ort s
ĠG ive
ĠG ute
ĠG AL
ĠG OD
ĠG aining
ĠG ENERAL
ĠG eometry
ĠG eorg
ĠG oal
ĠG uided
ĠW ere
ĠW ise
ĠW OL
ĠW erke
ĠW oh
ĠW yom
ĠW alhall
ĠW orld
ĠW ashing
Ġend ure
Ġend anger
ost atic
ost ensive
ploy ee
Ġgr ace
Ġgr av
Ġgr ants
Ġcontr ive
The tic
The ology
rit us
rit ory
ign ant
ign ia
ign ava
ĠC oun
ĠC lear
ĠC ap
ĠC OP
ĠC AT
ĠC ogito
ĠC ynics
ĠC oexistence
ĠC icero
ĠC entral
ĠC olumb
ast ly
ast ical
me asure
ivers ity
Ġass ists
Ġass ault
Ġob edient
Ġob tus
Ġob viate
Ġdes pond
Ġdes cribing
Ġdes ider
Ġdes irous
Ġdes perate
Ġfound ations
form able
form arum
Ġpos ed
Ġpos se
Ġdist ances
Ġdist urb
Ġcomm it
Ġcomm its
Ġcomm ended
Ġcomm ends
Ġcomm ensurate
ism a
old s
Ġshould st
Ġshould ers
Ġfollow er
ari ably
Ġemploy ments
com mit
com pose
com part
com posed
com ply
com posit
com positio
com formable
pro xim
spect ion
spect acle
Ġrational istic
ish ables
Ġrespect ed
Ġrespect ability
ro ot
ro od
ro ad
ro bor
ro amatic
Ġpur a
Ġpur se
Ġpur posed
Ġpur ify
Ġpur port
Ġpur poseless
ici i
with hold
Ġrem orse
Ġdisc ard
Ġdisc overer
Ġdisc ursively
Ġdisc ouraging
Ġinde bted
Ġinde fat
ach usett
ink s
ine ar
ine fficient
Ġexam ines
Ġexam ining
ĠH err
ĠH ob
ĠH ave
ĠH oly
ĠH oliness
ĠH ope
ĠH aving
ĠH OP
ĠH utcheson
ĠH onor
ĠH enry
ĠH ecub
ĠH awaii
ĠH umans
ĠH aller
der ives
der ivation
Ġhapp ier
âĢĿ ?
âĢĿ âĢĶâĢľ
Ġfe ared
Ġfe ature
Ġfe asibility
Ġfe asible
Ġext ant
Ġext rem
Ġext ensions
Ġext remit
Ġext irpate
Ġext orts
Ġact um
xim ately
Ġorder ly
Ġag endum
over come
over turn
over powers
over bor
over sies
Ġground work
under take
under value
under mine
less ly
Ġsci re
Ġunivers itas
par able
par ison
par aded
par allel
par simony
par oxysms
med iating
Ġen light
Ġen clos
Ġen coun
Ġen counter
Ġen semble
Ġen acted
Ġen ouncing
Ġen unciated
Ġen cod
Ġen ric
Ġen actments
Ġen sues
stit utes
Ġeffect ual
ĠR ight
ĠR ules
ĠR ather
ĠR ATION
ĠR esult
ĠR hode
ĠR idicule
ell ipse
Ġpres cription
ĠE t
ĠE ternal
ĠE ffect
ĠE lectronic
ĠE duc
ĠE gy
ĠE MP
ĠE lea
ĠE sto
ĠE urope
Ġout look
Ġout bre
Ġexp ends
Ġexp ounded
Ġexp anded
Ġexp ansion
wo e
Ġmaxim a
Ġquestion ed
Ġquestion able
ophy sical
Ġhuman ly
Ġpossess or
Ġter ror
Ġter restr
Ġter mination
Ġter ritory
reason ed
reason ably
ke y
Ġreal m
Ġreal ist
Ġreal issim
Ġreal itas
Ġreal itatis
ty pic
rough ness
sy non
sy llogistic
sy lvan
Ġappl ause
Ġappl ications
ear th
ear ning
Ġmind ed
Ġam ple
Ġam iable
Ġam az
Ġam putation
Ġam usement
Ġam bitious
Ġperfect s
Ġperfect ibility
ser ious
ser ving
Ġcrit ics
Ġcrit ically
av ish
Ġsim ul
Ġsim ultaneity
Ġatt ending
Ġatt aches
Ġatt ested
Ġatt entive
Ġmat urity
Ġmat hema
Ġmat erially
sen ess
phys ically
phys ica
edu ces
ceed ing
ĠD ev
ĠD ynam
ĠD ialectical
ĠD atur
ĠD emonstr
ĠD ifferent
ĠD iog
ĠD istrict
Ġbas es
). "
). [
Ġsec ured
ble matical
hemat a
ident ial
Ġsensuous ness
Ġimp el
Ġimp utes
Ġimp uted
Ġimp uting
Ġimp ug
Ġimp utable
Ġimp els
Ġimp etus
Ġimp iety
Ġimp atient
Ġimp eret
cons in
cons ilia
cons entient
cons ummat
ass on
ass ure
ass ification
ass ures
ass ured
ass achusett
Ġent is
Ġent ia
Ġent angles
Ġent reating
Ġent hus
cogn itive
cogn itio
Ġorigin arium
Ġorigin arius
Ġcor ner
Ġcor rel
Ġcor relates
Ġcor pus
Ġcor robor
ular ly
Th ree
Th ales
Ġinv ites
Ġinv iting
Ġinv inc
Ġinv ested
Ġinv ariably
ice berg
there d
there on
there with
there from
Ġpoint ing
Ġpoint ed
Ġhere dit
Ġhere tof
Ġnatural is
Ġnatural ist
Ġnatural istic
Ġnatural ists
necess itates
necess itat
Ġshow er
ange lical
Ġuniversal itas
Ġinf use
Ġinf ers
Ġinf lu
Ġinf lict
Ġinf using
Ġinf lam
Ġbet ake
Ġbet imes
can o
Ġexpl icative
Ġexpl anatory
ner vus
Ġsens itiv
Ġrequire st
Ġintellig ently
Ġintellig ibilia
Ġquant itas
ĠRe al
ĠRe ven
ĠRe public
ĠRe quire
ĠRe flection
ĠRe adable
Ġkind red
Ġmanifold ness
Ġnor mal
ĠM S
ĠM en
ĠM ight
ĠM ON
ĠM ont
ĠM air
ĠM ED
ĠM OD
ĠM AD
ĠM oh
ĠM otives
ĠM aine
ĠM ilan
ĠM oderation
ĠM useum
ĠM exico
ĠM etamorph
ĠM elan
ĠM assachusett
Ġhand ed
Ġhand iworks
ught s
ys ics
Ġap ology
Ġap olog
Ġwhere on
Ġwhere ver
Ġwhere of
Ġwhere upon
Ġcharacter ize
Ġcharacter ization
Ġconc ert
Ġconc aten
Ġconc ordant
Ġdem ur
Ġdem urred
Ġdem arcation
Ġstr ife
Ġstr anger
Ġstr ik
Ġstr iking
Ġstr ipped
Ġstr atag
ccess ion
phenomen ization
Ġrest ores
Ġrest oring
Ġanaly zed
othe ism
ingu ishable
Ġref uge
Ġref rained
Ġref utations
Ġref usal
Ġdiv est
Ġdiv iding
Ġdiv erted
Ġdiv inity
Ġsum mit
Ġind ustr
Ġind ulg
Ġind istinct
Ġind ignant
Ġnotion al
Ġdedu cible
Ġcomp ute
Ġcomp ressed
Ġcomp iled
Ġcomp anies
Ġcomp endium
Ġadv ises
Ġadv ocate
Ġadv entures
Ġcontradict ed
Ġcontradict ories
Ġfree zing
Ġsupreme ly
app arent
app lying
app eal
app ointed
app etites
Ġconcl usio
Ġconcl usiveness
ev iating
ev angelical
ĠL ake
ĠL ove
ĠL eg
ĠL imitation
ĠL AW
ĠL LC
ĠL aert
ĠL ouisiana
ĠL amber
ĠL imits
ĠL astly
ĠL earning
reg ion
reg ions
reg ulating
reg ister
reg num
reg ularly
Ġtruth ful
Ġtruth fully
Ġremain der
Ġremain ders
Ġmost ly
Ġdec ade
Ġdec ry
ER UM
ER NIC
contr ol
contr action
contr acted
contr oversies
Ġmet amorph
ious ness
Ġ1 000
Ġ1 15
Ġ1 13
Ġ1 40
Ġ1 10
Ġ1 45
Ġres ort
Ġres pond
Ġres ists
Ġres ource
Ġres cue
Ġres ources
fic ence
und iminished
und eter
Ġsupp lant
Ġsupp orters
Ġpredic ata
Ġexpress ive
lear nt
Ġconsist ed
Ġconsist ence
Ġphys ic
Ġphys iological
Ġphys iogn
Ġcontent less
ĠU s
ĠU bel
ĠU NITY
ĠU ta
ĠU NUM
ĠU ndoubted
Ġnow ise
Ġnow adays
intuition al
Ġtot um
irm ative
Ġill imitable
Ġconf use
Ġconf luence
Ġconf uted
Ġconf uting
Ġconf utation
Ġconf ront
Ġmathemat a
Ġmathemat ic
pend ant
represent able
represent atio
Ġmot to
Ġaff ixed
Ġaff irmat
Ġconcept as
In finite
In corrupt
In experienced
In noc
In tending
Ġhypothe sin
acc ustom
acc idens
Ġcl ay
Ġcl oak
Ġcl imax
Ġproble matic
ĠOn tology
ĠCon sid
ĠCon stitution
ĠCon fusion
ĠCon viction
ĠCon necticut
Ġsatisf actions
ath y
Ġconform ing
Ġconform ability
rel ating
rel inqu
Ġsuccess ions
Ġsuccess ors
wor se
Ġworth less
Ġstand still
raph ies
Ġple ased
Ġup per
read er
read ers
read ily
Ġright ful
Ġocc ult
dis appear
dis like
dis content
dis claim
dis connected
dis pleasure
dis solution
dis regarded
dis regarding
dis appearance
dis figure
dis claims
dis continue
dis plays
dis sert
dis appeared
dis secting
,âĢĿ [
law giver
Ġder iving
Ġconcern ment
Ġimag ined
Ġimag ines
Ġimag ining
sub mit
sub mitted
sub div
sub species
sub serve
sub rept
sub ordination
sub tlest
sub reption
sub traction
sub sequent
sub stitutes
Ġleg is
Ġleg ion
Ġleg acy
Ġleg ibus
opher s
ique Sol
che ck
che cks
che mist
Ġel uded
Ġel angu
Ġel icited
Ġel icit
Ġel imination
Ġconsequ ens
Ġconsequ ential
avour able
Ġmetaphys ician
TI TY
trib unal
Ġparticular ize
Ġneed y
mon ogram
mon opoly
Ġmod ify
Ġfur thered
Ġnum bered
Ġac id
Ġac ademical
Ġac roamatic
Ġwant onness
ention alism
Ġgu est
Ġindic ations
hence forward
ĠĠĠĠĠĠĠĠĠĠĠĠĠĠĠĠĠĠĠĠĠĠĠĠ ĠĠĠĠĠ
err oneously
Ġfin ish
Ġfin itude
Ġneg atives
Ġneg atio
Ġneg lected
Ġmain ly
cont iguity
subject ing
come ts
mis conceptions
mis appre
mis chievous
oubt ingly
Ġlogic arum
Ġmethod ically
Ġcommand ments
pect s
Ġmean ness
Ġmean while
Ġvirt uously
Ġphysical ly
isl and
ific ed
ific ial
do cs
part ies
Ġbelie ving
Ġimport unity
ps es
Ġhence forward
Ġmen ace
Ġdog s
ĠTH OU
transcendental is
go at
Ġnon entities
Ġant ip
Ġant agon
Ġlong ings
ogress ively
Ġspeci erum
Ġspeci osa
Ġover gr
Ġover take
Ġover bal
Ġover sight
Ġover fl
Ġover takes
Ġover charge
Ġover tur
Ġover thrown
arr anged
arr ogance
Ġhold est
Ġanswer able
Ġsol ar
Ġsol us
Ġsol utions
Ġequ ity
Ġequ ations
Ġequ ivocal
Ġequ ivocation
Ġideal e
nature d
mor row
Ġco here
Ġco ars
Ġco heres
Ġco hering
Ġco erce
Ġpost hum
Ġpost erio
Ġexcept ing
Ġless en
Ġless ens
Ġformal iter
ĠPr ior
ĠPr ofessor
ĠPr imacy
ĠPr agmatical
ĠSu ccession
dom ain
Ġbound ed
Ġbound ary
Ġcontin ent
Ġcontin ents
Ġcosm otheology
Ġcosm icus
Ġprev ention
Ġprev alent
will ingly
Ġher ald
Ġdoubt ing
Ġdoubt less
Ġpleasure s
ail able
Ġident atis
Ġident itas
Ġinst ability
Ġinst antly
Ġinst inctive
Ġinst igations
Ġdialect ics
Ġdialect ically
Ġdialect icians
Ġdialect ician
Ġhar ass
Ġprov able
Ġprov idential
Ġpass age
Ġpass io
Ġpass ively
Ġpreced ence
Ġargument ation
Ġargument um
Ġess endi
Ġden ial
Ġden ounce
Ġden oted
ĠAs k
ĠAs soci
ĠAs sert
Ġappre ciate
Ġmaterial e
Ġmaterial ist
Ġmis used
Ġmis employment
Ġmis fortun
Ġmis application
Ġmis apprehension
Ġmis ery
Ġmis conceived
Ġmis understand
Ġmis carr
Ġmis chievous
Ġprogress es
Ġprogress ive
Ġprogress ively
Ġgener is
Ġgener ic
Ġgener ate
Ġgener ating
Ġoblig ations
Ġoblig andi
Ġoblig antibus
Ġbeginning s
Ġprom ised
Ġprom inently
Ġprom pted
Ġallow ing
Ġvari ation
Ġvari ations
Ġvari eties
Ġvari etates
ties t
Ġfall ible
Ġsuper added
Ġsuper fici
Ġsuper ann
Ġsuper sensual
Ġsuper subtle
Ġimperative ly
dist ance
dist ract
gr uity
gr oss
gr oping
gr image
gr andeur
Ġpeculiar ly
Ġlegisl ators
.âĢĿ âĢĶ
Ġut ters
Ġaw ful
Ġfal seness
For mal
ĠAn ne
ĠAn nihil
ĠAn ax
ĠAn imality
dif fers
oc ritus
ave lled
sim ultaneity
Ġes tranged
Ġharmon izing
bl ock
Ġcirc ulate
some one
ull ed
ull itions
strict ly
strict est
Ġcontingent ia
ne y
ne ighbour
Ġbr other
Ġbr igh
what soever
ĠY ear
ĠY ork
Ġconj oins
Ġund a
Ġund o
Ġund emonstr
Ġund iminished
Ġund eserving
Ġund ivided
Ġund eviating
Ġund oubtingly
Ġfurther s
right s
right ful
right fully
Ġav ow
Ġav owed
Ġav arice
moral ists
RE ASON
RE FUT
RE MARK
Ġsing ly
Ġsing ulare
Ġvol o
Ġvol unteer
Ġvol cano
Ġintellectual ists
cor ner
cor relate
cor ruption
Ġtreat ises
philos oph
Ġjud icii
les ome
lar ge
sist ence
sist ency
erse y
Ġintr ude
Ġintr usive
Ġintr ospect
Ġspring ing
ignor ant
disc ord
disc redit
disc overer
disc ursively
Ġconv ulsion
consid ers
Ġcorrect s
Ġcorrect ed
Ġpret ty
Ġpret ences
Ġpret ends
Ġpret ending
Ġdistrib utor
ck er
ck ily
limit less
nt ial
inde xes
ĠHe teronomy
ĠHe aven
sensuous ness
All ow
All heit
All gem
fer re
Ġpar ading
Ġpar oxysms
Ġpar cel
Ġpar adise
Ġcriticism s
Ġinfer ior
br ief
br utum
br aska
br idle
Ġignor ing
Ġignor atio
Ġauthor itatively
Ġdeterminate ly
EC TION
ood less
where in
where fore
world s
Ġcontinu a
Ġcontinu i
Ġcontinu ation
Ġcontinu ations
no olog
sh ut
sh ore
sh ield
sh arp
sh ifting
Ġmed ical
Ġmed itate
Ġmed dle
Ġmed ley
Ġmed itating
Ġmed iates
Ġmed icine
Ġmoment ary
ech ism
Ġcompar ationis
ĠUn ion
ĠUn question
ĠUn iversity
ap pertains
ap pertain
pres sible
pres cribe
pres umption
pres cribing
pres erving
pres erve
pres umptuously
pens ated
rational istic
Ġinfin itude
Ġinfin itus
des erted
des pot
des iring
des cribing
des pair
Ġfield s
Ġexhib iting
Ġtrans form
Ġtrans ference
Ġtrans formation
ĠEx planation
Ġseek est
intellig entia
intellig ibilis
IS M
IS TENCE
just ly
Ġpain t
Ġpain ters
Ġrecogn izing
Ġrecogn izable
Ġexcl usions
Ġprof itable
Ġcomb ative
Ġcomb ining
bel ow
pur ity
pur poseless
pur chaser
Ġins ured
Ġins incerity
Ġins inuating
Ġins atiable
Ġins urmount
Ġins ensate
Ġfr actions
Ġfr ug
Ġfr aming
Ġfr atern
Ġfr ivol
Ġfr agmentary
Ġdesign ations
Ġanteced ens
fe res
fe asibility
Ġtranscendent ly
Ġabstract s
Ġcosmological ly
general ness
Ġ3 000
Ġ3 8655
rem ember
rem oval
rem embered
rem embers
leg es
leg itim
Ġsur passing
Ġsur mise
Ġsur faces
Ġsur moun
Ġsur gical
Ġsur veill
Ġcompre hens
Ġcompre hensibility
ĠAr ithmet
ĠAr kansas
ĠAr rived
ĠAr tist
Ġpursu its
igh s
incl uded
Ġpsych olog
Ġbl ow
Ġbl end
Ġbl ows
Ġbl oodless
respect ively
Ġdel uding
Ġdel udes
Ġdel iverance
Ġdel ivery
Ġke ys
Ġapodeict ical
Ġintrodu ctory
att end
att ending
att aches
att aching
Ġfore ver
Ġfore go
Ġfore thought
Ġfore seen
Ġfore stall
Ġkingdom s
Ġstates man
Ġappro ves
Ġappro ving
Ġappro ached
Ġappro aching
Ġappro bations
comm only
comm encement
system a
system s
system atical
Ġmanifest ed
Ġmanifest ly
Ġmanifest ation
Ġche ated
Ġche ats
separ ation
separ ated
separ ating
separ ately
ĠSp inozism
Ġcircum scribe
Ġcircum scribed
Ġcircum scribes
Ġcircum spection
sum ma
Ġ5 2
ĠV oid
ĠV au
ĠV irtue
ĠV olunteers
ĠV irginia
ĠV ermon
ĠV olta
ĠV ERUM
Ġorgan izations
produ cing
Ġlet s
Ġlet ting
Ġagree ing
consist ence
Ġindividual s
Ġsignific ant
Ġpostul atum
IN CIPLES
IN CLUDING
ĠJ urists
ĠJ uno
ĠJ ersey
Ġear s
Ġline ar
employ s
univers itas
Ġvolition s
ĠK ingdom
ĠK ansas
ĠK entuck
Ġtest is
Ġtest ing
inv iol
inv alid
Ġcreat es
Ġcreat ors
quant i
quant um
quant itative
quant itatis
quant orum
perfect ions
perfect issimum
Ġcare lessly
Ġro of
Ġsepar ations
speculative ly
Ġvarious ly
distingu ishes
Ġoff ended
Ġoff spring
Ġdisp uted
Ġdisp elled
Ġdisp assion
Ġdisp utants
mathemat ic
mathemat ically
Ġuseful ness
comp el
comp ass
comp etent
comp ulsion
comp assion
comp ete
ĠRE FL
ĠRE LATION
ren ounce
Ġfa de
Ġfa cia
Ġaccept able
Ġacqu ires
Ġacqu iesce
Every body
TH IS
TH IRD
cogit ation
cogit ates
div ine
div inity
div isions
div ested
Ġcre de
Ġge ogra
Ġgen esis
possess or
possess ing
possess ed
Ġadopt s
ven ing
ven ged
ins ured
ins omuch
ins piring
ins ignia
Ġopp ortunities
Ġfavour s
Ġfavour ing
Ġgain er
conf ront
conf ounding
Ġsimilar ities
?âĢĿ âĢĶ
CE LLI
cre ation
cre ate
press es
tot o
Ġens ured
Ġsc ru
Ġsc ope
Ġsc rup
Ġsc anty
Ġlight en
Ġlight ly
Ġsure r
Ġdeser ved
Ġoccasion al
Ġdogmat izing
presu pposing
Ġschool man
question es
Ġed it
Ġed ited
Ġed ifying
Ġforth with
Ġdestroy s
Ġta uro
Ġinter fered
Ġinter course
Ġinter rupted
Ġinter secting
Ġinter feres
Ġinter vening
Ġconver se
Ġconver sio
Ġreflection s
Ġconstruction s
should ers
belong ed
Ġkeep s
ĠÃ Ģ
Ġold er
Ġold est
origin ate
Ġmechan ics
analy sing
analy sation
Ġdom estic
Ġdom inant
Ġannihil ation
than k
conform s
conform ing
conform ed
Ġmag ical
predic able
Ġcomparison s
purpose ly
sc rut
sc hemata
real ize
real izes
Ġredu ction
Ġredu ces
Ġdown ward
Ġdown wards
Ġdown fall
Ġtransc ended
success ions
ĠAN TIC
content ed
demonstr able
demonstr ates
demonstr ating
far ther
gu ide
gu ided
gu iding
gu arante
imin al
Ġdef ences
Ġdef ended
Ġdef ensive
Ġdef ensoribus
Ġadm ired
Ġadm ixt
Ġadm oto
ĠWith in
crit ically
great ly
non entity
non entities
when ever
Ġtal ks
ret reat
ret urn
Ġbor n
Ġfan atical
Ġpriv ation
Ġprob ity
Ġprob andi
Ġart ist
Ġart istic
Ġart ists
Ġart ifices
Ġart ifici
Ġart ificial
Ġplain er
Ġplain est
prov ide
prov ision
prov ides
Ġfear fully
Ġclass ification
correspond ence
discover ies
universal itas
OR IES
Re ality
Re flection
Re futation
Re alities
since re
Ġ9 1
Ġ9 3
Ġ9 4
Ġ9 6
Ġ9 7
Ġ9 8
Ġ9 000
Ġsever ity
Ġfail s
Ġfail ure
Ġdivers a
Ġdivers ified
Ġsophist s
Ġsophist ry
adv antages
adv ocate
adv enturing
compre hension
Ġprevent ing
Ġopen ing
Ġopen ly
Ġanalog ously
investig ate
investig ated
den y
den ies
Ġsk ilful
Ġpublic ly
Ġback ward
Ġfour fold
ĠIm materiality
ĠIm agination
ĠPro cess
ĠPro positions
ĠPro vidence
ĠPro perty
ĠPro ceeding
Ġplan et
Ġassign ing
Ġstandard s
Ġabsurd ities
Su btr
apt ation
apt itudes
lat er
lat ent
lat est
occ urs
occ asions
Ġir ref
attain ment
Ġwrit ers
Ġrec urs
Ġrec urring
Ġconfin es
Ġhum bly
Ġpract ise
Ġpract itioners
through out
Ġprocess ion
Ġprocess ors
ĠAt qui
ĠAt omistic
Ġchain s
claim ants
ĠOR IGIN
struct ure
particular ity
Wh ich
Wh oever
mot us
turn s
uit ously
Ġturn ed
Ġturn spit
ater al
Ġsa ves
Ġsa fer
Ġsent ences
Ġbene ath
Ġdata e
Ġweight iest
truth s
truth ful
truth fulness
Ġstud ied
Ġcontrib uted
Ġobsc urities
proceed ed
Ġafford ed
Ġelev ate
Ġelev ations
Ġdomain s
Ġborrow s
Ġmajor ity
Pr of
Pr udence
look ing
post erity
post poned
post pone
ug nance
Ġaxiom atic
inf it
inf lex
inf allibly
rest ing
rest ed
Ġmist ress
ustr ation
play ed
Ġperform ances
before hand
Ġpreser ver
Ġpreser ving
Ġproduction s
ĠDe ceived
ĠDe fects
ĠDe ficiency
ĠDe gree
ĠDe utsches
ĠDe finitions
TIC ULAR
contin uity
Ġearth ly
ED OM
draw s
Ġpay able
Ġpay ment
stant iality
Ġgl ad
Ġgl ances
Ġgl orifies
Ġproport ions
Ġintention al
Ġcap abilities
mind ed
Ġnecessit as
Ġnecessit ating
Ġqual ifies
Ġqual ifying
Ġsubsum ing
Ġsubsum ptions
Ġeng age
Ġeng ages
Ġeng agement
conting ently
.) [
As k
_. âĢĻ
aff ord
aff irmed
aff air
Ġcr ied
Ġcr ush
Ġcr iminal
Ġfit test
consequ ent
indic es
indic ations
indic ative
expect ing
expect ation
ĠPRO VIDED
Ġsubl unary
Ġaggreg ated
Ġaggreg ates
Ġestim able
Ġreflect ive
neg atively
neg atived
Ġproportion ately
ae que
ae ternitas
you th
Ġpopular ly
Ġreturn ed
Ġexc iting
Ġhabit a
Ġhabit ual
Ġhabit ually
super natural
super human
Ġshort en
Ġshort ness
Ġdisappear ance
Ġfew er
Ġextensive ly
appre ciate
Ġguard ians
Ġinquire r
Ġinquire rs
feel s
Ġcheck ing
Ġcheck ed
." ]
ST UL
ST AND
gl imp
human ae
ik lejo
Ġcal oric
Ġcal umni
Ġbad ly
Ġbad ness
Ġbold est
Ġbold ness
Ġren ouncing
Ġbeh oof
asser ted
Ġpros cribed
imp elled
imp els
imp etus
imp otently
imp etuous
Ġexec utes
Ġexec utive
Ġextr action
Ġextr aneous
Ġextr aneously
Ġextr acted
Ġextr amund
Ġdev ises
Ġdev ised
Ġdev iating
Ġdev oting
plic anda
umer able
Ġpersu ading
Ġcausal itatis
Ġendless ness
Ġenjoy s
Ġenjoy ed
ĠEm peror
conscious ly
Ġpromot ed
Ġavail ing
Con junction
Con sciousness
Con sistency
found s
found ations
sign s
sign ify
vol unteer
Ġ6 000
Ġ7 8
Ġ7 50
Ġtw ice
ref use
ref lect
ref und
ref utation
ref lective
ref lected
ref lex
Ġwond ers
Ġwond rous
Ġbu ys
Ġbu yers
ank ly
imag inary
imag inable
imag inarium
Ġsuggest ing
Ġsuggest ive
Ġheav ens
Ġaccord ed
fortun ately
Ġplay ed
Ġderiv ativ
Ġspecif y
Ġexperiment ing
Ġexperiment ed
Ġsafe guard
IR ICAL
OG IES
PL E
PR INCIPLES
dog ma
find ing
logical ly
pass es
pass age
scept ical
scept ics
view s
view ed
Ġmin ute
Ġmin erals
second ary
Ġlist ing
Ġlist ed
Ġlist ener
Ġlist ens
Ġlist ened
Ġweak er
Ġweak ens
deg rade
Ġcharge able
ĠNO THING
ĠNot ions
ĠNot withstanding
pret end
pret ension
pret ended
Ġgrad ations
proble m
ĠEvery where
Ġesteem s
Ġesteem ing
Ġillustr ative
Ġillustr ated
Ġillustr ates
Ġconfess es
Ġconfess ing
Ġfinal is
intellectual is
Ġconvin ces
Ġtransgress ed
Ġtransgress ions
equ itable
equ als
equ ivocal
fact itious
pot entially
show s
tal ks
tal ents
inst inct
inst abilis
inst illing
inter change
inter vention
inter changed
inter preted
inter pol
Ġrep el
Ġrep elled
Ġrep aired
Ġrep etition
Ġrep entance
Ġrep utans
Ġrep ugnance
Ġhind ered
Ġprot est
Ġprot ection
Ġprot uber
Ġfortun ately
Ġfortun ae
conv ince
conv ictions
conv entionalism
Ġcompl ain
establ ishes
establ ishment
Ġmeasure s
Ġvan ishing
Ġimit ative
Ġperi uria
positive ly
supp lies
Ġaddu ces
preced ed
ĠInt ensive
ĠWh ich
ĠWh ile
Ġsubstant iate
Ġsubstant iality
ĠDis junctive
ĠDis pute
Ġ15 0
Ġ15 5
Ġconfirm ations
Ġanticip ates
Ġanticip atory
Ġ20 16
Ġ20 13
Ġ20 20
distinction s
Ġprofound ly
Ġpsychological ly
ĠKant ian
IL EI
direct or
doubt s
doubt ing
doubt fulness
fall ing
fall acious
restrict s
restrict ions
Ġwar mest
Ġsound ness
Ġpat ience
Ġpat ched
Ġpat ches
Ġinj ure
Ġinj ured
Ġdur able
Ġhyp ophysical
Ġforbid ding
Ġsuff ice
Ġsuff icing
Ġsuff iced
among st
Ġattr active
Ġattr acted
Ġsym ptoms
except ing
except ivae
Ġstart ing
Ġstart le
Ġstart les
Ġstart ling
Ġprejud ge
ĠCON CLUSION
Ġcommun is
Ġcommun ion
Ġcommun ities
Ġcommun io
Ġcommun icate
work ing
Ġfruit fulness
Ġfruit lessness
Ġadmir ing
rupt ible
Ġminor ity
An alytical
An cient
cul pable
cul prit
dec ision
dec ides
dec ried
dec lare
Ġ0 1
Ġ0 2
Ġtast es
Ġcle ver
Ġcle ment
Ġcle aves
Ġcle aving
Ġcur o
Ġcur ta
Ġcur vil
lead ing
Ġdict et
Ġhy dro
Ġsusp ension
ĠIN CIDENTAL
ĠIN TU
Ġord aining
Ġord inances
ift ness
Ġobjection able
trans form
trans fer
trans gress
trans fers
trans lated
Ġrank ed
Ġtrib es
Ġtrib ute
acher s
unal terable
Ġpremis es
ĠNe braska
ĠObject ively
ĠCom mon
ĠCom put
ĠCom munity
ĠCom pelled
ĠCom parison
Ġimpart s
Ġ10 5
Ġapproxim ations
Ġapproxim ates
Ġapproxim ating
Ġcounter s
Ġcounter act
Ġcounter part
Ġcounter bal
Ġcounter acts
abstract o
abstract s
anteced es
anteced ens
Ġcultiv ated
Ġcultiv ates
Ġcultiv ating
Ġgovern s
Ġgovern ed
maintain ing
80 9
Ex position
Ex ternally
Ex actly
Ex planation
Ex tension
RI CELLI
af oresaid
clear ing
deduction s
sour i
Ġtell us
Ġair s
Ġair less
Ġpenetr ated
Ġpenetr ating
Ġinward ly
Ġbre ast
Ġbre aking
Ġbre vity
anthrop ological
Ġrecomm ends
Ġrecomm ending
Ġrecomm ender
Ġdr ive
Ġdr iest
Ġdr inks
Ġdream ing
ott ish
Ġhard er
Ġhard ens
Ġhard ware
Ġexert s
Ġexert ion
Ġprop ound
Ġprop ounds
Ġprop aed
Ġprop agation
concl ude
concl uded
concl udes
concl usiveness
Ġdepr ived
Ġdepr iving
Ġdepr aved
Ġdepr avity
progress ive
ĠAuthor s
ĠPer manent
ĠPer ceptions
ĠPer manence
ĠPer suasion
Ġdisclaim s
Ġdisclaim ed
Ġprefer ring
Ġarchitect onically
appro ves
appro val
appro ximately
Ġnumer o
Ġnumer ation
Ġnumer ically
Ġapprehend s
Ġapprehend ing
correct ing
correct ed
occup ying
affirm ation
affirm atively
assert io
assert orical
assert orial
Ġhyper physics
co exist
co existent
co acerv
col oured
col umn
gener ation
gener ated
gener ating
long est
mod us
mod ality
mod ern
mod ification
mod ifying
mod eration
prom o
prom ised
prom ising
prom otion
ri ot
ri pture
Ġver ge
Ġver ification
Ġver ifying
Ġver acious
Ġver bi
Ġaugment ing
Ġaugment ed
Ġaugment ation
render s
enlar ge
Ġcent ral
Ġmon as
Ġmon adology
Ġmon otheism
Ġfashion able
sec ured
see ks
Ġrepro ached
Ġrepro aches
Ġdimin ution
Ġhorizon s
Ġpra ising
Ġann ual
Ġann ounce
Ġann ounced
Ġann ulled
Ġexerc ising
result ed
ĠTr ademark
ĠTr illion
ĠTr ansgression
Ġdepart ure
Ġdepart ments
Ġalleg es
Ġalleg ation
abs ent
answ ered
Ġdoll ar
prop ose
prop ensions
prop ortions
prop Ã¦deutic
prop ensity
Ġshap es
Ġshap ing
ĠOr der
method ical
method ology
comb atant
compar ative
compar atio
Ġindetermin able
Ġindetermin ateness
Ġoutward ly
Ġsett ling
Ġoverstep s
distrib uted
distrib uting
need s
need less
metaphysic a
Ġfaith ful
Ġcolour s
Ġmagn et
Ġmagn ified
Ġmagn etic
AB OUT
AN CE
AN TITY
PH ICAL
Qu ality
Qu antity
SI US
affect ion
affect ation
affect ions
cop ical
cop ied
coun tries
coun sels
flu idity
mo ved
vari ations
vari ance
vari eties
eng aging
Ġwa ited
Ġwid en
Ġwid ening
Ġcred ulity
Ġinc ited
Ġinc urred
Ġinc urable
Ġinstit ution
Ġinstit utions
Ġinner most
Ġinstruct ors
Ġthreat s
Ġthreat ens
Ġmut ilate
Ġmund i
Ġfl ap
Ġfl oat
Ġnull a
Ġnull o
Ġnull ifying
search ing
Ġrepe ating
Ġconject ured
entia e
imental ism
Ġanthrop ological
Ġanthrop omorphist
term ing
Ġpropens ities
ĠTot um
Ġunb iased
Ġuniform ly
Ġprincip ii
Ġprincip iis
Ġviol ation
Ġviol ating
Ġimprov ising
Ġimprov ements
Ġimprov idently
anticip ations
anticip ated
anticip ating
Ġquar rel
ĠAl most
ĠAl abama
ĠApp rehension
ĠApp endix
Ġsubmit ting
material s
understand s
ĠMe iklejo
Ġconceal ing
Ġdecom pose
Ġdecom positio
Ġimperfect ions
grad ation
grad ations
grad ual
grad uation
ĠAnt icipations
Ġintuitive ly
Ġpeace able
Ġcontempor aneous
ĠPhys iology
ĠPhys iocr
Ġappeal ing
Ġsacr ifices
Ġsacr ificed
Ġhypostat ization
Ġhypostat izes
cour t
opp ortunities
po em
pet itio
Ġmid way
Ġfix ing
Ġreconci ling
Ġreconci lable
Ġur ge
Ġdeal er
Ġdeal ing
Ġrad ius
Ġrad iating
Ġvis ual
Ġvis ited
Ġvis ibly
prof it
prof ound
add ing
add ressed
add ressing
admit s
admit ting
Ġshar per
Ġshar ply
sophist ry
Ġchar ms
ĠĠĠĠĠĠĠĠĠĠĠĠĠĠĠĠĠĠĠĠĠĠĠĠĠĠĠĠĠĠĠĠ ĠĠĠĠĠĠĠĠĠĠĠĠĠĠĠĠĠĠĠ
solu bly
ĠGree ks
Ġgrow s
Ġdesp ises
Ġdesp ised
Ġdesp icable
Ġdesp air
formal iter
Ġenumer ated
Ġenumer ating
ĠEX PER
ĠEX ISTENCE
Ġmodel s
ĠMan ifold
Ġcompens ated
Ġcompens ates
evol ent
evol ved
Ġ12 0
Ġ12 5
Ġ12 40
account s
Ġclos ing
Ġclos est
Ġguarante es
Ġguarante eing
Ġoverlook ing
Ġfault s
Ġfault less
Ġirre voc
Ġirre coverably
Ġirre parable
Ġirre pressible
ĠSystem s
Ġobscure ly
ĠChrist ians
ĠNew slet
ĠNew sletter
ĠNew tonian
Ġtechn ique
Ġtechn ically
don ations
furn ished
furn ishing
mechan ical
mechan ics
sus ceptibility
sus ceptionem
rent ly
Ġcour t
Ġcour ses
Ġpo et
Ġpo orest
Ġpress ing
Ġboast s
Ġboast ing
Ġboast ful
anim a
Ġretain s
Ġretain ing
Ġexempt ed
Ġlic enses
Ġlur k
Ġsun ny
Ġsuit ability
throw ing
embr ace
embr aces
Ġaltern ative
Ġaltern ating
Ġunf illed
Ġunf aithful
Ġunf olds
Ġunf avourable
Ġspo ke
Ġspo iled
Ġvac ans
pract icable
cap acity
ĠST AH
ĠSome thing
Ġsubstit utes
intu itive
aggreg ation
aggreg ates
Ġcontempt uous
Ġphilosoph ic
Ġphilosoph ies
Ġphilosoph ized
Ġphilosoph ically
Ġphilosoph izing
educ ation
educ ators
assum es
Ġentertain s
Ġentertain ment
Ġinvalid ate
Ġindis soluble
Ġindis put
Ġindis solubly
Ġsolic ited
Ġcoinc iding
Ġconven iently
Ġcombat ant
Ġkey stone
ĠANAL OGIES
Ġdefend ers
continu ing
continu ed
continu ance
psychological ly
Ġspiritual e
Ġspiritual ist
Ġcalcul ations
Ġcalcul ating
Ġmulti plies
Ġmulti plicanda
dogmat a
dogmat ic
dogmat ist
dogmat izing
dogmat ists
Ġsubstantial e
ĠChristian ity
Ġsophism a
41 09
Leibnitz io
Leibnitz ian
Metaphys ical
Per ception
Per fect
Per haps
Sp inozism
St ill
St ars
UND ER
soul s
treat ise
Ã¦ sthetic
Ġve hement
Ġten or
hes itate
hes itation
infin itude
Ġomit ting
Ġsil ly
Ġsil ently
Ġpupil age
Ġband s
Ġbirth place
Ġfat ality
Ġnarrow ly
Ġnarrow est
Ġlab oured
Ġlab oure
Ġlab yrin
essential ia
ĠIs land
qual ifies
qual itas
Ġdece ives
dev ote
dev ices
defect s
Ġtrust ees
Ġhes itates
Ġperplex ities
excl usion
excl ude
excl uded
excl udes
Ġstead y
ĠAb solute
ĠAb ove
Ġdispens es
Ġdispens able
Ġchild ish
Ġmyst ical
Ġmyst ics
Ġmyst ery
Ġmyst erious
Ġmyst icum
meaning less
Ġassist ing
Ġassist entiae
Ġfell ow
Ġimped es
Ġimped ing
Ġimped iment
evil le
accomp any
ĠConcl uding
Ġ25 00
deser ves
deser ved
destroy s
destroy ing
destroy ed
pursu e
pursu ing
pursu its
remark ed
remark able
remark ably
commun e
commun is
invol ve
Ġfair ness
Ġfancy ing
Ġsketch ing
Ġirresist ibly
dogmatical ly
Ġobey ed
Ġsuffer ance
Ġsuffer ings
Ġridic ules
ĠMORAL ITY
.. .
.. .âĢĿ
.. ..
Ar ithmetic
Ar cesilas
De fect
Gr ace
He teronomy
He aven
Not withstanding
Tr ansition
Tr ancendent
Tr anslated
access ions
bal anced
cosm ologia
did actically
hon ourable
merit o
peculiar ly
text s
yllogism os
ĉĉ ĠĠ
ĉĉ ĉĉ
ĉĉ ĉĠĠ
Ġid em
Ġid leness
Ġid olaters
ĠQu id
ĠQu ality
ĠQu od
ĠQu antities
Ġtext s
incre ment
introdu ces
Ġcat echism
Ġinn umerable
Ġincor ruptible
Ġinsist s
Ġinsist ing
Ġburd ensome
organ um
organ ized
Ġfil ed
Ġfil ename
Ġnihil o
Ġnihil um
seem ing
section s
Ġreview s
Ġreview er
Ġreview ing
Ġdark est
Ġanim i
Ġanim am
Ġanim ality
Ġanim ated
Ġanim ates
Ġanim advers
Ġsust ains
Ġsust enance
ĠIll usion
ĠIll ino
endeavour ing
Ġunexpected ly
Ġcast ing
Ġcompr ise
transc ending
Ġru ins
Ġround ness
Ġround about
Ġembarrass es
Ġembarrass ment
Ġtrace d
Ġvit am
Ġvit ally
Ġvit ium
Ġvict ors
Ġvict ories
Ġvag um
Ġvag abond
adm ired
adm irable
Ġsynon ym
Ġsynon yms
Ġsevere ly
exc iting
exc uses
exhib its
Ġste el
Ġste ward
ĠAfter wards
Ġyield ing
Ġsubter rane
Ġmast ers
Ġmast ered
prev ailed
ĠGer mans
Ġgrat ified
Ġgrat iae
Ġgrat uitous
Ġgrat uitously
Ġcontrover sies
prob ably
Ġencour aged
Ġencour agement
ĠEnd s
Ġcritic ized
Ġcritic ised
Ġcritic izing
Ġattach ments
assign s
ĠMis souri
Ġ178 1
Ġ178 5
Ġ178 8
accur ately
accur acy
contempl ation
contempl ate
contempl ates
contempl ating
Ġsuperfluous ness
Ġutter ing
discus sing
design ing
design ations
process es
THE OREM
Ġfigur atively
Ġfigur ae
Ġdefici encies
advance d
advance ment
Ġinduce ment
Ġpunct uation
Ġpunct ilious
Ġmistaken ly
Ġweakness es
Ġhinder ances
support ing
rupted ly
Ġpraise worthy
absurd ity
Ġrepeated ly
Ġfatal ism
accompan ies
accompan iment
spont aneous
spont aneously
Ġexagger ations
Ġexagger ates
ĠLOGIC AL
71 2
Em ployee
Ide as
Ph ysics
Respect ing
Un conditioned
Un ited
Un iverse
Un iversal
Un fortunately
bar ic
bar barism
bring s
creat ing
fund raising
favour able
last ing
last ly
met abasis
mag ic
oe ia
popular ity
sur face
sur render
sur veyed
sur faces
sur prising
spr ings
tent h
test s
test ed
your s
Ġeduc ators
Ġastr ay
Ġastr onomy
intr insically
enjoy s
enjoy ing
enjoy ments
Ġwarn ed
Ġwicked ness
Ġcens or
Ġcens ura
Ġsl umber
Ġsl ips
Ġsl avish
Ġsw im
Ġsw allowed
Ġsw iftness
Ġpol itical
Ġpubl ication
Ġtol erably
Ġmal evolent
Ġmar red
Ġmar iner
Ġmar ionet
anc ers
analog on
analog ies
analog ous
analog ue
analog ously
Ġissu es
Ġred ness
Ġrevel ata
Ġredistrib ution
Ġrevolution ized
Ġaspect s
Ġanxi eties
Ġlow ered
Ġweaken ed
Ġwithdraw s
Ġwithdraw ing
ĠID EAL
que en
ulous ness
Ġprohib itive
Ġprolong ation
Ġunpleasant ness
del ay
del ivered
del iverance
det ected
Ġspecul ate
Ġspecul atists
Ġrig id
Ġrig our
Ġregular ity
Ġselect ing
Ġreluct ance
Ġreluct antly
Ġconsult ed
ĠAmong st
Ġappell ations
ĠPsych ological
Ġdisapp ointed
soon er
Ġprepar ing
Ġprepar atory
close ly
ĠSe a
ĠSe gner
ĠSe ptember
Ġsubdiv isibility
Ġcontrol s
ĠCan st
ĠCogn itive
Ġdesert s
Ġposit ives
Ġvalu able
ĠRel igion
ĠRoyal ties
keep ing
sym pat
Ġsimpl er
Ġsimpl ify
Ġsimpl ifying
ĠDetermin ation
Ġinvent ed
Ġinvent ory
Ġinvent ors
Ġinfring es
Ġinfring ed
ĠMon th
ĠLaw s
Ġ13 0
Ġ13 5
Ġrespon sibilities
maj estic
mail ing
contest s
Ġharmonious ly
Ġappropri ation
Ġappropri ating
Ġ45 57
observ able
observ ance
occur red
occasion al
occasion ing
Princi ples
Ġomnis cience
hypothetical ly
ĠEpicurean ism
ĠMoral ists
Ġstruct ures
Ġsacred ness
Ġrecommend ations
Ġarchetyp a
Ġ199 1
Ġ199 4
Ġ199 7
Ġ199 8
Ġ199 9
Ġcatalog uers
prevent ed
TRIB UTION
Ġratiocin atio
Ġratiocin ati
Ġratiocin atae
17 5
17 39
Al ways
EG ORIES
PEND ENCE
Sy nthesis
authoriz e
authoriz ing
bor n
bor row
ban ished
bene fit
bene ficence
dict ation
dict um
dict ates
dict atorial
ey es
fl ashed
fr ame
fr ankly
fal sely
fil es
fil ings
fill s
fill ing
fixed ly
horizon s
lie u
mem ory
numer o
numer ical
numer ically
numer ica
pat tern
pun ishes
pun ishment
pun ishable
ration ally
rain bow
run s
sent iment
sent imentalism
van ity
van ishes
van ishing
wit nesses
writ ings
Ġrom ancers
Ġign ava
Ġign oble
Ġtemper ance
hetical ly
infer red
revol t
revol ve
revol ved
revol utions
reconci ling
Ġcut s
Ġcut ting
Ġcustom s
Ġsor ry
Ġsan ctification
Ġsan ctity
Ġsedu cing
Ġsedu ctive
Ġsoft ness
Ġpot ens
Ġpot entially
Ġpet itio
Ġincontest able
Ġbes et
Ġball s
Ġmil es
Ġmil itant
Ġflu ency
Ġflu ctuating
Ġep ithet
Ġep igenesis
Ġell ipses
Ġecon omy
Ġelucid ation
Ġelucid ations
Ġrever sely
Ġrever ti
Ġrevol ve
Ġrevol ves
Ġrevol ved
Ġrevol utions
Ġdread s
Ġdwell ing
Ġbeg un
Ġhit ting
Ġlive liness
Ġlof tiest
Ġloose ly
Ġforget s
ĠIM MOR
perform ances
chief ly
Ġdeed s
Ġhast e
Ġhast ens
Ġuninter fered
Ġunansw ered
Ġ(_ )
Ġcomfor ting
Ġcomfor table
Ġrob bed
Ġsoci al
Ġundermin e
Ġundermin es
Ġundermin ing
Ġundermin ed
Ġtrad uc
Ġtroub lesome
Ġsensual ized
Ġsensual ists
Ġimpract icability
Ġpersist ed
Ġpersist ence
indu ction
indu ced
indifferent ism
indifferent ists
Ġship wre
artic ulation
artic ulatio
exerc ises
exerc ised
Ġquit ting
Ġstopp ing
Ġconsent iunt
Ġappet ites
Ġappet imus
Ġadvers ity
Ġadvers aries
ĠPers ius
ĠThought s
Ġleap ing
Ġartic le
Ġartic les
Ġargu es
Ġargu ed
ĠSc ottish
ĠSc ripture
ĠSen sibility
ĠOp inions
intention ed
Ġserious ness
ĠGos pels
Ġgrate ful
Ġgross ly
Ġremed ies
medi ation
Ġpresum ptuously
Ġpresum ptuous
ĠEngl and
avail s
avail ing
Ġinviol ability
Ġindul ged
Ġindivid ually
Ġindivid uality
Ġimagin able
Ġimagin arius
Ġsignal ized
Ġguess es
particip ation
particip ate
particip ant
particip ating
Ġantiqu ated
Ġcoal esce
Ġhero ic
Ġhero ism
grat ified
grat ifying
grat uitous
Ġfals ification
Ġfals ify
Ġunden iably
Ġvolunt arily
corrupt s
discern ed
discern ment
Ġparallel ism
substant iality
substant iae
requis ites
requis ita
ĠArgum ent
IND EMNITY
conflict s
conflict ing
Ġcollected ness
critic izes
Ġfanci ful
Ġextravag ances
signific ancy
comparison s
Ġcredential s
Ġthreaten ings
Ġanthropomorph ically
Ġsharp est
Ġsharp ened
circum scribed
Ġpoison er
Ġunfair ly
cultiv ation
cultiv ating
Ġpragmatical ly
Ideal ist
Philos ophy
Philos ophers
ĠMonad ology
Mathemat ical
coinc ide
coinc ident
coinc ides
coinc idence
ĠUNDER STAND
568 2
Among st
Ch aracter
Ch ange
Ch anges
Cont act
Cont ents
Cont ingence
Epic urus
First ly
Mor als
Sto ic
bre aking
bre vity
cal m
cur rent
cur iosity
cur vature
carr y
carr ied
custom ary
dest ined
eg otistic
fa ithful
fam ily
firm ly
fail s
fail ing
fail ure
fault iness
gen us
gen uine
high ly
lo quacious
lab oure
mer ge
mer chant
pus hed
penetr ate
sure ly
wis er
Ġ80 9
Ġtor n
Ġtempt ed
Ġtempt ation
Ġadequ ateness
instruct ress
Ġtheolog ian
enumer ated
Ġwarrant ies
Ġwander ings
Ġcand id
Ġcitiz ens
Ġsit us
Ġsit uation
Ġsag acious
Ġincompre hensibilities
Ġincorrect ly
Ġinstrum ents
Ġbar barism
Ġbar baric
Ġbro ad
Ġthir ty
Ġthrow s
Ġthwart s
Ġming led
Ġmock ing
Ġfam ous
Ġfam ily
Ġfam iliar
Ġfant astical
ann ouncement
ann ouncing
Ġnom adic
Ġnought s
Ġecl ipse
Ġrepress ed
Ġremind ed
asc ent
asc end
asc ension
Ġhour s
Ġhint s
impl ies
impl ied
impl anted
Ġlat est
Ġliqu id
Ġlangu or
Ġlament ed
Ġlament able
Ġsuppos able
thy self
threat ening
vert ently
Ġproc ures
Ġproc ured
Ġproc uring
Ġproject ile
embarrass ing
conject ures
confin ed
conven iently
chimer a
chimer as
chimer ical
Ġdeposit or
Ġalkal is
Ġunsol ved
Ġunquestion ed
depr ive
depr ived
depr ives
trace able
Ġempiric ists
Ġvicious ness
ĠBec ome
Ġhearer s
Ġimmedi ata
prot ect
prot ensive
pros perous
pros pects
pros yllogismos
Ġabut s
suggest s
suggest ion
suggest ed
ĠFac ulties
ĠFOU RTH
Ġquick en
Ġquick ly
Ġquick ened
ĠAd aptation
Ġjuris prudence
Ġaccus er
Ġappend ix
cast ic
cast les
Ġador n
Ġador ation
Ġador ned
ĠPre pared
Ġdiss ension
Ġdispar age
Ġdispar ata
Ġdispar aging
Ġdisgust ing
Ġchallen ge
Ġchallen ged
Ġchallen ges
Ġlear ner
Ġlear ning
Ġlear nt
specul ators
spread ing
ĠSh ould
ĠSh all
ĠSh allow
prefer red
Ġthank ful
Ġthank fulness
ĠOTHER WIS
ĠInte ger
Ġcontest s
ĠGre cian
ĠWis est
ĠWis dom
ĠWis consin
ĠCl assification
Ġobl ivion
prohib ition
prohib iting
prohib itivae
propri ety
Ġdiscret a
ĠHist orical
ĠHypothe tical
weight iest
Ġenv ying
Ġenig matical
ĠEv il
Ġtert io
Ġimpot ent
Ġcorrupt ing
Ġcorrection s
Ġinflex ibly
Ġapper tain
Ġanalyst s
Ġsummon s
Ġsummon ing
Ġsummon ed
ĠLat ins
Ġdecre ases
Ġ18 2
Ġresist ing
Ġsupplement ing
Ġsupplement ed
ĠUT F
Ġillum inations
Ġdegr ading
Ġelimin ate
Ġelimin ated
Ġelimin ating
contempt ible
obvious ly
Ġinstant aneous
Ġprovision ary
Ġbrief ly
Ġbrief est
Ġabsor ption
Ġabsor bed
Ġabsor bent
indefinite ly
ĠExt ension
ĠExt ensive
ĠExt reme
Ġsurr ounds
Ġsurpass es
Ġsurrender ing
attack ing
product s
invent ed
myst ical
Ġ99 775
Ġ99 712
ĠImper ative
manifest ly
manifest ations
Ġmistrust ful
Ġcrown s
Ġcrown ed
elev ating
Ġdevi ation
Concl usion
PLEAS URE
ĠDisc ursive
Ġdescend ants
ĠNeg ative
colour ing
Ġcharm ing
Ġspoil s
Ġindiscern ible
ĠAbb Ã©
Ġruin ous
Ġfriend ship
schol ar
Ġauthentic ity
Ġastronom er
false hood
touch ing
touch stone
Ġeconom ize
ĠPerson s
ĠPerson ality
circumst ance
62215 4
Ġincontrovert ible
Ġearnest ly
Ġepoch s
Ġrapid ly
Ġembell ishing
Ġtriumph ant
ĠCopernic an
178 1
178 7
AT ES
Che mists
Che seld
Com munity
Com plete
Certain ly
EI THER
Im possibility
Im manent
Logical ly
aut ia
aut omaton
aud ible
astr ay
astr ology
adequ ateness
bat tle
bes ide
back wards
bungl ers
bungl ingly
cher ished
cher ishes
cert ificate
citiz en
citiz ens
dur ation
dam age
dam ages
dile mma
dimin ution
dimin ishes
ein heit
fanci ed
fanci ful
hist orical
hist orian
hyp ocrisy
hyp ostatic
hio ko
loc ations
loc ated
moun tains
mark ed
mock ing
mock ed
null ity
null ifies
rhapsod y
rhapsod istic
tre ated
tre asure
temper ate
temper ament
upright ness
uphold ers
voc abulary
wond er
wond ered
Ġer go
Ġer adicated
ĠQU ALITY
ĠQU ANTITY
Ġtur ning
Ġtur bul
Ġtrem ble
Ġtrem bles
Ġapt ness
Ġapt itudes
ones elf
inj ure
inj ury
inward ly
incomp etent
incomp atible
reject ion
reve als
reve aled
redu ction
redu ced
itating ly
isol ate
isol ated
attr action
attr actions
Ġwarr anted
Ġwarr ants
Ġwild est
Ġwatch ing
Ġcou ple
Ġcou pled
Ġcert ify
Ġcert ificate
Ġcount s
Ġcount less
Ġsal es
Ġsal utary
Ġsink s
Ġsap io
Ġpu ppet
Ġpu ffing
Ġpal pable
Ġpal ingenesis
Ġpill ow
Ġpill ars
Ġpoly theism
Ġpoly syllogistic
Ġpomp ous
altern ately
Ġincompar able
Ġincompar ably
Ġban ish
Ġban ishes
Ġblessed ness
Ġtou ched
Ġtou ches
Ġmir acle
Ġmir ror
Ġmus ic
Ġmus ician
Ġmill enni
Ġfif th
Ġfif ty
Ġfight ing
Ġfra il
Ġfra ilty
Ġfier i
Ġfier ce
Ġnes cit
Ġnes cio
Ġeb ook
Ġeb ullitions
Ġeff emin
Ġeff icacy
sever ity
secret ly
Ġreign s
Ġreap ed
Ġrenew ed
Ġretort ed
Ġconqu ered
Ġconqu eror
Ġconced ing
Ġconced ed
Ġcondem ning
Ġcondem ned
Ġdull est
start ed
Ġhover s
Ġhover ing
Ġprae ter
Ġprae ferre
Ġproud ly
Ġprogram me
Ġum pire
Ġum pires
imm ensity
imm utability
Ġexceed ing
Ġexceed ingly
Ġexcess es
Ġexcess ive
Ġexempl ification
Ġexempl ifies
Ġexhort ation
Ġlust ful
Ġfort itude
Ġfort uitous
Ġforfe it
Ġforfe its
Ġgout y
erect ing
erect ed
Ġallot ment
Ġallure ment
Ġallure ments
emin ence
empiric ist
empiric ists
consol ing
consol ation
Ġdefe at
Ġdefe ats
Ġdepict s
Ġdepict ed
illustr ate
illustr ations
ampl ify
Ġunw aver
Ġunw onted
Ġunre strained
Ġunre venged
Ġuntr ained
Ġuntr avelled
Ġunjust ifiable
Ġunguarded ly
depre ciation
depre ciated
depart ure
depart ment
Ġ(* )
Ġspher ical
Ġspher oid
tranqu il
tranqu ility
Ġrot ten
Ġrot eron
Ġrhet oric
Ġrhet oricians
Ġmel ius
Ġmel anch
Ġtranqu il
Ġtranqu ility
Ġva unted
Ġva cillating
Ġpervert s
pron ounce
pron ounces
Ġabsol ves
Ġabsol uta
Ġabund ant
Ġabund antly
succeed s
succeed ing
Ġusurp ed
Ġusurp ation
Ġshame less
antagon ism
antagon istic
phil odox
phil autia
exec ution
exec uted
exto lling
exto lled
exert ions
Ġquib ble
Ġquib bling
Ġstat ute
Ġstat utes
ĠAff inity
ĠAff irmative
Ġjugg ling
Ġjugg lery
Ġaccum ulation
Ġaccum ulated
Ġaccru ing
Ġaccru ed
acid s
acknowled ged
acknowled ges
care fully
Ġadjust ing
Ġadjust ed
ĠPO STUL
ĠPER CEPTION
ĠPER SIUS
Ġdismis sing
Ġdismis sed
Ġdisappro ved
Ġdisappro val
Ġdiscontinu ing
Ġdiscontinu ed
unfortun ate
unfortun ately
unceasing ly
uniform ity
Ġyaw n
Ġyaw ning
Ġprecl ude
Ġprecl udes
Ġpreponder ate
Ġpreponder ance
strong er
Ġchamp ion
Ġchamp ions
ĠSU BJECTIVE
ĠSU BST
ĠSing le
ĠSing ular
ĠSpirit uality
prepar ation
prepar ations
preponder ate
preponder ance
ĠIncl ination
ĠIncl uded
Ġplun ge
Ġplun ges
Theoretical ly
ĠCOM MON
ĠCOM POSITION
Ġdespot ic
Ġdespot ism
Ġdistrust ful
Ġcommend able
compl aint
compl acent
Ġextol s
Ġextingu ished
Ġextingu ishing
weak ens
weak nesses
ĠEs se
ĠEs sential
ĠEqu ator
ĠEqu ivocal
Ġoutwe ighed
Ġoutwe ighs
ĠDE FIN
ĠDE PENDENCE
ĠDest ination
ĠDest itute
ĠDON ATIONS
Ġimpair s
fulfil s
fulfil ment
Ġconcess ion
Ġconcess ions
Ġconcur rence
Ġconcur rently
Ġstray ed
Ġsumm ary
Ġsumm un
Ġadvised ly
ĠLI ABILITY
ĠLI FE
contrib ute
contrib uted
contrast ed
Ġsuppress ion
Ġconfer red
Introdu ction
Introdu ctory
accompl ish
accompl ishment
Ġcloud ed
Ġarrog ate
Ġarrog ates
display ing
redistrib ution
redistrib uting
subsum ed
subsum ption
Ġacknowled ged
Ġacknowled ges
contempor aneous
contempor aneously
Ġoverthrow ing
arrogant ia
Ġcoar se
Ġcoar ser
Ġcool ness
ĠSub sistence
ĠSub stantiality
Ġharsh ness
Ġmischief s
Ġawa it
Ġawa its
blind ing
correction s
short est
short ening
Ġtransport s
belie ves
belie ved
Ġfrustr ate
Ġfrustr ated
remo ves
remo ving
Ġdeline ate
Ġdeline ated
Ġcheer ful
Ġcheer fulness
comput er
comput ers
Ġinterrog ation
Ġinterrog ate
ruin ous
Ġbenef ited
Ġbenef iting
Ġglim mer
Ġglim pses
superior ity
apprehend ed
Ġtwist ing
Ġrepul se
Ġrepul sed
Ġsympath ize
Ġsympath izing
Ġsymbol s
Ġsympat hetic
Ġsympat hetically
Ġcommunic ates
Ġcommunic ating
ĠPerfect ion
Ġambigu ities
Ġambigu ae
collect s
Quod lib
Ġincit ement
Ġincit ements
figur ative
figur ae
Ġvex ing
Ġvex ed
Ġvehic le
Ġvehic ula
Ġdeceit fully
school s
school men
detect ing
symbol ical
Ġratiocinant is
Ġratiocinant es
Ġincapac itate
Ġincapac itates
Ġflatten ing
Ġflatten ed
Ġepisyllogism s
Ġepisyllogism os
Ġshadow y
Ġtorment ed
Ġtorment est
cobweb s
govern ment
govern ments
splendour s
Ġwretched ness
Ġeulog ies
Ġeulog ize
Ġrecapit ulate
Ġrecapit ulation
condemn ation
Ġimpregn ation
Ġimpregn able
ĠPHILOSO PHY
ĠPHILOSO PHICAL
ĠReciproc al
ĠReciproc ity
ĠKNOW LED
100 00
Ab solutely
App rehension
Apr il
Astr onomy
Ant icipations
BE FORE
Bod ies
Bole yn
Cr usius
Cogn ition
CON CLUSION
Do es
Des pite
Dem ocritus
Dak ota
Det ection
Del aware
DON ATIONS
DIS TRIBUTION
DES IRE
FOU RTH
GS BERG
Gign i
Hold ing
Hypothe ses
Hamps hire
IP ATIONS
Ind iana
Ill ustration
Imag ination
IBOL Y
Judgement s
KÃ ĸNI
Law s
Look ing
Mich igan
Mand eville
Mod o
Mast ers
Mont aign
Nat ural
Nol int
Nun c
Numer us
Neg ative
New tonian
Ok lah
Ov id
Ox ford
Object s
Ont ologia
Pre cepts
Phenomen a
Pers ius
Pun ishment
Post ing
Pro blematical
PAR TICULAR
Prop Ã¦deutic
Plat onism
Sh ould
Sim ply
Scept icism
Sach heit
Socr atic
Te achers
Tem pus
Vari ety
Wel come
Wiz enman
WAN T
Zen o
bu ild
bur st
burd ensome
boast ing
benevol ent
cle arest
cent red
cans on
cens ura
cula e
dr iven
dich otomy
dise ase
dism issed
eth ical
fle eting
fol k
fide lity
fant asy
fert ility
foc us
frequ ently
fool ish
fals ity
foot ed
fri endship
gard ly
gart en
gra fted
gene alogy
hur ry
hast y
htm l
harm less
ju beo
juris diction
kak ov
liber ate
laps us
lax er
laud atur
mar vellous
mil king
mel ior
mole culae
micros copical
nos iqueSol
narr ower
nob ler
narrow ness
obe y
pher s
ran ks
rav ages
rip ened
royal ties
rho pon
sink ing
swe et
sedu ced
slight est
salt s
saf ed
soft ware
spirit ual
tol erably
vig orously
vest ibule
viol ates
war ning
wide ly
year s
ĠâĢĶ >
Ġener gy
Ġxi ii
Ġtas ks
Ġtem ere
Ġtab ular
Ġtac itly
Ġtute lary
Ġtong ues
Ġtort uous
Ġtang ible
Ġtild e
Ġtempor al
head er
heav y
Ġale theian
Ġast erisk
Ġaqu am
Ġade pts
Ġaud ience
Ġauth rhopon
Ġavers amur
Ġaerum nosiqueSol
Ġaiothe ta
inex orable
insp ire
intern e
instit ute
inconce ivabilities
incompar ably
inhab its
instrum entality
Ġoce an
Ġtheat re
Ġtheosoph ic
rece iving
retr ogressively
refin ed
reward ing
rearr anges
revel ation
revere ntial
reinst allation
repet ition
remiss io
isos celes
enem ies
encro aching
Ġwind y
Ġwast ing
Ġcul pable
Ġcel estial
Ġcoll ateral
Ġcree p
Ġcover ing
Ġcrow ning
Ġcru cible
Ġcovert ly
Ġcitab ere
Ġsou lless
Ġsar castic
Ġsqu are
Ġsore ly
Ġscan ning
Ġswor n
Ġsche me
Ġscor n
Ġsix ty
Ġswell ing
Ġsatir ical
Ġpiv ot
Ġpil grimage
Ġpum ice
Ġpall iatives
Ġpud ori
Ġpict ure
Ġpop ulation
Ġpock et
Ġpiec es
alter ations
Ġinim ical
Ġincon gruity
Ġinad vertently
Ġinca utious
Ġinop s
Ġinser ted
Ġincogn izable
Ġinert iae
Ġinext inguishable
Ġinconsist encies
Ġinconsider ateness
Ġincess antly
Ġinsuper able
Ġincul cate
Ġinappro priate
Ġinco herent
Ġinaccess ible
Ġinhab ited
Ġinorgan ic
Ġingen ious
Ġinadequ acy
Ġinoff ensive
Ġble mish
Ġbos om
Ġbul warks
Ġbun gles
Ġbast ard
Ġbarr iers
Ġburn t
Ġbungl er
Ġbiog raphies
Ġboister ous
escap ed
Ġthrif ty
Ġtoll ens
Ġtour ney
Ġmess age
Ġmad ness
Ġmour ns
Ġmonstr osities
Ġmarr ied
Ġmild est
Ġmerc ury
Ġmalle ability
Ġmicros cope
Ġfet ters
Ġfond ness
Ġfost ers
Ġfoun tain
Ġfath om
Ġfool ed
Ġfores ight
anas ia
anarch y
Ġnig gardly
Ġnour ishing
Ġnug atory
Ġeur hioko
Ġemin ent
Ġeuth anasia
Ġeffici ency
Ġisland ers
Ġrepr inted
Ġrenow ned
Ġresem bles
Ġreminis cence
Ġreprim anded
Ġresear ches
leag ued
Ġitem s
Ġconst ans
Ġconstr aining
Ġcongr uent
Ġconquest s
Ġconger ies
Ġcongrat ulate
Ġdar ling
Ġdaw ned
Ġdab ble
Ġdig ressions
Ġdang ers
Ġdra ughts
Ġbeckon ing
Ġbefit ting
stud y
stret ch
stee led
entang le
asym ptotic
Ġhur tful
Ġprimit ively
Ġprhole psis
Ġassem bled
theolog ians
theosoph ists
immeasur ably
Ġanch or
Ġangu ish
Ġanatom ist
Ġexpos ure
Ġlog ician
Ġlad der
Ġlun ar
Ġlik ed
Ġlift s
Ġloft iness
Ġlaug hed
Ġforlor n
Ġsupe resset
Ġsupel lex
ibil ium
irks ome
irreconci lable
Ġgall ows
Ġgestic ulate
ĠImit ation
ĠIdent ification
quaest io
respon sibilities
perman ency
permiss ive
perdur abile
Ġproxim ity
Ġproclaim ed
ĠTod ay
ĠTex as
ĠTyp ic
ĠTerr asson
ĠText s
ĠTOR RICELLI
ĠTele ology
ĠTIM E
ĠTrade Mark
ĠTenn essee
veget able
conca ve
condu ce
charm ing
challen ge
chican eries
Ġdepre ciated
Ġdepress ed
Ġdebar red
Ġdebat able
Ġintus susceptionem
Ġintol erable
Ġintemper ance
Ġbuttress es
illimit ableness
awaken ed
ambig uity
plau sibility
Ġunso phistic
Ġuncom pensated
Ġunreason able
Ġunass ailable
Ġunlu ckily
Ġunten able
Ġunwill ing
Ġungr ateful
Ġunatt ended
Ġuncomp romising
Ġunthink ingly
Ġunsatisf actorily
Ġunadv isable
Ġunri pe
Ġunmist akable
Ġunsus ceptible
Ġuneduc ated
Ġunhes itatingly
Ġunbecom ing
Ġuntou ched
Ġunintention al
Ġuneas iness
Ġunwarrant able
Ġunascertain ed
Ġunprot ected
Ġunskill ful
Ġunilater ally
abund ant
deep ly
delight s
develop ment
degrad ed
minuend ae
Ġlawsu its
trad es
Ġrous ed
Ġrout e
Ġrud eness
Ġrick tig
Ġrhapsod ically
Ġundergo es
Ġundertoo k
Ġtrail er
Ġtrah or
Ġtrampl ed
Ġvind ication
Ġvoy age
Ġvivid ly
Ġvindic ated
Ġvider i
Ġvenge ance
Ġvouch safed
Ġvarie gated
ĠBON UM
ĠBru cker
ĠBAC ON
ĠBaum garten
Ġheark ened
Ġimprud ent
Ġimmeasur able
Ġpersp icuity
Ġperpend icular
Ġpersec ute
Ġpersever ance
Ġnoet a
prae ceptivae
Ġabort ive
Ġabhor rence
adminis ters
Ġsyncret istic
possident is
suff er
supre mum
Ġkins folk
individ uo
indemonstr abilia
indiscern ibilium
indescrib ably
indistingu ishables
Ġshun ned
Ġshoot s
Ġshrew dness
ĠFollow ing
ĠFRE EDOM
ĠFrequ ent
ĠFals us
ĠFlor ida
ĠFranc is
ĠFonten elle
pharm acop
expon ents
extravag ance
Ġrelie ving
Ġrelinqu ishing
Ġrelativ a
Ġstag gered
Ġstup idity
Ġstret ches
Ġconscient iousness
Ġconserv ative
ĠAlex ander
ĠAMPH IBOLY
ĠAXIOM S
ĠApodeict ical
Ġjoc ose
Ġjeal ous
Ġjew el
Ġaccoun ted
Ġmanual s
Ġmanufact ures
Ġadmis sibility
Ġadminis tering
ĠPha edo
ĠPoint s
ĠPne umatism
ĠPlat onic
ĠPOP ULAR
ĠPenn sylvan
ĠPursu ing
Ġdissol ves
Ġdisarr anging
Ġdissim ulation
Ġdisconc ert
Ġdisclos es
Ġdiseng age
Ġdishon est
Ġdisproportion ate
Ġdisqui et
Ġdisinher it
uncor rupted
uninter ruptedly
unfit ness
unexception ably
unyield ingly
unrecogn izable
unveil ing
sovereign ty
Ġpredile ction
Ġpredecess ors
Ġprecipit ated
ĠThousand s
Ġchican es
Ġarbit er
Ġarmist ice
ĠSens ations
ĠSpect ators
ĠSoph isma
ĠSIM PLE
ĠSocr ates
Ġphthis is
solip sismus
elabor ation
elucid ate
elench i
ĠNev ada
Ġsubser vient
premis ses
prejud ice
prelimin aries
ĠOreg on
ĠObvious ly
ĠIncert aeque
ĠInvestig ation
Ġplast er
ĠGAL ILEI
ĠGeorg ia
ĠWOL F
ĠWoh l
ĠWyom ing
ĠWalhall a
ĠWashing ton
Ġgrav itation
ĠCoun sels
ĠClear ness
ĠCap e
ĠCOP ERNIC
ĠCAT EGORIES
ĠColumb ia
measure ment
Ġobtus eness
Ġdespond ing
Ġdesider atum
compart ments
composit a
proxim ate
Ġindefat igably
ĠHob bes
ĠHOP E
ĠHecub a
Ġextrem es
Ġextremit ies
overbor ne
parallel ism
Ġenlight enment
Ġenclos ing
Ġencoun ters
Ġencod ing
Ġenric hed
ĠRATION AL
ĠEduc ation
ĠEgy ptians
ĠEMP IRICAL
ĠEurope an
Ġoutbre ak
Ġterrestr ial
Ġrealissim a
synon ymous
Ġamaz ement
serious ly
ĠDev oid
ĠDynam ical
ĠDemonstr ations
ĠDiog enes
Ġimpug ned
consentient ia
consummat um
assured ly
Ġenthus iasm
Ġcorrel ative
Ġcorrobor ating
Ġinvinc ible
Ġheredit ary
Ġheretof ore
necessitat em
Ġinflu encing
Ġinflict s
Ġinflam mable
Ġsensitiv um
ĠReven ue
ĠRequire ment
ĠMON EY
ĠMont ana
ĠMair an
ĠMED IUM
ĠMOD ALITY
ĠMAD E
ĠMoh ammed
ĠMetamorph oses
ĠMassachusett s
Ġapolog ize
Ġconcaten ation
Ġstrik ingly
Ġstratag em
Ġindustr ious
Ġindulg ent
ĠLeg al
ĠLaert ius
ĠLamber t
Ġmetamorph osed
Ġrespond ed
undeter red
Ġphysiogn omists
ĠUta h
ĠUndoubted ly
Ġaffirmat ives
Incorrupt ibility
Innoc ence
ĠConsid ered
relinqu ish
dissert ation
subdiv isio
subrept io
subreption is
chemist ry
Ġelangu escence
monogram ma
misappre hensions
ĠTHOU GHT
Ġantip athy
Ġantagon ism
Ġovergr own
Ġoverbal ance
Ġoverfl ow
Ġovertur ning
Ġcoars est
Ġposthum ous
ĠAssoci ation
ĠAssert orical
Ġmisfortun es
Ġmiscarr iage
Ġsuperfici ality
Ġsuperann uated
ĠAnnihil ate
ĠAnax agoras
Ġbrigh ter
Ġundemonstr ated
REFUT ATION
philosoph ize
Ġintrospect ions
Allgem einheit
brief ly
noolog ists
ĠUnquestion ably
despot ism
despair ing
Ġinsurmount able
Ġfrug ality
Ġfratern al
Ġfrivol ity
legitim ation
Ġsurmoun ted
Ġsurveill ance
Ġcomprehens ive
ĠArithmet ical
Ġpsycholog ist
ĠVau canson
ĠVermon t
ĠVolta ire
ĠKentuck y
inviol able
invalid ity
Ġdispassion ate
ĠREFL ECTION
Ġgeogra phers
confront s
Ġscru ple
Ġscrup ulousness
Ġdomestic ae
scrut iny
ĠANTIC IPATIONS
guarante es
Ġadmixt ures
Ġartifici ally
Subtr act
Ġirref utable
ĠORIGIN ATION
inflex ible
Ġguardians hip
glimp se
Ġcalumni ators
Ġextramund anum
Ġ750 175
reflex io
Ġderivativ us
interpol ation
Ġprotuber ance
Ġcurvil inear
Ġhydro chloric
ĠINTU ITION
ĠComput ers
Ġcounterbal ancing
Ġpropaed eutic
coacerv atio
Ġverbi age
Ġanthropomorphist s
ĠMeiklejo hn
ĠPhysiocr acy
ĠEXPER IENCE
Ġirrevoc ably
ĠNewslet ters
ĠSTAH L
Ġindisput ably
Ġlaboure rs
Ġlabyrin th
Trancendent al
Ġanimadvers ions
ĠIllino is
Ġsubterrane an
Ġmarionet te
ĠIDEAL ISM
sympat hetic
ĠIMMOR TALITY
Ġtraduc ers
Ġshipwre ck
ĠUNDERSTAND ING
laboure r
ĠOTHERWIS E
Cheseld en
Ġturbul ent
Ġpolysyllogistic a
Ġmillenni um
Ġeffemin ate
Ġunwaver ing
Ġmelanch oly
philodox y
ĠPOSTUL ATES
ĠSUBST ANCE
ĠDEFIN ITION
Quodlib et
ĠKNOWLED GE
KÃĸNI GSBERG
Montaign e
Oklah oma
Wizenman n
ĠaerumnosiqueSol ones
Ġunsophistic ated
pharmacop oeia
ĠPennsylvan ia
ĠCOPERNIC US
